#include "magic_wand_model_data.h"

// We need to keep the data array aligned on some architectures.
#ifdef __has_attribute
#define HAVE_ATTRIBUTE(x) __has_attribute(x)
#else
#define HAVE_ATTRIBUTE(x) 0
#endif
#if HAVE_ATTRIBUTE(aligned) || (defined(__GNUC__) && !defined(__clang__))
#define DATA_ALIGN_ATTRIBUTE __attribute__((aligned(4)))
#else
#define DATA_ALIGN_ATTRIBUTE
#endif

const unsigned char g_magic_wand_model_data[] DATA_ALIGN_ATTRIBUTE = {
  // Paste the data of the char array in `src/model.cc` here
  0x08, 0x00, 0x00, 0x00, 0x54, 0x46, 0x4c, 0x33, 0x62, 0xff, 0xff, 0xff,
  0x03, 0x00, 0x00, 0x00, 0x10, 0x00, 0x00, 0x00, 0x24, 0x00, 0x00, 0x00,
  0x78, 0x00, 0x00, 0x00, 0x24, 0x00, 0x00, 0x00, 0x05, 0x00, 0x00, 0x00,
  0x78, 0x05, 0x00, 0x00, 0xb0, 0x04, 0x00, 0x00, 0xe0, 0x02, 0x00, 0x00,
  0x60, 0x02, 0x00, 0x00, 0x54, 0x01, 0x00, 0x00, 0x01, 0x00, 0x00, 0x00,
  0x78, 0x00, 0x00, 0x00, 0x13, 0x00, 0x00, 0x00, 0xd4, 0x2f, 0x00, 0x00,
  0xd0, 0x2f, 0x00, 0x00, 0xdc, 0x2e, 0x00, 0x00, 0x68, 0x2e, 0x00, 0x00,
  0xfc, 0x2d, 0x00, 0x00, 0xac, 0x11, 0x00, 0x00, 0x98, 0x10, 0x00, 0x00,
  0xbc, 0x0e, 0x00, 0x00, 0x60, 0x06, 0x00, 0x00, 0xfc, 0x05, 0x00, 0x00,
  0x78, 0x05, 0x00, 0x00, 0xa8, 0x2f, 0x00, 0x00, 0xa4, 0x2f, 0x00, 0x00,
  0xa0, 0x2f, 0x00, 0x00, 0x9c, 0x2f, 0x00, 0x00, 0x98, 0x2f, 0x00, 0x00,
  0x94, 0x2f, 0x00, 0x00, 0x90, 0x2f, 0x00, 0x00, 0x8c, 0x2f, 0x00, 0x00,
  0x0f, 0x00, 0x00, 0x00, 0x4d, 0x4c, 0x49, 0x52, 0x20, 0x43, 0x6f, 0x6e,
  0x76, 0x65, 0x72, 0x74, 0x65, 0x64, 0x2e, 0x00, 0x00, 0x00, 0x0e, 0x00,
  0x18, 0x00, 0x04, 0x00, 0x08, 0x00, 0x0c, 0x00, 0x10, 0x00, 0x14, 0x00,
  0x0e, 0x00, 0x00, 0x00, 0x14, 0x00, 0x00, 0x00, 0x5c, 0x00, 0x00, 0x00,
  0x60, 0x00, 0x00, 0x00, 0x64, 0x00, 0x00, 0x00, 0x84, 0x00, 0x00, 0x00,
  0x12, 0x00, 0x00, 0x00, 0x04, 0x2f, 0x00, 0x00, 0xa0, 0x2e, 0x00, 0x00,
  0xf8, 0x2d, 0x00, 0x00, 0x98, 0x2d, 0x00, 0x00, 0x30, 0x2d, 0x00, 0x00,
  0xdc, 0x10, 0x00, 0x00, 0xc0, 0x0f, 0x00, 0x00, 0xe4, 0x0d, 0x00, 0x00,
  0xa0, 0x05, 0x00, 0x00, 0x3c, 0x05, 0x00, 0x00, 0xb0, 0x04, 0x00, 0x00,
  0xe8, 0x03, 0x00, 0x00, 0x38, 0x03, 0x00, 0x00, 0xa4, 0x02, 0x00, 0x00,
  0x10, 0x02, 0x00, 0x00, 0x90, 0x01, 0x00, 0x00, 0xfc, 0x00, 0x00, 0x00,
  0x80, 0x00, 0x00, 0x00, 0x01, 0x00, 0x00, 0x00, 0x00, 0x00, 0x00, 0x00,
  0x01, 0x00, 0x00, 0x00, 0x11, 0x00, 0x00, 0x00, 0x08, 0x00, 0x00, 0x00,
  0x1c, 0x04, 0x00, 0x00, 0x58, 0x03, 0x00, 0x00, 0xc8, 0x02, 0x00, 0x00,
  0x24, 0x02, 0x00, 0x00, 0xac, 0x01, 0x00, 0x00, 0x10, 0x01, 0x00, 0x00,
  0x94, 0x00, 0x00, 0x00, 0x10, 0x00, 0x00, 0x00, 0x04, 0x00, 0x00, 0x00,
  0x6d, 0x61, 0x69, 0x6e, 0x00, 0x00, 0x00, 0x00, 0x8e, 0xff, 0xff, 0xff,
  0x00, 0x00, 0x00, 0x09, 0x04, 0x00, 0x00, 0x00, 0x1c, 0x00, 0x00, 0x00,
  0x10, 0x00, 0x00, 0x00, 0x04, 0x00, 0x00, 0x00, 0x4e, 0xd2, 0xff, 0xff,
  0x00, 0x00, 0x80, 0x3f, 0x01, 0x00, 0x00, 0x00, 0x11, 0x00, 0x00, 0x00,
  0x01, 0x00, 0x00, 0x00, 0x10, 0x00, 0x00, 0x00, 0xf6, 0xfb, 0xff, 0xff,
  0x00, 0x00, 0x00, 0x19, 0x01, 0x00, 0x00, 0x00, 0xce, 0xd1, 0xff, 0xff,
  0x10, 0x00, 0x00, 0x00, 0x12, 0x00, 0x00, 0x00, 0x14, 0x00, 0x00, 0x00,
  0x20, 0x00, 0x00, 0x00, 0x02, 0x00, 0x00, 0x00, 0x01, 0x00, 0x00, 0x00,
  0x03, 0x00, 0x00, 0x00, 0x08, 0x00, 0x00, 0x00, 0x49, 0x64, 0x65, 0x6e,
  0x74, 0x69, 0x74, 0x79, 0x00, 0x00, 0x00, 0x00, 0x08, 0xd2, 0xff, 0xff,
  0x00, 0x00, 0x0e, 0x00, 0x18, 0x00, 0x08, 0x00, 0x0c, 0x00, 0x10, 0x00,
  0x07, 0x00, 0x14, 0x00, 0x0e, 0x00, 0x00, 0x00, 0x00, 0x00, 0x00, 0x08,
  0x03, 0x00, 0x00, 0x00, 0x18, 0x00, 0x00, 0x00, 0x0c, 0x00, 0x00, 0x00,
  0x04, 0x00, 0x00, 0x00, 0xdc, 0xd1, 0xff, 0xff, 0x01, 0x00, 0x00, 0x00,
  0x10, 0x00, 0x00, 0x00, 0x03, 0x00, 0x00, 0x00, 0x0f, 0x00, 0x00, 0x00,
  0x05, 0x00, 0x00, 0x00, 0x02, 0x00, 0x00, 0x00, 0x46, 0xd2, 0xff, 0xff,
  0x10, 0x00, 0x00, 0x00, 0x11, 0x00, 0x00, 0x00, 0x14, 0x00, 0x00, 0x00,
  0x30, 0x00, 0x00, 0x00, 0x02, 0x00, 0x00, 0x00, 0x01, 0x00, 0x00, 0x00,
  0x03, 0x00, 0x00, 0x00, 0x1a, 0x00, 0x00, 0x00, 0x73, 0x65, 0x71, 0x75,
  0x65, 0x6e, 0x74, 0x69, 0x61, 0x6c, 0x2f, 0x64, 0x65, 0x6e, 0x73, 0x65,
  0x5f, 0x31, 0x2f, 0x42, 0x69, 0x61, 0x73, 0x41, 0x64, 0x64, 0x00, 0x00,
  0x38, 0xd2, 0xff, 0xff, 0xd6, 0xfd, 0xff, 0xff, 0x00, 0x00, 0x00, 0x08,
  0x03, 0x00, 0x00, 0x00, 0x24, 0x00, 0x00, 0x00, 0x18, 0x00, 0x00, 0x00,
  0x0c, 0x00, 0x00, 0x00, 0x00, 0x00, 0x06, 0x00, 0x08, 0x00, 0x07, 0x00,
  0x06, 0x00, 0x00, 0x00, 0x00, 0x00, 0x00, 0x01, 0x01, 0x00, 0x00, 0x00,
  0x0f, 0x00, 0x00, 0x00, 0x03, 0x00, 0x00, 0x00, 0x0e, 0x00, 0x00, 0x00,
  0x04, 0x00, 0x00, 0x00, 0x01, 0x00, 0x00, 0x00, 0xfe, 0xfc, 0xff, 0xff,
  0x00, 0x00, 0x00, 0x09, 0x01, 0x00, 0x00, 0x00, 0xd6, 0xd2, 0xff, 0xff,
  0x10, 0x00, 0x00, 0x00, 0x10, 0x00, 0x00, 0x00, 0x14, 0x00, 0x00, 0x00,
  0x2c, 0x00, 0x00, 0x00, 0x02, 0x00, 0x00, 0x00, 0x01, 0x00, 0x00, 0x00,
  0x10, 0x00, 0x00, 0x00, 0x15, 0x00, 0x00, 0x00, 0x73, 0x65, 0x71, 0x75,
  0x65, 0x6e, 0x74, 0x69, 0x61, 0x6c, 0x2f, 0x64, 0x65, 0x6e, 0x73, 0x65,
  0x2f, 0x52, 0x65, 0x6c, 0x75, 0x00, 0x00, 0x00, 0x1c, 0xd3, 0xff, 0xff,
  0x00, 0x00, 0x0a, 0x00, 0x10, 0x00, 0x04, 0x00, 0x08, 0x00, 0x0c, 0x00,
  0x0a, 0x00, 0x00, 0x00, 0x02, 0x00, 0x00, 0x00, 0x10, 0x00, 0x00, 0x00,
  0x04, 0x00, 0x00, 0x00, 0x01, 0x00, 0x00, 0x00, 0x0e, 0x00, 0x00, 0x00,
  0x02, 0x00, 0x00, 0x00, 0x0d, 0x00, 0x00, 0x00, 0x03, 0x00, 0x00, 0x00,
  0x7a, 0xfd, 0xff, 0xff, 0x00, 0x00, 0x00, 0x16, 0x01, 0x00, 0x00, 0x00,
  0x52, 0xd3, 0xff, 0xff, 0x10, 0x00, 0x00, 0x00, 0x0f, 0x00, 0x00, 0x00,
  0x14, 0x00, 0x00, 0x00, 0x30, 0x00, 0x00, 0x00, 0x02, 0x00, 0x00, 0x00,
  0x01, 0x00, 0x00, 0x00, 0x70, 0x00, 0x00, 0x00, 0x1a, 0x00, 0x00, 0x00,
  0x73, 0x65, 0x71, 0x75, 0x65, 0x6e, 0x74, 0x69, 0x61, 0x6c, 0x2f, 0x66,
  0x6c, 0x61, 0x74, 0x74, 0x65, 0x6e, 0x2f, 0x52, 0x65, 0x73, 0x68, 0x61,
  0x70, 0x65, 0x00, 0x00, 0x44, 0xd3, 0xff, 0xff, 0xe2, 0xfe, 0xff, 0xff,
  0x00, 0x00, 0x00, 0x05, 0x01, 0x00, 0x00, 0x00, 0x38, 0x00, 0x00, 0x00,
  0x2c, 0x00, 0x00, 0x00, 0x14, 0x00, 0x00, 0x00, 0x00, 0x00, 0x0e, 0x00,
  0x14, 0x00, 0x00, 0x00, 0x10, 0x00, 0x0c, 0x00, 0x08, 0x00, 0x04, 0x00,
  0x0e, 0x00, 0x00, 0x00, 0x03, 0x00, 0x00, 0x00, 0x01, 0x00, 0x00, 0x00,
  0x03, 0x00, 0x00, 0x00, 0x01, 0x00, 0x00, 0x00, 0x01, 0x00, 0x00, 0x00,
  0x0d, 0x00, 0x00, 0x00, 0x01, 0x00, 0x00, 0x00, 0x0c, 0x00, 0x00, 0x00,
  0xe2, 0xd3, 0xff, 0xff, 0x10, 0x00, 0x00, 0x00, 0x0e, 0x00, 0x00, 0x00,
  0x1c, 0x00, 0x00, 0x00, 0x40, 0x00, 0x00, 0x00, 0x04, 0x00, 0x00, 0x00,
  0x01, 0x00, 0x00, 0x00, 0x07, 0x00, 0x00, 0x00, 0x01, 0x00, 0x00, 0x00,
  0x10, 0x00, 0x00, 0x00, 0x22, 0x00, 0x00, 0x00, 0x73, 0x65, 0x71, 0x75,
  0x65, 0x6e, 0x74, 0x69, 0x61, 0x6c, 0x2f, 0x6d, 0x61, 0x78, 0x5f, 0x70,
  0x6f, 0x6f, 0x6c, 0x69, 0x6e, 0x67, 0x32, 0x64, 0x5f, 0x31, 0x2f, 0x4d,
  0x61, 0x78, 0x50, 0x6f, 0x6f, 0x6c, 0x00, 0x00, 0xe4, 0xd3, 0xff, 0xff,
  0xc2, 0xfe, 0xff, 0xff, 0x00, 0x00, 0x00, 0x01, 0x24, 0x00, 0x00, 0x00,
  0x18, 0x00, 0x00, 0x00, 0x04, 0x00, 0x00, 0x00, 0xb4, 0xfe, 0xff, 0xff,
  0x01, 0x00, 0x00, 0x00, 0x01, 0x00, 0x00, 0x00, 0x00, 0x00, 0x00, 0x01,
  0x01, 0x00, 0x00, 0x00, 0x0c, 0x00, 0x00, 0x00, 0x03, 0x00, 0x00, 0x00,
  0x0b, 0x00, 0x00, 0x00, 0x07, 0x00, 0x00, 0x00, 0x09, 0x00, 0x00, 0x00,
  0x72, 0xd4, 0xff, 0xff, 0x10, 0x00, 0x00, 0x00, 0x0d, 0x00, 0x00, 0x00,
  0x1c, 0x00, 0x00, 0x00, 0x2c, 0x00, 0x00, 0x00, 0x04, 0x00, 0x00, 0x00,
  0x01, 0x00, 0x00, 0x00, 0x15, 0x00, 0x00, 0x00, 0x01, 0x00, 0x00, 0x00,
  0x10, 0x00, 0x00, 0x00, 0x0c, 0x00, 0x00, 0x00, 0x74, 0x66, 0x6c, 0x2e,
  0x63, 0x6f, 0x6e, 0x76, 0x5f, 0x32, 0x64, 0x31, 0x00, 0x00, 0x00, 0x00,
  0xb8, 0xd4, 0xff, 0xff, 0x00, 0x00, 0x0e, 0x00, 0x1a, 0x00, 0x08, 0x00,
  0x0c, 0x00, 0x10, 0x00, 0x07, 0x00, 0x14, 0x00, 0x0e, 0x00, 0x00, 0x00,
  0x00, 0x00, 0x00, 0x05, 0x01, 0x00, 0x00, 0x00, 0x3c, 0x00, 0x00, 0x00,
  0x30, 0x00, 0x00, 0x00, 0x14, 0x00, 0x00, 0x00, 0x00, 0x00, 0x0e, 0x00,
  0x18, 0x00, 0x17, 0x00, 0x10, 0x00, 0x0c, 0x00, 0x08, 0x00, 0x04, 0x00,
  0x0e, 0x00, 0x00, 0x00, 0x03, 0x00, 0x00, 0x00, 0x03, 0x00, 0x00, 0x00,
  0x03, 0x00, 0x00, 0x00, 0x03, 0x00, 0x00, 0x00, 0x00, 0x00, 0x00, 0x01,
  0x01, 0x00, 0x00, 0x00, 0x0b, 0x00, 0x00, 0x00, 0x01, 0x00, 0x00, 0x00,
  0x0a, 0x00, 0x00, 0x00, 0x46, 0xff, 0xff, 0xff, 0x00, 0x00, 0x00, 0x11,
  0x01, 0x00, 0x00, 0x00, 0x1e, 0xd5, 0xff, 0xff, 0x10, 0x00, 0x00, 0x00,
  0x0c, 0x00, 0x00, 0x00, 0x1c, 0x00, 0x00, 0x00, 0x40, 0x00, 0x00, 0x00,
  0x04, 0x00, 0x00, 0x00, 0x01, 0x00, 0x00, 0x00, 0x15, 0x00, 0x00, 0x00,
  0x01, 0x00, 0x00, 0x00, 0x08, 0x00, 0x00, 0x00, 0x20, 0x00, 0x00, 0x00,
  0x73, 0x65, 0x71, 0x75, 0x65, 0x6e, 0x74, 0x69, 0x61, 0x6c, 0x2f, 0x6d,
  0x61, 0x78, 0x5f, 0x70, 0x6f, 0x6f, 0x6c, 0x69, 0x6e, 0x67, 0x32, 0x64,
  0x2f, 0x4d, 0x61, 0x78, 0x50, 0x6f, 0x6f, 0x6c, 0x00, 0x00, 0x00, 0x00,
  0x78, 0xd5, 0xff, 0xff, 0x00, 0x00, 0x0e, 0x00, 0x14, 0x00, 0x00, 0x00,
  0x08, 0x00, 0x0c, 0x00, 0x07, 0x00, 0x10, 0x00, 0x0e, 0x00, 0x00, 0x00,
  0x00, 0x00, 0x00, 0x01, 0x30, 0x00, 0x00, 0x00, 0x24, 0x00, 0x00, 0x00,
  0x10, 0x00, 0x00, 0x00, 0x0c, 0x00, 0x10, 0x00, 0x00, 0x00, 0x04, 0x00,
  0x08, 0x00, 0x0f, 0x00, 0x0c, 0x00, 0x00, 0x00, 0x01, 0x00, 0x00, 0x00,
  0x01, 0x00, 0x00, 0x00, 0x00, 0x00, 0x00, 0x01, 0x01, 0x00, 0x00, 0x00,
  0x0a, 0x00, 0x00, 0x00, 0x03, 0x00, 0x00, 0x00, 0x00, 0x00, 0x00, 0x00,
  0x06, 0x00, 0x00, 0x00, 0x08, 0x00, 0x00, 0x00, 0x00, 0x00, 0x0a, 0x00,
  0x0c, 0x00, 0x07, 0x00, 0x00, 0x00, 0x08, 0x00, 0x0a, 0x00, 0x00, 0x00,
  0x00, 0x00, 0x00, 0x03, 0x01, 0x00, 0x00, 0x00, 0xe2, 0xd5, 0xff, 0xff,
  0x10, 0x00, 0x00, 0x00, 0x0b, 0x00, 0x00, 0x00, 0x1c, 0x00, 0x00, 0x00,
  0x28, 0x00, 0x00, 0x00, 0x04, 0x00, 0x00, 0x00, 0x01, 0x00, 0x00, 0x00,
  0x40, 0x00, 0x00, 0x00, 0x03, 0x00, 0x00, 0x00, 0x08, 0x00, 0x00, 0x00,
  0x0b, 0x00, 0x00, 0x00, 0x74, 0x66, 0x6c, 0x2e, 0x63, 0x6f, 0x6e, 0x76,
  0x5f, 0x32, 0x64, 0x00, 0xcc, 0xd5, 0xff, 0xff, 0xc2, 0xd6, 0xff, 0xff,
  0x04, 0x00, 0x00, 0x00, 0x40, 0x00, 0x00, 0x00, 0xcd, 0x01, 0x2d, 0xbd,
  0x4e, 0x3d, 0xbe, 0x3d, 0xc5, 0xd0, 0x2b, 0x40, 0x27, 0xd2, 0x20, 0xbf,
  0x24, 0x3f, 0xa9, 0xbf, 0xfb, 0xe0, 0x25, 0xbf, 0x79, 0x77, 0x01, 0xbe,
  0xb4, 0x1c, 0xc0, 0xbf, 0x79, 0x39, 0x16, 0xbf, 0x79, 0x92, 0x07, 0xc0,
  0x87, 0x4e, 0x3e, 0x3f, 0x2c, 0xc9, 0xc4, 0xbf, 0x52, 0xbf, 0xd8, 0xbc,
  0x50, 0x40, 0x96, 0xbf, 0x17, 0x71, 0xb6, 0xbd, 0x33, 0x27, 0xb6, 0xbf,
  0x6a, 0xd6, 0xff, 0xff, 0x10, 0x00, 0x00, 0x00, 0x0a, 0x00, 0x00, 0x00,
  0x10, 0x00, 0x00, 0x00, 0x20, 0x00, 0x00, 0x00, 0x01, 0x00, 0x00, 0x00,
  0x10, 0x00, 0x00, 0x00, 0x0d, 0x00, 0x00, 0x00, 0x73, 0x74, 0x64, 0x2e,
  0x63, 0x6f, 0x6e, 0x73, 0x74, 0x61, 0x6e, 0x74, 0x31, 0x00, 0x00, 0x00,
  0x4c, 0xd6, 0xff, 0xff, 0x42, 0xd7, 0xff, 0xff, 0x04, 0x00, 0x00, 0x00,
  0x20, 0x00, 0x00, 0x00, 0xfd, 0xf3, 0xc3, 0xbe, 0xb1, 0x44, 0xcc, 0xbf,
  0xba, 0xc4, 0x4e, 0xc0, 0x99, 0xbf, 0x4f, 0x3e, 0xcf, 0xc5, 0xd7, 0xbf,
  0x68, 0x39, 0xd7, 0xbf, 0xa5, 0x4e, 0x16, 0xbe, 0xb0, 0xab, 0x8b, 0xbf,
  0xca, 0xd6, 0xff, 0xff, 0x10, 0x00, 0x00, 0x00, 0x09, 0x00, 0x00, 0x00,
  0x10, 0x00, 0x00, 0x00, 0x20, 0x00, 0x00, 0x00, 0x01, 0x00, 0x00, 0x00,
  0x08, 0x00, 0x00, 0x00, 0x0c, 0x00, 0x00, 0x00, 0x73, 0x74, 0x64, 0x2e,
  0x63, 0x6f, 0x6e, 0x73, 0x74, 0x61, 0x6e, 0x74, 0x00, 0x00, 0x00, 0x00,
  0xac, 0xd6, 0xff, 0xff, 0xa2, 0xd7, 0xff, 0xff, 0x04, 0x00, 0x00, 0x00,
  0x00, 0x08, 0x00, 0x00, 0x58, 0xe3, 0x59, 0x3c, 0xd9, 0xe6, 0x05, 0xbe,
  0x04, 0xfc, 0xbb, 0x3d, 0x5c, 0x9f, 0x9c, 0x3b, 0x9d, 0x26, 0xcf, 0xbb,
  0x80, 0x51, 0x73, 0x3e, 0xd7, 0x1a, 0xe8, 0x3d, 0x5c, 0xcc, 0xd8, 0x3d,
  0xd0, 0xca, 0xa4, 0x3d, 0xe8, 0xcf, 0x0a, 0xbe, 0x5c, 0xa1, 0xf7, 0xba,
  0xa6, 0x53, 0x66, 0xbb, 0x34, 0x72, 0x09, 0xbe, 0x67, 0xdc, 0x14, 0xbe,
  0xc5, 0x00, 0x44, 0xbe, 0x32, 0x53, 0x62, 0xbb, 0xb4, 0x60, 0x96, 0xbe,
  0xfe, 0x71, 0x2f, 0x3c, 0x08, 0x23, 0x90, 0x3c, 0xc7, 0xce, 0x2a, 0x3e,
  0xe4, 0x2a, 0x7a, 0x3d, 0xf9, 0x04, 0x8b, 0xbc, 0xdd, 0x63, 0x68, 0x3e,
  0x54, 0xd0, 0x94, 0x3c, 0x9e, 0xd0, 0x27, 0xbe, 0xab, 0x3f, 0x56, 0x3e,
  0x31, 0x4c, 0x8c, 0x3e, 0x88, 0xbb, 0xfa, 0xbc, 0x7a, 0xe8, 0xac, 0xbd,
  0xa3, 0xf3, 0x16, 0xbe, 0xc0, 0x87, 0x4c, 0x3d, 0x7c, 0x9c, 0x3b, 0x3e,
  0x92, 0x8d, 0x48, 0xbd, 0xad, 0x0e, 0x31, 0x3d, 0x29, 0x15, 0xdb, 0x3e,
  0x6a, 0x3e, 0x1b, 0xbe, 0x71, 0x8a, 0x2d, 0xbe, 0xcd, 0xf2, 0x0d, 0xbe,
  0x96, 0xaf, 0x07, 0x3f, 0x89, 0xe6, 0x6f, 0x3e, 0x82, 0x8f, 0x14, 0xbc,
  0x2a, 0x88, 0x92, 0x3d, 0x5b, 0x03, 0x02, 0xbe, 0xbe, 0xb0, 0x36, 0xbe,
  0x27, 0x49, 0x9a, 0xbd, 0x24, 0x95, 0xb8, 0xbe, 0xac, 0xff, 0xe9, 0xbc,
  0xf7, 0x8e, 0x93, 0xbd, 0xf6, 0xba, 0x58, 0x3c, 0x26, 0x64, 0x61, 0xbc,
  0x2c, 0xcd, 0x80, 0x3e, 0x2f, 0xec, 0xa0, 0xbd, 0x9e, 0xb4, 0x20, 0xbe,
  0x1e, 0x34, 0x00, 0xbe, 0x15, 0x56, 0x0b, 0x3d, 0x97, 0x5e, 0xd6, 0xba,
  0xfd, 0x6c, 0x04, 0xbf, 0x5c, 0x3e, 0xd6, 0xbd, 0x0b, 0xf5, 0x91, 0xbe,
  0x7c, 0x21, 0x38, 0xbe, 0x00, 0x83, 0x56, 0x3c, 0x79, 0xc2, 0x36, 0xbe,
  0xad, 0xac, 0x3f, 0xbe, 0x0a, 0x72, 0x62, 0xbc, 0x2c, 0xd3, 0xbb, 0xbc,
  0xaf, 0xe9, 0x76, 0x3e, 0x2d, 0xbd, 0x63, 0x3e, 0xe7, 0xc6, 0xac, 0x3e,
  0xe2, 0x1c, 0x16, 0x3c, 0x06, 0x37, 0x22, 0x3c, 0x73, 0xe0, 0x43, 0xbe,
  0x99, 0x5c, 0x95, 0xbe, 0x93, 0x5b, 0x77, 0xbd, 0xbd, 0xc8, 0xed, 0xbd,
  0xf2, 0x8d, 0x99, 0x3c, 0x8a, 0x64, 0x8e, 0xbc, 0xac, 0x71, 0xaa, 0xbd,
  0x7a, 0xf5, 0x40, 0xbd, 0x90, 0x8d, 0x0c, 0xbe, 0xf6, 0x34, 0x83, 0xbc,
  0x98, 0xf9, 0x36, 0xbe, 0x29, 0xf7, 0xd7, 0xbe, 0xcb, 0x33, 0x58, 0xbe,
  0x70, 0x0a, 0xd0, 0xbd, 0x66, 0xd1, 0x59, 0xbe, 0x3d, 0xb7, 0x15, 0x3f,
  0x6c, 0x99, 0xd8, 0xbd, 0x56, 0x07, 0xc6, 0xbd, 0x43, 0x01, 0x2f, 0xbe,
  0x99, 0xc4, 0x64, 0xbe, 0x98, 0x68, 0x91, 0xbe, 0x8f, 0xd8, 0x48, 0xbe,
  0xe8, 0x77, 0xd9, 0xbe, 0xcb, 0x08, 0xf3, 0x3e, 0xb8, 0x73, 0xdb, 0x3c,
  0x47, 0x19, 0x48, 0xbd, 0xc2, 0x50, 0x0e, 0xbe, 0x87, 0x6f, 0xba, 0xbd,
  0x6f, 0xcc, 0x4b, 0xbe, 0xed, 0x09, 0x79, 0xbe, 0xeb, 0x86, 0x6c, 0xbe,
  0x5d, 0xf8, 0x1c, 0xbf, 0xff, 0xc5, 0x37, 0xbe, 0xa8, 0xa5, 0x6e, 0xbe,
  0xc3, 0x77, 0xd6, 0xbe, 0x42, 0x02, 0xe8, 0xbd, 0x4c, 0x58, 0x22, 0x3f,
  0x2a, 0x7a, 0xf8, 0xbd, 0x73, 0x26, 0xed, 0xbd, 0x74, 0xe3, 0x78, 0xbc,
  0xcb, 0x62, 0x48, 0xbe, 0xf4, 0xee, 0x62, 0xbe, 0x14, 0x4b, 0x3d, 0x3d,
  0x28, 0x01, 0x36, 0xbd, 0x8b, 0x7a, 0x80, 0x38, 0xc0, 0x49, 0xf8, 0xbb,
  0x52, 0x82, 0x0e, 0x3d, 0xc8, 0x0d, 0x37, 0xbc, 0x76, 0x65, 0xfc, 0x3e,
  0x9a, 0xbc, 0x70, 0x3e, 0x8d, 0xc4, 0x2d, 0xbf, 0x15, 0xb3, 0xf5, 0xbb,
  0x2e, 0x55, 0x2b, 0xbe, 0x19, 0x1a, 0x59, 0xbe, 0xf7, 0x20, 0x0a, 0x3e,
  0x27, 0xba, 0xe6, 0xbd, 0x65, 0x95, 0x04, 0xbe, 0x53, 0xaf, 0x8c, 0x3d,
  0x45, 0x80, 0x25, 0xbe, 0x25, 0xf6, 0x49, 0xbe, 0xd5, 0x9e, 0xcc, 0xbe,
  0xf1, 0x7e, 0x52, 0xbe, 0x72, 0x13, 0xaa, 0xbe, 0x84, 0x9d, 0x39, 0xbe,
  0x1d, 0x9c, 0xdf, 0xbd, 0xe7, 0xc1, 0x61, 0xbe, 0x14, 0xef, 0xd9, 0x3d,
  0xe6, 0xff, 0x9a, 0x3d, 0x13, 0x68, 0x42, 0x3e, 0x27, 0x97, 0x8a, 0xbc,
  0x3f, 0x91, 0xf2, 0x3d, 0x2e, 0x4e, 0x85, 0xbe, 0x0b, 0x9e, 0x53, 0xbe,
  0x6d, 0x41, 0x90, 0xbe, 0x97, 0xc3, 0xfb, 0xbc, 0x5a, 0x19, 0x67, 0xbd,
  0x4f, 0x83, 0xa5, 0x3d, 0x18, 0x44, 0x4a, 0x3e, 0xf8, 0x0e, 0x14, 0x3f,
  0x4d, 0x4a, 0xaa, 0xbd, 0x56, 0x24, 0x13, 0xbd, 0xc3, 0x11, 0x65, 0xbe,
  0xb8, 0x11, 0xa1, 0xbd, 0xda, 0x95, 0x27, 0xbe, 0x0d, 0xae, 0xe8, 0xbb,
  0x63, 0x85, 0x86, 0xbb, 0x63, 0xa8, 0xc6, 0xbd, 0x3b, 0x7f, 0x34, 0x3e,
  0x0e, 0x04, 0xd8, 0xbd, 0x54, 0x24, 0x0c, 0x3c, 0x99, 0xe3, 0x80, 0xbe,
  0x7a, 0x7c, 0x91, 0xbd, 0xe2, 0xe4, 0x9c, 0xbe, 0x84, 0xfc, 0xa1, 0xbe,
  0xb0, 0xc3, 0x80, 0xbe, 0x0b, 0xf0, 0xfb, 0xbe, 0xb3, 0x6a, 0x34, 0xbe,
  0xc9, 0x61, 0x31, 0xbe, 0x96, 0x76, 0x52, 0xbe, 0xbe, 0xfe, 0x3d, 0xbe,
  0xdb, 0x92, 0xc9, 0x3d, 0x07, 0x13, 0x94, 0xbe, 0x3d, 0x18, 0x34, 0xbe,
  0x3f, 0x97, 0x63, 0x3d, 0x93, 0x48, 0x4f, 0xbc, 0xdc, 0x5f, 0x6b, 0xbd,
  0xce, 0xc0, 0xf7, 0xbe, 0x93, 0xcc, 0xe6, 0xbd, 0x0a, 0x11, 0xe0, 0x3d,
  0x79, 0x70, 0x3e, 0xbe, 0xa9, 0x5e, 0x5a, 0x3d, 0xd4, 0xd2, 0xbe, 0x3e,
  0xa5, 0xd3, 0x2e, 0x3d, 0x39, 0x64, 0xec, 0x3d, 0xb3, 0xa9, 0x98, 0x3e,
  0x14, 0x02, 0x26, 0xbe, 0x2b, 0xc1, 0xf0, 0x3d, 0xf4, 0x0d, 0xb2, 0xbd,
  0xd9, 0xf7, 0x82, 0xbd, 0xdf, 0x19, 0x5f, 0x3e, 0x3a, 0x86, 0xd4, 0x3e,
  0x32, 0xe6, 0x8d, 0xbe, 0x8c, 0x63, 0xbd, 0x3b, 0x5e, 0xd0, 0xbc, 0xbe,
  0x99, 0xf9, 0x4a, 0x3e, 0x01, 0x67, 0x40, 0xbd, 0x43, 0xa8, 0xd1, 0x3c,
  0xa6, 0x97, 0x9a, 0x3e, 0xd9, 0xe5, 0xb0, 0xbe, 0x32, 0x29, 0x76, 0x3e,
  0x60, 0x99, 0x4c, 0x3e, 0x57, 0xb8, 0xe7, 0xbe, 0x2c, 0xf7, 0xf9, 0x3d,
  0xf2, 0xdc, 0x34, 0xbe, 0xaa, 0x73, 0xcc, 0xbc, 0xb8, 0x11, 0xee, 0xbc,
  0x02, 0x11, 0x38, 0x3f, 0x1f, 0xe3, 0x2e, 0xbd, 0x01, 0x99, 0xb6, 0x3e,
  0xd8, 0xd4, 0x8a, 0xbe, 0xd1, 0x0a, 0x76, 0xbd, 0xbe, 0x2e, 0x2d, 0xbe,
  0x6b, 0xcd, 0xa3, 0xbd, 0xed, 0xd3, 0xb9, 0x3d, 0xb3, 0x7b, 0x98, 0xbd,
  0x1d, 0x3d, 0x92, 0xbd, 0x48, 0xe2, 0x77, 0xbc, 0x58, 0x0d, 0x83, 0xbe,
  0x1f, 0x9e, 0x28, 0x3e, 0xe3, 0x4b, 0xbf, 0xbd, 0x4d, 0x97, 0xe5, 0xbd,
  0xd9, 0x8a, 0x90, 0xbd, 0xc8, 0x58, 0x4e, 0xbd, 0xe0, 0xe5, 0xe4, 0xbd,
  0x7d, 0xaa, 0x96, 0x3e, 0xc9, 0x03, 0xf9, 0xbe, 0xa2, 0x59, 0x65, 0x3d,
  0x35, 0xf1, 0xab, 0xbe, 0x45, 0x10, 0x21, 0xbd, 0xef, 0x28, 0xe1, 0x3d,
  0x27, 0xfa, 0x25, 0x3e, 0xd4, 0xbe, 0x75, 0x3e, 0x35, 0xb7, 0x2d, 0x3e,
  0xb9, 0x4f, 0x46, 0xbe, 0x5d, 0x92, 0xb6, 0xbe, 0xc7, 0x01, 0xa4, 0xbe,
  0x0b, 0x22, 0x86, 0x3d, 0xd9, 0x95, 0xa6, 0x3e, 0xd8, 0x95, 0xc5, 0xbe,
  0x17, 0x76, 0x9d, 0x3e, 0xc8, 0x9b, 0x30, 0x3d, 0x25, 0xa2, 0x8d, 0x3c,
  0xd6, 0xf2, 0xa0, 0xbd, 0xa2, 0x0a, 0xd9, 0xbc, 0x39, 0xc2, 0x1f, 0x3d,
  0x83, 0x1e, 0x98, 0xbd, 0xa6, 0x1f, 0xdb, 0xbe, 0x6d, 0x34, 0x8f, 0x3d,
  0xed, 0x70, 0x3d, 0xbe, 0xb6, 0x7a, 0x8c, 0x3b, 0x4c, 0x9f, 0x5a, 0x3e,
  0x3c, 0xf0, 0x00, 0x3e, 0xfb, 0x6c, 0x46, 0xbe, 0x5a, 0x09, 0x23, 0xbe,
  0x29, 0xaa, 0x26, 0xbe, 0x1d, 0x3a, 0x39, 0xbf, 0x80, 0x62, 0x6b, 0x3e,
  0x2a, 0x8a, 0x39, 0xbe, 0x9c, 0x29, 0x12, 0x3d, 0x12, 0xa9, 0xac, 0xbe,
  0xba, 0x08, 0xc9, 0xbd, 0x28, 0x71, 0x83, 0x3e, 0x53, 0x27, 0x17, 0x3e,
  0xc3, 0xbb, 0x77, 0xbe, 0xe8, 0x99, 0x2e, 0xbd, 0x5f, 0x74, 0x41, 0xbe,
  0xa3, 0x3d, 0x47, 0x3e, 0x3a, 0x6f, 0x75, 0xbe, 0xec, 0x36, 0xcb, 0xbc,
  0x88, 0x34, 0x7e, 0xbd, 0x4e, 0xea, 0x88, 0xbd, 0x38, 0x11, 0x06, 0x3f,
  0x8f, 0x82, 0x09, 0x3e, 0x99, 0x76, 0xf8, 0xbd, 0xb1, 0xb7, 0xa1, 0xbd,
  0x12, 0x5f, 0x44, 0xbe, 0xd8, 0xcc, 0x35, 0xbc, 0x73, 0xcc, 0x3d, 0x3e,
  0x85, 0xa8, 0xe5, 0x3c, 0xc2, 0xfe, 0x25, 0xbe, 0xd7, 0x7a, 0x9e, 0x3e,
  0xb0, 0x71, 0x2b, 0xbd, 0x5b, 0x7b, 0xcc, 0x3c, 0x31, 0x5a, 0x93, 0xbd,
  0xf8, 0x43, 0x4c, 0xbd, 0x83, 0xd4, 0xc8, 0x3c, 0x33, 0x82, 0x86, 0x3e,
  0x88, 0x34, 0x08, 0xbe, 0xd9, 0x5c, 0x7a, 0x3c, 0x33, 0x09, 0xc8, 0xbc,
  0x6a, 0x25, 0xb4, 0xbe, 0x64, 0x95, 0xec, 0xbd, 0xff, 0x48, 0x3a, 0xbe,
  0x11, 0x52, 0x33, 0xbe, 0x26, 0x40, 0x2d, 0xbe, 0x1e, 0x21, 0x68, 0xbe,
  0xfe, 0xe1, 0xc0, 0x3d, 0x7b, 0xc1, 0x8b, 0x3b, 0x02, 0x4a, 0x59, 0xbd,
  0xdd, 0xe7, 0x1b, 0xbe, 0x3a, 0xbd, 0x11, 0xbe, 0x95, 0x9e, 0x1a, 0xbc,
  0x51, 0xd7, 0xc0, 0xbe, 0xb9, 0xc8, 0x89, 0xbe, 0x00, 0xe4, 0xd0, 0x3b,
  0x0f, 0xbf, 0xe6, 0xbc, 0x6d, 0x2d, 0x37, 0x3e, 0x1c, 0x8f, 0x47, 0x3b,
  0xc0, 0xb1, 0x24, 0x3f, 0x95, 0xd3, 0xac, 0x3a, 0xb0, 0x91, 0x24, 0x3c,
  0x05, 0x25, 0x53, 0xbe, 0x27, 0xb6, 0x5a, 0xbc, 0x20, 0xe2, 0xbf, 0xbd,
  0x30, 0x1a, 0x06, 0x3d, 0x3e, 0x4b, 0x0a, 0x3d, 0x4e, 0x87, 0x3d, 0xbe,
  0x32, 0x4f, 0x6d, 0x3e, 0x47, 0xbe, 0xaa, 0xbd, 0xe8, 0x2f, 0x41, 0xbe,
  0xd5, 0x43, 0x35, 0xbe, 0x90, 0x74, 0x29, 0xbd, 0x2a, 0x08, 0x60, 0x3e,
  0x73, 0x2f, 0xa0, 0x3e, 0x44, 0xe9, 0xaa, 0xbd, 0x2d, 0xea, 0xe6, 0x3e,
  0x2c, 0x34, 0x3a, 0x3d, 0x81, 0x23, 0x02, 0xbe, 0x9f, 0xcf, 0xa6, 0xbe,
  0x81, 0x91, 0x83, 0xbe, 0x3a, 0xa8, 0xd9, 0xbd, 0x1b, 0xc1, 0x35, 0xbd,
  0xa3, 0x5d, 0x34, 0xbe, 0xf5, 0x3d, 0x35, 0x3d, 0x40, 0x89, 0xe2, 0xbd,
  0x7f, 0x8a, 0x25, 0xbe, 0x3b, 0xd8, 0x8a, 0xbc, 0xae, 0x65, 0xef, 0xbd,
  0x9d, 0xac, 0xe3, 0x3c, 0x8c, 0x15, 0xf2, 0xbd, 0xde, 0x32, 0x3d, 0xbe,
  0x20, 0xd1, 0x9c, 0x3d, 0xc1, 0x6c, 0x85, 0x3d, 0x56, 0xe2, 0xad, 0xbd,
  0xee, 0x67, 0x36, 0x3c, 0x17, 0xd1, 0xc8, 0x3d, 0x59, 0x13, 0x95, 0x3c,
  0xae, 0x80, 0x29, 0xbe, 0xe5, 0x62, 0x71, 0xbd, 0x09, 0x58, 0xf9, 0x3d,
  0x91, 0xf1, 0x2f, 0xbe, 0x00, 0xe8, 0xba, 0x3c, 0xc4, 0x22, 0xeb, 0x3d,
  0x54, 0x69, 0x84, 0x3e, 0x34, 0xfa, 0x3a, 0x3f, 0x81, 0x32, 0x0f, 0x3d,
  0xd9, 0xbb, 0x28, 0x3d, 0xfb, 0xc5, 0x22, 0x3e, 0x23, 0x5e, 0x3e, 0xbd,
  0xf3, 0x33, 0xa3, 0x3c, 0xe5, 0x1c, 0x0b, 0xbe, 0x3b, 0x38, 0x9e, 0xbd,
  0xfa, 0x65, 0x86, 0xbd, 0x46, 0x38, 0xf3, 0xbc, 0x9e, 0x92, 0x8d, 0x3d,
  0x57, 0xd4, 0x25, 0x3d, 0x5b, 0xe0, 0x17, 0xbe, 0xb3, 0x1c, 0x0c, 0xba,
  0x6c, 0x91, 0x1a, 0xbe, 0x44, 0x21, 0x05, 0xbe, 0xbb, 0x7e, 0x78, 0xbe,
  0xc0, 0x26, 0x00, 0x3d, 0x66, 0x6f, 0x1a, 0xbe, 0x4f, 0xdb, 0x0e, 0x3d,
  0x45, 0xed, 0x0b, 0xbe, 0x05, 0x9d, 0xe0, 0x3c, 0xc5, 0xa1, 0x20, 0xbe,
  0x22, 0x36, 0x1c, 0xbe, 0x00, 0xbc, 0xa6, 0xbe, 0x5e, 0xa5, 0x95, 0xbd,
  0x2c, 0xff, 0x51, 0xbe, 0x2f, 0x2c, 0x8b, 0x3e, 0x25, 0x91, 0xd3, 0xbd,
  0x05, 0x87, 0x14, 0x3c, 0xae, 0x7f, 0x83, 0x3e, 0x08, 0x49, 0xdf, 0xba,
  0x60, 0x80, 0x58, 0x3d, 0x5e, 0x68, 0x1f, 0x3d, 0x5d, 0xf6, 0xd8, 0x3c,
  0x59, 0xc5, 0xda, 0x3d, 0x2b, 0xd6, 0x48, 0x3e, 0xdd, 0x28, 0x78, 0xbd,
  0x17, 0xcb, 0xd6, 0xbc, 0xf4, 0xfe, 0x86, 0x3c, 0xf6, 0x2d, 0x2b, 0xbc,
  0xb1, 0x12, 0xba, 0xbc, 0x8f, 0xaa, 0xe9, 0xbc, 0xfa, 0x97, 0x72, 0xbd,
  0xd7, 0x39, 0x26, 0x3e, 0xec, 0xb1, 0x9b, 0x3e, 0xb7, 0xb4, 0xa7, 0xbd,
  0x0d, 0x63, 0x2c, 0x3e, 0xe8, 0x0b, 0x07, 0xbe, 0x78, 0x2b, 0x01, 0x3d,
  0x8b, 0xa6, 0xd7, 0x3d, 0xee, 0xfb, 0x3c, 0x3d, 0x33, 0xbe, 0xe2, 0xbd,
  0xd0, 0x66, 0xf6, 0xbc, 0x1d, 0x2a, 0x56, 0xba, 0x7e, 0xe0, 0x37, 0xbd,
  0xbd, 0x40, 0x8d, 0x3d, 0x1f, 0xde, 0xd9, 0x3d, 0xf6, 0xb8, 0xae, 0xbd,
  0x55, 0x07, 0x47, 0xbd, 0x2a, 0x9c, 0x80, 0xbd, 0x97, 0x62, 0xf2, 0x3c,
  0x37, 0x1d, 0xde, 0xbe, 0xcc, 0x9f, 0x0c, 0xbe, 0x2c, 0x94, 0x52, 0xbe,
  0x90, 0x7b, 0xc6, 0xbe, 0xef, 0x28, 0xbf, 0xbe, 0x3b, 0xa0, 0xf8, 0xbe,
  0xaa, 0x13, 0x4d, 0x3b, 0x52, 0x01, 0x83, 0xbe, 0x24, 0x12, 0x54, 0xbe,
  0x9d, 0x7e, 0xbe, 0xbe, 0xd0, 0xd2, 0x22, 0x3f, 0x5d, 0x57, 0xc4, 0xbe,
  0xa7, 0x15, 0x68, 0xbe, 0x7b, 0xbb, 0x11, 0x3e, 0xb2, 0xf1, 0xc5, 0x3e,
  0x0b, 0xae, 0xe0, 0xbc, 0x57, 0xe1, 0x35, 0x3e, 0x95, 0xa6, 0x47, 0xbe,
  0x25, 0xaf, 0x90, 0xbe, 0x66, 0x21, 0xc7, 0xbe, 0x7b, 0x88, 0x8a, 0x3d,
  0xe5, 0x92, 0xb2, 0x3e, 0xa8, 0xd9, 0x9f, 0xbd, 0x7a, 0xd3, 0x08, 0x3b,
  0xc2, 0xd0, 0x3b, 0x3e, 0x5c, 0x04, 0x34, 0xbc, 0x1a, 0xa9, 0x0d, 0xbe,
  0xdf, 0xfb, 0x72, 0xbe, 0x52, 0x84, 0xe5, 0x3c, 0x74, 0x68, 0xe1, 0x3d,
  0xf4, 0x9a, 0xb2, 0xbe, 0x57, 0x58, 0xae, 0x3e, 0xbf, 0xeb, 0xc6, 0x3c,
  0xf7, 0x68, 0x19, 0xbe, 0x0f, 0x00, 0x2f, 0xbe, 0x6c, 0x81, 0x9e, 0x3d,
  0xc2, 0x52, 0x7b, 0x3d, 0xa9, 0x64, 0x89, 0xbd, 0x96, 0x9c, 0xfb, 0x39,
  0xd6, 0xfd, 0x4c, 0xbe, 0xb0, 0x4d, 0x64, 0xbd, 0xdc, 0x25, 0x7d, 0xbe,
  0x8d, 0x1c, 0xb6, 0x3e, 0xda, 0x3d, 0xbf, 0x3c, 0x07, 0xff, 0x97, 0x3d,
  0x3c, 0x60, 0x42, 0xbd, 0x70, 0xb5, 0x5d, 0x3d, 0x78, 0x50, 0x44, 0xbd,
  0xd3, 0xd0, 0x75, 0xbd, 0x74, 0x70, 0xb9, 0xbe, 0x00, 0x05, 0xec, 0x3b,
  0x38, 0xbb, 0x66, 0x3e, 0x8f, 0xa7, 0x0f, 0x3e, 0x1d, 0x36, 0x67, 0x3c,
  0xed, 0x06, 0x0e, 0xbe, 0x5b, 0x72, 0x87, 0x3e, 0x69, 0x46, 0xc3, 0x3e,
  0x37, 0x0d, 0x9d, 0xbe, 0x9b, 0x0c, 0x9f, 0xbd, 0x39, 0x45, 0x3d, 0xbe,
  0x6c, 0x46, 0x98, 0xbd, 0x74, 0x17, 0x9b, 0x3c, 0x9a, 0x4a, 0x3a, 0x3a,
  0x58, 0x92, 0xbe, 0xbc, 0xd2, 0xd9, 0x99, 0xbe, 0x5d, 0x0a, 0xdb, 0xbd,
  0x8d, 0x07, 0xae, 0xbe, 0x94, 0x6a, 0x3a, 0xbe, 0x3a, 0xfc, 0x5a, 0xbe,
  0x0e, 0x6b, 0x9e, 0x3e, 0x1d, 0xb9, 0x3d, 0xbd, 0x60, 0xfd, 0xa3, 0xbd,
  0x3d, 0x21, 0xaf, 0xbd, 0x22, 0xc7, 0x94, 0xbd, 0x53, 0x33, 0xbb, 0xbe,
  0xa0, 0x18, 0x1d, 0xbe, 0x1e, 0x2b, 0x43, 0xbe, 0x74, 0x87, 0xa4, 0x3d,
  0x5f, 0x15, 0x8b, 0xbd, 0x7d, 0x78, 0xbe, 0x3d, 0x6d, 0xce, 0x61, 0x3e,
  0x84, 0x52, 0x99, 0xbd, 0x68, 0x9d, 0x34, 0xbe, 0xe2, 0x5c, 0x33, 0xbe,
  0x96, 0x1f, 0x03, 0x3d, 0x02, 0x99, 0x5d, 0xbd, 0xcb, 0xaf, 0x4b, 0xbe,
  0xce, 0x0a, 0x63, 0xbd, 0x68, 0x79, 0xcd, 0x3e, 0x99, 0xdf, 0x3f, 0x3e,
  0xec, 0x07, 0x9c, 0x3e, 0xe7, 0x74, 0xb7, 0x3d, 0xd6, 0x29, 0xc7, 0x3e,
  0x68, 0x2d, 0x9c, 0xbd, 0xf9, 0xf5, 0x86, 0xbe, 0x20, 0x81, 0x17, 0xbd,
  0x0a, 0xdf, 0xff, 0xff, 0x10, 0x00, 0x00, 0x00, 0x08, 0x00, 0x00, 0x00,
  0x1c, 0x00, 0x00, 0x00, 0x38, 0x00, 0x00, 0x00, 0x04, 0x00, 0x00, 0x00,
  0x10, 0x00, 0x00, 0x00, 0x04, 0x00, 0x00, 0x00, 0x01, 0x00, 0x00, 0x00,
  0x08, 0x00, 0x00, 0x00, 0x1a, 0x00, 0x00, 0x00, 0x73, 0x65, 0x71, 0x75,
  0x65, 0x6e, 0x74, 0x69, 0x61, 0x6c, 0x2f, 0x63, 0x6f, 0x6e, 0x76, 0x32,
  0x64, 0x5f, 0x31, 0x2f, 0x43, 0x6f, 0x6e, 0x76, 0x32, 0x44, 0x00, 0x00,
  0x04, 0xdf, 0xff, 0xff, 0xfa, 0xdf, 0xff, 0xff, 0x04, 0x00, 0x00, 0x00,
  0x80, 0x01, 0x00, 0x00, 0x85, 0xc3, 0x10, 0x3e, 0x9b, 0xa4, 0xac, 0x3d,
  0x64, 0x9c, 0x12, 0x3e, 0xc0, 0x93, 0xa9, 0x3e, 0x2d, 0x6a, 0x33, 0x3e,
  0xef, 0xe5, 0x1d, 0xbd, 0x9b, 0x12, 0x8f, 0xbe, 0x36, 0x09, 0x57, 0x3d,
  0xc8, 0xd6, 0x83, 0x3d, 0x2a, 0x31, 0x3d, 0xbe, 0xaa, 0x71, 0xd5, 0xbe,
  0xda, 0xfa, 0x4a, 0xbe, 0xa6, 0x49, 0x13, 0x3e, 0xa8, 0x1d, 0x6b, 0x3d,
  0xef, 0xf4, 0x0c, 0xbe, 0x2b, 0x52, 0x9b, 0x3a, 0xc3, 0xbc, 0xc8, 0x3d,
  0x95, 0x5f, 0xf0, 0xbd, 0xcb, 0x88, 0xf6, 0x3c, 0xb5, 0xc9, 0x28, 0xbc,
  0x82, 0x84, 0x9d, 0xbd, 0x12, 0x3d, 0xd0, 0x3d, 0x57, 0x96, 0xe4, 0xbd,
  0x5a, 0x4b, 0x1c, 0x3a, 0x1b, 0xc1, 0x89, 0x3c, 0x0a, 0x2b, 0xae, 0x3c,
  0x9a, 0xec, 0xde, 0xbd, 0x44, 0x25, 0x66, 0x3d, 0xaf, 0xa7, 0x07, 0xbe,
  0x74, 0x6b, 0x0a, 0xbf, 0xbe, 0x7f, 0xd5, 0x3b, 0x11, 0xcf, 0x42, 0x3d,
  0x7b, 0xe5, 0x77, 0x3e, 0xe9, 0xad, 0xcf, 0xbc, 0x1b, 0x09, 0x3c, 0x3d,
  0x8f, 0xa6, 0xa8, 0x3e, 0x6b, 0x61, 0x80, 0xbc, 0x4e, 0x6d, 0x85, 0xbe,
  0x31, 0x43, 0x4e, 0x3e, 0xd9, 0x38, 0x1c, 0xbd, 0x3c, 0xe2, 0x05, 0x3d,
  0xcf, 0x89, 0x3e, 0x3e, 0x13, 0xdd, 0x01, 0xbe, 0x14, 0x4b, 0xd6, 0x3d,
  0x78, 0x2a, 0xef, 0xbd, 0xae, 0xfb, 0x12, 0xbc, 0x96, 0x30, 0x4a, 0x3d,
  0x1a, 0x91, 0x3a, 0x3d, 0x1e, 0xe8, 0xdb, 0x3e, 0x85, 0x2c, 0xc6, 0xbb,
  0x29, 0x4f, 0x50, 0xbe, 0xc0, 0x19, 0xcb, 0x3d, 0xe9, 0xcb, 0x93, 0xbe,
  0x5e, 0xdc, 0x8e, 0x3e, 0x6e, 0x94, 0x84, 0xbe, 0x3d, 0xc9, 0x3c, 0x3e,
  0xfd, 0xa6, 0xea, 0xbc, 0x8f, 0x0f, 0x6d, 0xbe, 0xbb, 0x02, 0x9c, 0x3c,
  0x59, 0x92, 0x3b, 0x3e, 0xa1, 0x5c, 0x93, 0xbe, 0x5a, 0x8d, 0x64, 0x3d,
  0x04, 0x49, 0x08, 0x3e, 0x9f, 0x5e, 0x10, 0xbe, 0x4d, 0xa9, 0xe4, 0x3d,
  0x23, 0x84, 0x13, 0x3e, 0xa0, 0xc4, 0x88, 0x3d, 0x17, 0xbd, 0x43, 0xbd,
  0x80, 0x96, 0xe4, 0x3d, 0x4c, 0xc6, 0xc2, 0x3e, 0xfe, 0xcb, 0xa8, 0xbd,
  0xd2, 0xd2, 0x99, 0xbe, 0x32, 0x60, 0x42, 0xbd, 0xde, 0xb0, 0x07, 0xbe,
  0x48, 0x27, 0x15, 0xbe, 0x2e, 0x22, 0xcc, 0xbe, 0x1d, 0xf8, 0x74, 0xbe,
  0x7a, 0x22, 0x48, 0xbe, 0x5a, 0x95, 0x31, 0x3f, 0x02, 0x34, 0x66, 0x3e,
  0x86, 0x06, 0xaf, 0x3d, 0x4a, 0xb9, 0xaa, 0xbb, 0x52, 0xcb, 0x74, 0x3e,
  0xc4, 0xf0, 0x2f, 0x3e, 0x80, 0xe6, 0x46, 0x3d, 0x7e, 0x5a, 0x34, 0xbd,
  0x03, 0xe8, 0xe2, 0xba, 0x4c, 0xfd, 0xee, 0x3e, 0xdf, 0x49, 0x5c, 0x3e,
  0xb4, 0x19, 0x8d, 0x3e, 0x91, 0xff, 0x2a, 0xbe, 0xe6, 0x53, 0x82, 0x3e,
  0xe6, 0x01, 0x43, 0xbd, 0x34, 0x55, 0x27, 0xbe, 0xd4, 0xa7, 0x4c, 0xbe,
  0x63, 0x86, 0x8b, 0xbd, 0xe2, 0xe0, 0xff, 0xff, 0x10, 0x00, 0x00, 0x00,
  0x07, 0x00, 0x00, 0x00, 0x1c, 0x00, 0x00, 0x00, 0x38, 0x00, 0x00, 0x00,
  0x04, 0x00, 0x00, 0x00, 0x08, 0x00, 0x00, 0x00, 0x04, 0x00, 0x00, 0x00,
  0x03, 0x00, 0x00, 0x00, 0x01, 0x00, 0x00, 0x00, 0x18, 0x00, 0x00, 0x00,
  0x73, 0x65, 0x71, 0x75, 0x65, 0x6e, 0x74, 0x69, 0x61, 0x6c, 0x2f, 0x63,
  0x6f, 0x6e, 0x76, 0x32, 0x64, 0x2f, 0x43, 0x6f, 0x6e, 0x76, 0x32, 0x44,
  0x00, 0x00, 0x00, 0x00, 0xdc, 0xe0, 0xff, 0xff, 0xd2, 0xe1, 0xff, 0xff,
  0x04, 0x00, 0x00, 0x00, 0xc0, 0x00, 0x00, 0x00, 0x5e, 0x82, 0x03, 0xbe,
  0xd0, 0x07, 0x3d, 0xbd, 0xd8, 0x2b, 0xb7, 0x3c, 0x11, 0x76, 0x9e, 0xbe,
  0x87, 0x23, 0x25, 0x3c, 0x50, 0xb7, 0xa6, 0x3e, 0xb6, 0x71, 0x4f, 0xbc,
  0x05, 0x35, 0x81, 0x3e, 0xb0, 0x3d, 0x29, 0xbe, 0x6d, 0xbf, 0xe9, 0x3e,
  0x05, 0x14, 0xd1, 0xbb, 0xbe, 0xb2, 0xca, 0x3e, 0x2d, 0x05, 0xbe, 0x3e,
  0x41, 0x88, 0xe3, 0x3e, 0xad, 0xd7, 0x23, 0x3f, 0x49, 0xf0, 0xdf, 0x3e,
  0x4d, 0x03, 0x07, 0x3c, 0x71, 0x9b, 0xf3, 0xbd, 0x66, 0x39, 0xc1, 0x3d,
  0x30, 0xfa, 0x77, 0xbe, 0x29, 0x3c, 0xbb, 0x3d, 0xdd, 0xdf, 0x7a, 0x3c,
  0x37, 0x3b, 0xe3, 0x3d, 0xeb, 0xba, 0xa2, 0x3e, 0xb4, 0xc6, 0x3c, 0xbe,
  0x5e, 0xf5, 0xc2, 0x3e, 0x54, 0xc8, 0x25, 0xbd, 0x2a, 0x75, 0xb0, 0x3e,
  0xef, 0x9c, 0xd2, 0xbe, 0x30, 0xef, 0xeb, 0x3e, 0xea, 0xb7, 0x4e, 0xbe,
  0x23, 0x7e, 0xd1, 0x3e, 0x9a, 0xe7, 0xc1, 0xbe, 0xfb, 0xd7, 0x1b, 0xbe,
  0x4a, 0x6e, 0x87, 0x3d, 0x25, 0xfa, 0x9d, 0xbe, 0x57, 0xbb, 0xde, 0xbd,
  0x66, 0xa4, 0xf7, 0x3e, 0xc2, 0x7f, 0xc5, 0x3d, 0x8e, 0xa9, 0x87, 0x3e,
  0x72, 0xcb, 0xc4, 0xbd, 0xb9, 0x9c, 0x62, 0x3e, 0xab, 0xfe, 0x81, 0xbd,
  0xd8, 0xbe, 0x9d, 0x3d, 0x96, 0x32, 0x6c, 0xbf, 0x87, 0x9b, 0xd0, 0x3e,
  0xce, 0xfd, 0x8d, 0xbf, 0x83, 0x70, 0xb5, 0x3e, 0xfa, 0xe1, 0xff, 0xff,
  0x10, 0x00, 0x00, 0x00, 0x06, 0x00, 0x00, 0x00, 0x14, 0x00, 0x00, 0x00,
  0x30, 0x00, 0x00, 0x00, 0x02, 0x00, 0x00, 0x00, 0x03, 0x00, 0x00, 0x00,
  0x10, 0x00, 0x00, 0x00, 0x19, 0x00, 0x00, 0x00, 0x73, 0x65, 0x71, 0x75,
  0x65, 0x6e, 0x74, 0x69, 0x61, 0x6c, 0x2f, 0x64, 0x65, 0x6e, 0x73, 0x65,
  0x5f, 0x31, 0x2f, 0x4d, 0x61, 0x74, 0x4d, 0x75, 0x6c, 0x00, 0x00, 0x00,
  0xec, 0xe1, 0xff, 0xff, 0xe2, 0xe2, 0xff, 0xff, 0x04, 0x00, 0x00, 0x00,
  0x00, 0x1c, 0x00, 0x00, 0x1e, 0x2b, 0x01, 0xbe, 0x54, 0xd2, 0xcb, 0x3b,
  0x71, 0x73, 0x2b, 0xbe, 0x0e, 0xfb, 0xd2, 0x3d, 0xde, 0xa3, 0x6d, 0x3d,
  0x11, 0x39, 0xfa, 0x3d, 0x0d, 0xfb, 0x1c, 0x3c, 0x16, 0x9a, 0x08, 0xbe,
  0xb1, 0x64, 0x23, 0x3d, 0x6d, 0xe2, 0xcc, 0xbc, 0xca, 0xef, 0x02, 0xbe,
  0xef, 0xab, 0xdd, 0xbd, 0x5c, 0xb6, 0x4f, 0xbe, 0x12, 0x33, 0x4d, 0xbe,
  0x31, 0x96, 0xbf, 0x3c, 0x59, 0x8b, 0x47, 0xbe, 0xa3, 0x03, 0x27, 0xbd,
  0x36, 0xc1, 0x1c, 0xbe, 0xb7, 0xd5, 0x4c, 0xbe, 0xb3, 0x4f, 0x1f, 0xbc,
  0x77, 0x34, 0x0f, 0x3e, 0xe6, 0x47, 0xf9, 0x3b, 0x12, 0x1e, 0x5a, 0xbe,
  0x96, 0x54, 0x4a, 0xbe, 0x12, 0xa0, 0xae, 0x3c, 0x47, 0x60, 0x60, 0xbe,
  0xc5, 0x75, 0xd4, 0xbd, 0x69, 0xa2, 0x77, 0x3d, 0x11, 0xed, 0x43, 0xbc,
  0xc8, 0x01, 0x30, 0x3e, 0x1d, 0x76, 0xa0, 0xbd, 0xba, 0xc3, 0x0c, 0xbe,
  0xd7, 0x63, 0x57, 0xbe, 0x6c, 0x84, 0x55, 0xbd, 0x45, 0x3d, 0xd7, 0xbc,
  0xd5, 0xae, 0xd7, 0xbc, 0x33, 0x6d, 0x39, 0xbd, 0x1d, 0x00, 0x65, 0x3d,
  0x52, 0xa1, 0x0e, 0x3e, 0xde, 0x9c, 0x03, 0x3e, 0x0b, 0x3b, 0xe9, 0xbd,
  0x3a, 0x8c, 0xd0, 0x3b, 0x18, 0xbe, 0x00, 0xbd, 0x10, 0x60, 0x39, 0x3d,
  0x02, 0x96, 0xb1, 0x3a, 0x67, 0x19, 0xaf, 0x3d, 0x5c, 0xc8, 0x42, 0xbe,
  0x18, 0x2a, 0x64, 0xbe, 0x2d, 0x76, 0xa4, 0xbd, 0x69, 0xc8, 0x98, 0xbc,
  0x03, 0xc5, 0xae, 0x3d, 0x94, 0x3b, 0x05, 0x3e, 0xfb, 0x50, 0xf8, 0x3d,
  0x30, 0x6f, 0x14, 0xbc, 0xf1, 0x49, 0x95, 0xbc, 0x87, 0x11, 0x6e, 0xbe,
  0xcb, 0xcd, 0x00, 0xbe, 0x5e, 0x18, 0x08, 0xbe, 0xcf, 0xac, 0x49, 0xbe,
  0xf9, 0x43, 0x20, 0xbe, 0x92, 0x7a, 0x80, 0xbe, 0x60, 0xed, 0xe4, 0x3a,
  0x78, 0xa9, 0xfd, 0x3d, 0x86, 0x88, 0x27, 0xbe, 0xfc, 0x10, 0x84, 0xbe,
  0x69, 0x0c, 0x01, 0x3e, 0x57, 0x25, 0xeb, 0x3d, 0x5f, 0xc2, 0xd5, 0xbd,
  0x58, 0xbd, 0x5f, 0xbe, 0xbc, 0x8e, 0x19, 0x3e, 0xad, 0x73, 0xcc, 0xbd,
  0xe8, 0x19, 0xdb, 0xbd, 0x03, 0x6d, 0x80, 0xbe, 0x6e, 0x38, 0x26, 0xbd,
  0x53, 0x99, 0xdc, 0xbd, 0xf7, 0xc5, 0x6e, 0xbe, 0x65, 0x20, 0x4c, 0xbe,
  0xc7, 0xa4, 0x18, 0xbe, 0xd8, 0xaa, 0x18, 0x3e, 0xa8, 0x59, 0xeb, 0xbd,
  0xd5, 0xeb, 0x4f, 0xbe, 0x95, 0x40, 0x3b, 0x3e, 0xff, 0x0f, 0xc7, 0x3c,
  0xee, 0xa8, 0xae, 0xbd, 0xb0, 0x26, 0x79, 0xbe, 0xbb, 0x32, 0x4d, 0xbe,
  0x14, 0xc8, 0x0a, 0xbe, 0xd2, 0x79, 0x1c, 0xbe, 0xc5, 0x8c, 0xa4, 0x3c,
  0x87, 0x56, 0xb2, 0x3d, 0x8a, 0x29, 0xd8, 0x3c, 0x60, 0xdf, 0x9f, 0x3d,
  0x64, 0x41, 0xe4, 0xbc, 0x4d, 0x87, 0xe4, 0xbd, 0x7a, 0xc8, 0x46, 0xbe,
  0x64, 0xfd, 0xec, 0xbd, 0x41, 0xb2, 0x0b, 0x3d, 0xae, 0x28, 0xd0, 0x3d,
  0x51, 0xf7, 0x70, 0xbe, 0x16, 0xcf, 0x18, 0xbe, 0xf9, 0x8f, 0xd6, 0x3c,
  0xf2, 0xe5, 0x4c, 0xbe, 0xe7, 0xa8, 0x78, 0xbd, 0x6f, 0x54, 0x1d, 0xbd,
  0x21, 0xef, 0x2d, 0xbd, 0x89, 0x03, 0x4e, 0xbe, 0xe2, 0xe3, 0xb4, 0x3d,
  0x3b, 0x82, 0xa8, 0xbd, 0xb4, 0x94, 0xf9, 0xbd, 0x21, 0x7f, 0x17, 0xbe,
  0xa6, 0x75, 0x30, 0xbe, 0x60, 0xc0, 0x85, 0xbd, 0xce, 0xe4, 0xd2, 0xbd,
  0x31, 0x0b, 0x50, 0xbe, 0x05, 0x5c, 0x28, 0x3f, 0x9b, 0x96, 0x10, 0xbe,
  0xb6, 0x87, 0x01, 0x3d, 0x93, 0x30, 0x94, 0xbe, 0x58, 0xcf, 0x27, 0xbe,
  0x41, 0x14, 0x53, 0x3d, 0x9f, 0xa2, 0x9e, 0xbe, 0x2d, 0x22, 0x93, 0x3c,
  0xab, 0x32, 0x90, 0x3e, 0xf9, 0xb8, 0x4f, 0x3e, 0x0b, 0x01, 0xf1, 0xbd,
  0xbb, 0xbf, 0xc3, 0xbd, 0xfb, 0x7c, 0xc4, 0xbd, 0x0f, 0x03, 0x92, 0x3c,
  0xd4, 0x09, 0x1c, 0xbe, 0x2d, 0x2e, 0x25, 0xbe, 0x46, 0xb4, 0xdf, 0x3e,
  0xca, 0xc3, 0x43, 0xbe, 0x7d, 0xd6, 0x24, 0x3d, 0x0a, 0x5b, 0x6e, 0xb8,
  0x8f, 0x1d, 0x9b, 0x3c, 0x59, 0x76, 0xd3, 0xbd, 0x63, 0x52, 0xe7, 0xbd,
  0xba, 0x91, 0xf0, 0xbc, 0x36, 0xed, 0xf4, 0x3d, 0xd8, 0x28, 0xae, 0x3d,
  0x3a, 0x55, 0x19, 0xbb, 0x0c, 0xc2, 0xbb, 0xbc, 0xb3, 0x1f, 0x2a, 0x3c,
  0x54, 0xe4, 0xec, 0x3d, 0x94, 0xed, 0x1b, 0xbd, 0x82, 0x56, 0x11, 0xbe,
  0x26, 0xed, 0xa5, 0x3e, 0xf0, 0xba, 0xca, 0x3d, 0xd7, 0x82, 0xeb, 0x3d,
  0xdc, 0x0d, 0xf3, 0xbd, 0x5b, 0x62, 0x28, 0xbe, 0xcd, 0x4f, 0x72, 0x3e,
  0x08, 0xd8, 0x74, 0x3d, 0xce, 0x57, 0x71, 0x3e, 0x7c, 0x94, 0x71, 0x3e,
  0x3e, 0x18, 0xaa, 0xbd, 0xf8, 0x35, 0xc2, 0xbd, 0x65, 0x4b, 0x0f, 0x3e,
  0x3a, 0xcf, 0xa9, 0xbd, 0xcd, 0xd3, 0x50, 0x3e, 0xf1, 0xfc, 0x60, 0xbc,
  0x4a, 0xb5, 0x91, 0xbe, 0x54, 0x19, 0x92, 0x3e, 0x3b, 0x12, 0x84, 0xbd,
  0x6f, 0x3b, 0x2b, 0x3e, 0xa1, 0x22, 0x96, 0xbd, 0x68, 0xb8, 0x93, 0xbe,
  0xa6, 0x84, 0x94, 0x3c, 0x2a, 0x4e, 0x3b, 0xbe, 0x5d, 0x9f, 0x7f, 0x3d,
  0x4d, 0x6a, 0x62, 0x3e, 0x46, 0x18, 0x91, 0x3e, 0x07, 0xc9, 0xe7, 0x3d,
  0x55, 0x0c, 0x2d, 0xbe, 0x57, 0xa6, 0x49, 0xbe, 0xc2, 0xea, 0x4a, 0x3e,
  0xb5, 0x4f, 0x96, 0x3d, 0x2e, 0x34, 0x22, 0xbe, 0xd5, 0x76, 0xda, 0x3e,
  0x61, 0xf2, 0xb3, 0xbb, 0xd2, 0x5e, 0x2e, 0x3e, 0xa1, 0xa9, 0x2b, 0xbe,
  0x61, 0x76, 0x3c, 0xbd, 0x27, 0xf2, 0xcd, 0xbd, 0x3c, 0xf3, 0x41, 0xbe,
  0x08, 0x1c, 0x16, 0x3e, 0x48, 0x19, 0x27, 0x3e, 0xad, 0x5c, 0x6e, 0x3e,
  0x57, 0x54, 0xb2, 0xbc, 0xf2, 0xcc, 0x00, 0xbd, 0x81, 0x02, 0x64, 0xbd,
  0xd8, 0x7c, 0x53, 0xbe, 0x35, 0x44, 0x05, 0xbd, 0x34, 0xcb, 0x5a, 0xbe,
  0xdc, 0xd0, 0x82, 0x3e, 0xfe, 0xda, 0x1e, 0xbd, 0x5e, 0x7c, 0x2f, 0xbe,
  0x4e, 0x05, 0xd8, 0x3b, 0x1c, 0xa7, 0x08, 0x3d, 0xb8, 0x46, 0x8f, 0xbe,
  0xcc, 0x9f, 0x8f, 0x3c, 0xe2, 0x60, 0xb9, 0x3d, 0x25, 0xdf, 0xde, 0x3e,
  0x81, 0x67, 0x9c, 0x3e, 0x2d, 0x2c, 0xbf, 0xbd, 0x6b, 0x49, 0xb2, 0x3d,
  0xbf, 0x1c, 0xe4, 0xbd, 0x5d, 0x29, 0x01, 0x3e, 0xc5, 0x57, 0x07, 0xbe,
  0xfb, 0xdd, 0xfc, 0x3c, 0x8f, 0x3d, 0xcc, 0xbd, 0x31, 0xeb, 0x4e, 0xbd,
  0xd7, 0x5f, 0x0a, 0xbe, 0xdc, 0xd1, 0x71, 0x3d, 0x64, 0x70, 0x80, 0xbd,
  0x82, 0x96, 0xe0, 0xbd, 0x34, 0x84, 0x69, 0x3d, 0xb1, 0x28, 0x94, 0xbd,
  0xff, 0xfb, 0x36, 0x3e, 0xc9, 0x70, 0x08, 0xbe, 0x10, 0x55, 0x9d, 0xbd,
  0xe8, 0xa3, 0x1e, 0xbe, 0x88, 0xba, 0x04, 0xbe, 0x0b, 0x52, 0x49, 0x3e,
  0xea, 0xaf, 0xf2, 0xbd, 0xa2, 0x33, 0x03, 0xbe, 0x15, 0x95, 0xa1, 0x3b,
  0xc3, 0x70, 0x92, 0xbe, 0xae, 0xc4, 0x8c, 0xbf, 0x3f, 0x7b, 0xd5, 0xbe,
  0xbf, 0x29, 0xa7, 0xbd, 0x3c, 0x11, 0xb4, 0xbe, 0x27, 0xc7, 0xa8, 0xbd,
  0xd8, 0xa4, 0x30, 0xbf, 0x29, 0x7d, 0x87, 0xbb, 0xc5, 0x37, 0xde, 0xbe,
  0x39, 0x34, 0x1f, 0xbe, 0x0f, 0xa9, 0xa7, 0xbe, 0x66, 0x60, 0xcf, 0xbe,
  0x00, 0x39, 0x0f, 0xbf, 0xbe, 0x89, 0xe4, 0xbd, 0xd2, 0xf2, 0x89, 0x3d,
  0x66, 0xae, 0x73, 0xbe, 0x06, 0xe2, 0x10, 0x3d, 0x1b, 0xac, 0x75, 0xbe,
  0xf5, 0xab, 0x98, 0xbe, 0x35, 0x03, 0x82, 0xbd, 0x71, 0xf5, 0x6b, 0x3d,
  0x12, 0x4c, 0x3a, 0xbb, 0x7d, 0x5e, 0x84, 0xbe, 0x69, 0x65, 0x9b, 0xbe,
  0x26, 0xf6, 0x7f, 0xbe, 0x0b, 0xc5, 0x04, 0xbe, 0x40, 0x56, 0xc3, 0xbe,
  0x4b, 0x10, 0xe6, 0x3b, 0x25, 0x81, 0x7d, 0xbe, 0xbe, 0x5e, 0x28, 0xbe,
  0xa0, 0xe6, 0xa4, 0x3d, 0xcc, 0x0d, 0x65, 0xbe, 0x59, 0x87, 0x02, 0xbe,
  0x92, 0xef, 0xa1, 0xbe, 0x8d, 0x47, 0x47, 0xbe, 0x4a, 0xc7, 0x04, 0xbb,
  0xd6, 0x2a, 0x10, 0x3c, 0x17, 0x6e, 0x54, 0xbb, 0x71, 0x89, 0x9f, 0xbe,
  0xfe, 0x16, 0xa1, 0xbe, 0x3a, 0x01, 0x15, 0xbe, 0x09, 0x9d, 0xb3, 0xbd,
  0xd3, 0x06, 0xc6, 0xbe, 0xa5, 0x65, 0xa6, 0xbe, 0x32, 0x32, 0xce, 0xbe,
  0x35, 0xf2, 0x31, 0xbd, 0xfb, 0xe6, 0xd6, 0x3c, 0xb4, 0x39, 0xe6, 0x3d,
  0x03, 0xeb, 0x41, 0xbe, 0x8b, 0xe3, 0x94, 0xbe, 0x92, 0xa1, 0x10, 0xbe,
  0xc0, 0xa6, 0xac, 0xbe, 0x43, 0x7c, 0x0f, 0xbe, 0x5c, 0x79, 0x17, 0xbe,
  0x83, 0x08, 0xdd, 0xbe, 0x05, 0xcc, 0x82, 0xbe, 0x89, 0xa3, 0xa9, 0xbe,
  0xae, 0xad, 0x41, 0xbe, 0x92, 0x8f, 0x5a, 0xbe, 0x84, 0xa3, 0x1b, 0xbf,
  0x92, 0xef, 0x15, 0xbf, 0x3a, 0x3d, 0x20, 0xbd, 0xa0, 0xc4, 0x04, 0xbe,
  0x65, 0xd0, 0x10, 0x3e, 0x28, 0x19, 0xc3, 0x3e, 0x57, 0x7c, 0x77, 0xbe,
  0x2c, 0x07, 0x50, 0x3e, 0x41, 0x5c, 0x9a, 0x3d, 0x38, 0xa4, 0x8a, 0x3e,
  0x1a, 0x08, 0x9b, 0xbd, 0x1a, 0xc4, 0x7a, 0xbe, 0x94, 0x49, 0xa4, 0xbd,
  0x07, 0x15, 0x1b, 0xbf, 0x9c, 0x0d, 0xca, 0xbd, 0x6e, 0x2e, 0xf8, 0x3e,
  0x56, 0xac, 0xe4, 0xbd, 0xd4, 0xb0, 0x00, 0x3e, 0x6c, 0xfd, 0xe6, 0x3c,
  0xd9, 0xcd, 0x28, 0xbe, 0x4c, 0xff, 0xae, 0x3d, 0x5b, 0xac, 0x18, 0x3f,
  0x0a, 0x22, 0xd8, 0xbe, 0x94, 0x2d, 0x25, 0x3e, 0x89, 0x77, 0x37, 0xbd,
  0xf0, 0x08, 0x41, 0x3e, 0x09, 0x37, 0x03, 0x3d, 0x93, 0xe2, 0x64, 0xbe,
  0xa6, 0x21, 0xd2, 0xbd, 0x22, 0xda, 0xd6, 0xbd, 0x23, 0xe9, 0xee, 0x3b,
  0x35, 0x24, 0x91, 0x3e, 0xaa, 0x07, 0x62, 0xbc, 0x09, 0x8e, 0x62, 0x3d,
  0xee, 0x34, 0x5c, 0x3e, 0xac, 0xe3, 0xdc, 0x3c, 0x3f, 0x7e, 0x32, 0xbd,
  0xc3, 0x3a, 0x76, 0x3e, 0x92, 0xc9, 0xdc, 0xbd, 0x3f, 0xbc, 0xb6, 0x3e,
  0x6d, 0x77, 0x86, 0x3d, 0x1e, 0xe6, 0x09, 0x3d, 0xdf, 0x30, 0x48, 0x3e,
  0x9a, 0xc6, 0xa2, 0xbd, 0x43, 0x55, 0x85, 0x3c, 0xc6, 0x5d, 0x68, 0xbb,
  0xdb, 0x1a, 0xa8, 0x3d, 0x45, 0xf3, 0x20, 0x3d, 0xa5, 0xb0, 0xd3, 0x3d,
  0x7e, 0xcb, 0xbd, 0x3d, 0xee, 0x91, 0x0e, 0xbd, 0xe8, 0xb7, 0xba, 0x3e,
  0xc3, 0x79, 0x96, 0xbe, 0x8a, 0xd3, 0x55, 0x3d, 0x17, 0xd8, 0xaa, 0xbe,
  0xb4, 0x49, 0x2f, 0x3d, 0xf2, 0x02, 0x39, 0x3e, 0x54, 0x61, 0x86, 0x3e,
  0x07, 0x5b, 0x02, 0x3c, 0xad, 0x6b, 0x1b, 0xbe, 0x59, 0x3f, 0x1d, 0xbd,
  0xed, 0x6f, 0x85, 0xbe, 0x6c, 0x2c, 0xdd, 0x3d, 0x20, 0x7d, 0x85, 0x3e,
  0xb8, 0x82, 0xdc, 0x3d, 0xd8, 0x9a, 0xa3, 0x3c, 0xe3, 0x90, 0x85, 0xbd,
  0xb7, 0x56, 0x75, 0x3d, 0x62, 0x19, 0x0a, 0xbe, 0x5e, 0x46, 0xcb, 0xbd,
  0xba, 0x02, 0x6d, 0xbe, 0x0f, 0xf1, 0xa1, 0xbd, 0x47, 0x3d, 0x31, 0xbe,
  0x14, 0xa5, 0x41, 0x3e, 0x64, 0x89, 0x3d, 0xbd, 0x6c, 0xfd, 0x9c, 0xbd,
  0xf6, 0xa3, 0x95, 0x3d, 0x5b, 0xfd, 0xaa, 0x3d, 0x08, 0x24, 0x83, 0x3d,
  0xe0, 0x24, 0x2f, 0x3e, 0xe1, 0xc4, 0x1a, 0xbe, 0xbb, 0xdf, 0x9c, 0x3d,
  0x97, 0x8f, 0xc6, 0xbc, 0xb4, 0x2a, 0x95, 0x3d, 0xf6, 0xfb, 0xef, 0x3d,
  0x34, 0x79, 0x4a, 0xbe, 0x6e, 0xf7, 0xc4, 0xbb, 0xd5, 0x0b, 0x7d, 0x3c,
  0x1b, 0x6b, 0x9a, 0xbe, 0xbc, 0x25, 0x3c, 0x3d, 0x8c, 0x8e, 0x10, 0xbe,
  0x3e, 0x84, 0xa6, 0x3c, 0x8f, 0x3d, 0xaf, 0xbd, 0x30, 0x08, 0x56, 0x3d,
  0x19, 0x30, 0x94, 0xba, 0x6c, 0xda, 0x01, 0xbe, 0x9c, 0xd8, 0x29, 0xbe,
  0x9c, 0x67, 0x87, 0xbe, 0x4b, 0x03, 0x64, 0xbd, 0xff, 0xf8, 0xa2, 0xbe,
  0xd2, 0x45, 0x40, 0xbe, 0x4a, 0xf8, 0x2b, 0xbe, 0xae, 0x0b, 0x2c, 0x3d,
  0x12, 0xa1, 0x02, 0xbe, 0xda, 0xbf, 0x23, 0xbe, 0x5b, 0x4f, 0x81, 0xbe,
  0xb3, 0xa6, 0x8f, 0xbe, 0x02, 0x7b, 0x72, 0xbc, 0xf3, 0x63, 0x90, 0xbe,
  0x0c, 0x17, 0xd2, 0xbe, 0x13, 0x81, 0xc6, 0x3c, 0x89, 0xbe, 0x08, 0x3e,
  0x0a, 0x20, 0xa4, 0xbc, 0x19, 0x30, 0xc6, 0xbd, 0x60, 0x7c, 0xea, 0xbd,
  0x0d, 0x49, 0x98, 0xbd, 0x07, 0xad, 0x6e, 0xbe, 0xc7, 0x71, 0x38, 0x3e,
  0x66, 0x6b, 0x01, 0xbe, 0x35, 0x5c, 0xbb, 0xbc, 0x7a, 0xc0, 0x8e, 0xbd,
  0x75, 0x2f, 0x32, 0xbe, 0x51, 0xdc, 0x03, 0x3e, 0xe0, 0x54, 0x4c, 0x3d,
  0x86, 0x56, 0x39, 0x3d, 0x1e, 0x91, 0x6f, 0xbe, 0x03, 0xad, 0xb3, 0xbd,
  0xfd, 0x25, 0x4e, 0xbe, 0x59, 0x1e, 0x45, 0xbe, 0x82, 0x95, 0xf2, 0xbd,
  0xeb, 0xf5, 0x81, 0xbc, 0xf6, 0xed, 0x3b, 0xbe, 0x6c, 0x57, 0x2b, 0x3e,
  0x45, 0x37, 0xb1, 0x3d, 0x7b, 0x60, 0x3d, 0x3d, 0x27, 0xa1, 0x0f, 0x3e,
  0xd8, 0x34, 0x2c, 0xbe, 0x20, 0x83, 0xff, 0xbd, 0xfb, 0xa8, 0xd0, 0x3d,
  0x8d, 0xb8, 0x5f, 0xbb, 0xc1, 0x87, 0x90, 0xbc, 0xe1, 0x92, 0x17, 0x3d,
  0xb1, 0x5f, 0x13, 0xbe, 0xcc, 0x13, 0x3f, 0x3e, 0xd9, 0x98, 0x26, 0xbd,
  0x92, 0x15, 0xd3, 0xbd, 0xdb, 0xc1, 0x0c, 0xbd, 0xdf, 0xcb, 0x06, 0xbe,
  0x69, 0xb8, 0x9e, 0xbc, 0xef, 0x7c, 0x40, 0xbd, 0xae, 0x04, 0x94, 0xbc,
  0x47, 0x32, 0x21, 0x3d, 0x35, 0xe2, 0x21, 0xbe, 0x61, 0x04, 0xb4, 0x3d,
  0x4d, 0x94, 0x23, 0x3d, 0x3c, 0x1c, 0x19, 0x3d, 0x60, 0x6a, 0x11, 0xbe,
  0x51, 0xe5, 0x9f, 0x3d, 0x71, 0x91, 0x0d, 0xbe, 0xaf, 0x2b, 0xc1, 0xbd,
  0x5a, 0x09, 0x21, 0xbe, 0xcb, 0xa7, 0xae, 0xbd, 0x62, 0x6e, 0x22, 0xbe,
  0xef, 0x89, 0x45, 0x3d, 0xac, 0x74, 0xa5, 0x3d, 0xf0, 0xa2, 0x86, 0xbd,
  0xf5, 0x75, 0xf7, 0xbe, 0x95, 0x80, 0x73, 0xbd, 0xb8, 0xaf, 0x2f, 0xbe,
  0xa5, 0x3b, 0x76, 0x3d, 0x6c, 0xfd, 0xaa, 0x3d, 0x57, 0xf0, 0xa5, 0xbe,
  0xa1, 0xce, 0x46, 0x3e, 0xf9, 0x12, 0x10, 0xbe, 0x4d, 0xd4, 0x1b, 0xbe,
  0x65, 0x19, 0x1a, 0x3e, 0x20, 0x9f, 0xc0, 0xbe, 0x86, 0x37, 0x92, 0xbe,
  0x38, 0x8d, 0x09, 0xbe, 0x3b, 0x09, 0xd3, 0x3c, 0xcd, 0x36, 0xa9, 0x3d,
  0x57, 0xb7, 0xb1, 0x3d, 0x2f, 0x3f, 0x09, 0x3c, 0x53, 0xd9, 0x68, 0x3e,
  0x41, 0x28, 0x00, 0xbe, 0xfc, 0xac, 0xb1, 0x3c, 0xf7, 0x24, 0x40, 0x3d,
  0xf9, 0xa8, 0xc4, 0xbd, 0xbd, 0xf3, 0x91, 0x3e, 0x64, 0xf7, 0x8f, 0xbe,
  0xe4, 0xa3, 0x9d, 0xbe, 0x62, 0xbd, 0xd5, 0xbd, 0x90, 0x61, 0xd6, 0x3b,
  0xac, 0x47, 0x85, 0xbd, 0x61, 0x5f, 0x73, 0xbe, 0x8a, 0x94, 0x84, 0x3e,
  0xc2, 0x88, 0xca, 0xbd, 0x99, 0xc5, 0x19, 0xbe, 0x8b, 0xc7, 0x21, 0xbd,
  0xfc, 0xb5, 0xfa, 0xbd, 0xa5, 0xec, 0x7e, 0xbc, 0xe4, 0xac, 0x0e, 0x3e,
  0x66, 0xca, 0xc6, 0x3d, 0xfd, 0x71, 0x81, 0xbe, 0xb4, 0xf9, 0x0b, 0xbe,
  0xbc, 0xbe, 0x51, 0xbe, 0x36, 0xe4, 0x46, 0xbe, 0x2b, 0xdb, 0x4d, 0x3d,
  0x6d, 0x2a, 0x50, 0xbe, 0x6d, 0xed, 0xce, 0xbd, 0x13, 0x36, 0x0d, 0xbe,
  0x1e, 0xb1, 0x72, 0x3e, 0xe3, 0x4b, 0x65, 0x3e, 0xd4, 0x87, 0x4f, 0xbe,
  0xdc, 0x78, 0x26, 0xbe, 0x1a, 0xf8, 0xae, 0xbd, 0xde, 0xf6, 0x7a, 0xbe,
  0xcc, 0xd2, 0xf5, 0xbc, 0x0c, 0x7b, 0xb0, 0xbd, 0xd1, 0x9b, 0xa4, 0xbe,
  0x3d, 0x81, 0x05, 0xbd, 0x18, 0xc2, 0x03, 0xbe, 0x49, 0xb5, 0x7a, 0xbe,
  0x04, 0x97, 0x8c, 0xbd, 0x18, 0xe0, 0xa4, 0xbe, 0xee, 0x49, 0x42, 0xbd,
  0x7d, 0x05, 0x5c, 0x3c, 0x18, 0xf9, 0xe3, 0x3d, 0x59, 0xd0, 0x84, 0x3d,
  0xa0, 0x5e, 0x21, 0x3e, 0xad, 0x4e, 0xa5, 0xbc, 0x3c, 0x07, 0xb0, 0x3e,
  0x79, 0x51, 0x20, 0xbd, 0xfd, 0x34, 0xe9, 0x3d, 0xce, 0x6f, 0xdd, 0x3c,
  0xbc, 0xd6, 0xbb, 0xbd, 0x1b, 0xdc, 0x83, 0x3e, 0xea, 0x45, 0x08, 0xbe,
  0x2d, 0x8f, 0x64, 0xbe, 0xc6, 0x63, 0x31, 0x3e, 0x81, 0xfc, 0xad, 0x3c,
  0xfd, 0x58, 0x50, 0xbd, 0x27, 0x1e, 0x02, 0x3d, 0xce, 0x78, 0xd9, 0xbc,
  0xb6, 0x79, 0xa4, 0xbd, 0x3c, 0xcf, 0x40, 0x3e, 0xaa, 0x22, 0x81, 0xbe,
  0xc8, 0x16, 0x15, 0x3e, 0xa2, 0x8d, 0x59, 0x3d, 0x87, 0x4b, 0x21, 0x3c,
  0x9b, 0x98, 0x9d, 0x3e, 0x48, 0xcf, 0xaa, 0xbd, 0x8e, 0x88, 0x44, 0x3e,
  0xdc, 0x62, 0xa2, 0xbd, 0xe1, 0x77, 0x4b, 0x3e, 0x6f, 0x87, 0x95, 0x3e,
  0x3b, 0xf3, 0x6e, 0x3d, 0xb4, 0xb5, 0x17, 0x3e, 0xad, 0xb7, 0xab, 0xbc,
  0x9a, 0x4e, 0x34, 0x3c, 0x87, 0xd3, 0x72, 0x3d, 0x90, 0x41, 0xa1, 0xbd,
  0x1f, 0x12, 0x4c, 0x3d, 0x16, 0x35, 0x41, 0xbb, 0xe7, 0xca, 0x85, 0xbe,
  0x83, 0x02, 0x08, 0xbe, 0x25, 0x44, 0xa0, 0xbe, 0x27, 0x83, 0x0c, 0xbe,
  0x85, 0x19, 0x60, 0xbc, 0x1c, 0xa9, 0xc7, 0xbd, 0x23, 0x43, 0x9b, 0xbd,
  0x14, 0x6b, 0xcf, 0xbd, 0xba, 0x68, 0x88, 0xbe, 0x90, 0xb7, 0x55, 0xbe,
  0x63, 0xca, 0x7c, 0xbe, 0x5d, 0x80, 0x34, 0x3d, 0x3a, 0xcd, 0x59, 0x3c,
  0xe2, 0xb6, 0x9a, 0x3d, 0xf4, 0x86, 0x24, 0xbc, 0xd1, 0x23, 0x59, 0x3e,
  0x96, 0x6b, 0x3d, 0xbe, 0xd7, 0xc7, 0x88, 0xbd, 0x7f, 0xbe, 0xc2, 0xbd,
  0x23, 0x10, 0xb1, 0xbd, 0xce, 0xb9, 0xdc, 0xbc, 0x58, 0x43, 0xc7, 0x3d,
  0x92, 0x1f, 0x81, 0xbe, 0xcf, 0x92, 0x4b, 0x3c, 0x41, 0x29, 0x29, 0xbe,
  0x70, 0x33, 0x96, 0xbe, 0xc9, 0x75, 0x10, 0x3e, 0xaf, 0x0e, 0xfa, 0x3d,
  0xd8, 0xcc, 0x5f, 0xbe, 0x4d, 0xef, 0xfe, 0x3d, 0x08, 0xfc, 0xc4, 0xbd,
  0x90, 0xd3, 0xd6, 0xbd, 0x64, 0x30, 0x93, 0x3b, 0x1f, 0xe9, 0x7c, 0x3d,
  0xb3, 0x19, 0x6d, 0x3c, 0x04, 0x1c, 0x06, 0x3e, 0x6a, 0x27, 0x44, 0xbc,
  0x92, 0xa9, 0x04, 0xbd, 0x0c, 0x3b, 0xdc, 0xbd, 0x8e, 0xcd, 0xe0, 0xbd,
  0xee, 0x97, 0x64, 0xbd, 0x7a, 0x4f, 0x6c, 0xbd, 0x56, 0xac, 0xd7, 0xbd,
  0xd0, 0x4c, 0x32, 0x3d, 0x36, 0x70, 0x97, 0x3d, 0x65, 0x83, 0x38, 0xbe,
  0x83, 0x4e, 0x1b, 0xbd, 0x17, 0xf4, 0x8d, 0xbd, 0x9b, 0x50, 0xa5, 0x3d,
  0xe6, 0xa9, 0x88, 0x3d, 0x2d, 0x7e, 0xf7, 0x3d, 0xc4, 0xb4, 0x60, 0xbe,
  0x1a, 0x1c, 0x35, 0x3e, 0xa1, 0xb8, 0x6d, 0x3d, 0x44, 0x37, 0xf8, 0xbc,
  0x5d, 0x0f, 0x2b, 0xbd, 0xc5, 0x0d, 0x1c, 0xbd, 0x84, 0xe3, 0x89, 0xbe,
  0x88, 0x93, 0x81, 0xbe, 0x04, 0xf9, 0x28, 0xbe, 0x56, 0x70, 0xc2, 0xbd,
  0x6b, 0xbf, 0xb9, 0xbd, 0x95, 0x92, 0x42, 0xbd, 0x49, 0xa5, 0x52, 0x3e,
  0x6f, 0x76, 0xb1, 0x3d, 0x0e, 0x65, 0x9f, 0x3d, 0xf6, 0xb4, 0x66, 0xbe,
  0x94, 0x87, 0xaa, 0x3c, 0xe1, 0xdd, 0xfb, 0xbc, 0x31, 0x2c, 0x2b, 0xba,
  0x66, 0x51, 0xcf, 0x3d, 0x35, 0xde, 0x4e, 0x3e, 0x45, 0x54, 0xaf, 0xbd,
  0x16, 0x0e, 0x24, 0xbe, 0x76, 0x00, 0x90, 0xbe, 0x82, 0xd4, 0x3a, 0x3e,
  0x49, 0x80, 0x05, 0x3e, 0x78, 0x99, 0xde, 0xbc, 0x8a, 0xea, 0x99, 0xbc,
  0x62, 0x0c, 0x33, 0xbe, 0x64, 0x79, 0xb4, 0x3c, 0x72, 0x59, 0xd4, 0x3d,
  0xf6, 0xd0, 0x2a, 0xbe, 0x61, 0x96, 0xf6, 0xbd, 0xa2, 0xd6, 0x00, 0xbe,
  0x22, 0x73, 0xa2, 0xbd, 0x14, 0x09, 0xb9, 0xbd, 0xeb, 0x6c, 0xd5, 0xbd,
  0xd8, 0x37, 0x10, 0x3e, 0x8f, 0x4c, 0xde, 0x3d, 0x10, 0xcf, 0xec, 0xbd,
  0x10, 0xe9, 0x98, 0x3c, 0xee, 0xa9, 0x38, 0xbe, 0x76, 0x4f, 0xea, 0xbd,
  0x3f, 0x29, 0xd1, 0xbd, 0x4e, 0x7a, 0x0b, 0x3e, 0x9e, 0x4d, 0xac, 0xbc,
  0x6a, 0x0c, 0x4a, 0x3d, 0xa8, 0x21, 0x7e, 0xbe, 0xce, 0x8c, 0xdf, 0xbd,
  0x56, 0x07, 0xe1, 0x3d, 0xc5, 0xc7, 0x57, 0x3d, 0xec, 0x14, 0x67, 0xbe,
  0xc0, 0xf1, 0x2d, 0x3d, 0x1d, 0x8e, 0xd2, 0xbd, 0xea, 0xf7, 0xa8, 0xbc,
  0xac, 0x55, 0x44, 0xbe, 0xfe, 0xcf, 0x3f, 0xbe, 0x93, 0x36, 0x43, 0xbe,
  0x6b, 0x6e, 0x09, 0x3e, 0x5e, 0x15, 0x0e, 0xbd, 0x75, 0x8e, 0x3b, 0x3c,
  0x60, 0x83, 0xa1, 0xbd, 0xe5, 0x38, 0x69, 0xbe, 0x54, 0x0b, 0x3d, 0xbe,
  0x3d, 0xa3, 0xd2, 0xbd, 0x46, 0x44, 0xcb, 0x3d, 0xaf, 0x42, 0xe2, 0xbd,
  0xb0, 0x1d, 0x1d, 0xbd, 0xcb, 0x04, 0x19, 0xbd, 0xf6, 0xc2, 0x3a, 0x3d,
  0x57, 0x25, 0x06, 0xbe, 0x15, 0xce, 0xd9, 0xbd, 0xe7, 0xce, 0x53, 0x3e,
  0xd0, 0x9e, 0x09, 0x3d, 0x2b, 0x0c, 0x00, 0x3e, 0xc2, 0x1a, 0x84, 0xbd,
  0x33, 0xa1, 0x25, 0xbd, 0x4e, 0x84, 0x49, 0xbd, 0x24, 0x8f, 0x74, 0x3d,
  0x0b, 0xc7, 0x89, 0xbe, 0xc1, 0x44, 0x2e, 0xbd, 0x40, 0x4b, 0xbc, 0xbd,
  0x03, 0xc7, 0x71, 0xbe, 0xaa, 0x34, 0x6b, 0xbd, 0xfa, 0x18, 0xa4, 0xbd,
  0x3a, 0x83, 0x77, 0xbe, 0xcc, 0x08, 0x60, 0x3b, 0xf8, 0x07, 0xe2, 0xbd,
  0x26, 0x79, 0x81, 0xbd, 0x12, 0x78, 0x0a, 0xbe, 0x33, 0x04, 0xb2, 0x3d,
  0x26, 0x50, 0x3f, 0xbe, 0xa9, 0x65, 0x09, 0x3e, 0xcc, 0xa1, 0xcc, 0xbd,
  0xd2, 0xc5, 0xad, 0x3d, 0x7e, 0x0e, 0xc6, 0xbd, 0x95, 0x0b, 0xf6, 0xbd,
  0xe5, 0x20, 0x8b, 0xbd, 0xf4, 0x71, 0x49, 0xbd, 0x9f, 0x44, 0x57, 0x3d,
  0xec, 0x48, 0x4a, 0x3e, 0x9d, 0x13, 0xb3, 0xbd, 0xdb, 0x7a, 0x1e, 0xbd,
  0xd6, 0x6d, 0x29, 0x3e, 0x2c, 0x3e, 0x95, 0x3d, 0xb2, 0x36, 0x78, 0x3d,
  0xc7, 0x5e, 0xf7, 0x3c, 0xc0, 0x7b, 0x33, 0xbd, 0x7b, 0xb3, 0x69, 0xbc,
  0x14, 0xa6, 0x51, 0xbe, 0x46, 0x58, 0x39, 0x3e, 0x1e, 0x30, 0x8b, 0xbe,
  0xf8, 0xba, 0x77, 0xbe, 0x68, 0x30, 0x96, 0xbd, 0x40, 0x2c, 0x9d, 0x3d,
  0x26, 0x15, 0xd5, 0xbb, 0xaa, 0x1d, 0x03, 0x3d, 0x58, 0x90, 0x96, 0xbe,
  0xba, 0xcc, 0x89, 0xbd, 0xfb, 0x32, 0xa7, 0x3d, 0xe4, 0x17, 0xa6, 0x3e,
  0x89, 0x9e, 0x92, 0x3d, 0x7f, 0xb8, 0xed, 0x3d, 0xa0, 0x0a, 0x8b, 0xbe,
  0xf8, 0xb5, 0x08, 0x3e, 0x1a, 0x04, 0x2f, 0x3b, 0x34, 0x47, 0xa5, 0x3d,
  0x41, 0x8c, 0x16, 0x3e, 0x54, 0xf9, 0x9e, 0xbd, 0xa0, 0xed, 0x16, 0xbe,
  0x65, 0x92, 0xd2, 0x3a, 0x81, 0x6e, 0x02, 0xbe, 0xd1, 0x1c, 0x06, 0x3c,
  0x25, 0x4f, 0x6e, 0xbe, 0x52, 0xf1, 0x31, 0xbe, 0xbc, 0xa2, 0x75, 0xbe,
  0xcc, 0xa6, 0x78, 0x3d, 0x0f, 0x39, 0x8b, 0xbd, 0x72, 0xb8, 0xe0, 0x3b,
  0xde, 0xa6, 0xf9, 0x3c, 0x18, 0x4a, 0x4f, 0x3b, 0x9d, 0x96, 0x06, 0xbe,
  0x9e, 0xaa, 0x15, 0x3b, 0x32, 0x79, 0xa9, 0xbd, 0xeb, 0xc6, 0x4c, 0xbe,
  0x20, 0xdd, 0x6b, 0xbe, 0x0a, 0x9f, 0x24, 0x3e, 0xf8, 0x88, 0xb8, 0xbd,
  0x66, 0x4d, 0xee, 0xbd, 0xf5, 0x36, 0xa9, 0xbe, 0x44, 0xfd, 0xa6, 0xbd,
  0x85, 0x33, 0x64, 0xbe, 0x22, 0xd3, 0x0a, 0x3e, 0x12, 0xd9, 0x85, 0xbe,
  0x3a, 0x69, 0xa2, 0xbc, 0xf5, 0xab, 0x92, 0x3d, 0x1d, 0xc0, 0x94, 0xbd,
  0x27, 0xdd, 0x97, 0x3d, 0x5e, 0xf9, 0x14, 0x3e, 0x90, 0x92, 0xa6, 0x39,
  0x9c, 0x2a, 0x4e, 0xbe, 0x1f, 0x39, 0x8e, 0x3c, 0x21, 0x55, 0xd9, 0xbc,
  0x6f, 0x24, 0xf5, 0xbd, 0x11, 0x1b, 0x9c, 0x3d, 0xe4, 0xac, 0xb8, 0xbd,
  0x81, 0x4c, 0xaf, 0xbe, 0x9b, 0xf1, 0xfd, 0xbd, 0xb5, 0xfc, 0x85, 0x3e,
  0x91, 0x8b, 0x75, 0xbd, 0xab, 0x2f, 0x9e, 0x3e, 0xed, 0x16, 0x6d, 0x3d,
  0xe2, 0x91, 0x09, 0xbe, 0x61, 0x01, 0xc2, 0xbe, 0x44, 0xf1, 0x43, 0xbe,
  0x76, 0xba, 0x0d, 0xbe, 0x44, 0x0a, 0x87, 0xbd, 0x08, 0xdb, 0xea, 0xbd,
  0xe2, 0xc2, 0x18, 0xbd, 0xd6, 0x01, 0x2d, 0xbe, 0xe3, 0xc7, 0x09, 0x3e,
  0x9f, 0x6a, 0x5e, 0xbc, 0xa4, 0xe5, 0xda, 0x3b, 0x78, 0x3f, 0x1a, 0x3d,
  0x83, 0x39, 0x6e, 0x3e, 0x27, 0x7d, 0xbf, 0xbe, 0x07, 0xe1, 0xe4, 0x3e,
  0x2b, 0xa2, 0xb2, 0xbe, 0x99, 0x80, 0x3c, 0x3d, 0x5d, 0x0e, 0x6b, 0x3e,
  0xa6, 0xef, 0xa6, 0x3e, 0x75, 0x87, 0x82, 0x3e, 0x8c, 0x77, 0x82, 0xbd,
  0x24, 0xbf, 0x0c, 0x3d, 0x4e, 0x69, 0xa6, 0xbc, 0x41, 0x81, 0x01, 0x3d,
  0x99, 0xf8, 0x1f, 0x3e, 0x10, 0xe0, 0xd7, 0x3c, 0x78, 0x92, 0x0f, 0x3e,
  0x4b, 0xe3, 0x5d, 0xbd, 0x04, 0x14, 0xa3, 0x3c, 0xb9, 0x43, 0x39, 0x3d,
  0x17, 0xdd, 0xb2, 0xbd, 0x82, 0xac, 0x4f, 0xbe, 0x03, 0xb9, 0xe1, 0xbd,
  0x03, 0x75, 0x17, 0xbe, 0x74, 0xab, 0x68, 0x3e, 0x4e, 0xf2, 0xa1, 0xbd,
  0xea, 0xbf, 0x57, 0xbe, 0x04, 0x9d, 0x18, 0x3d, 0x91, 0x99, 0xcb, 0x3d,
  0x87, 0x18, 0x90, 0xbc, 0x5b, 0x2b, 0x2b, 0xbd, 0x8c, 0xe8, 0x86, 0xbe,
  0xc3, 0x13, 0xfe, 0x3d, 0x0f, 0x8d, 0xa1, 0xbd, 0x10, 0x77, 0x42, 0x3d,
  0x07, 0x52, 0xf5, 0x3c, 0xbc, 0xa7, 0x5d, 0xbe, 0xd7, 0xc3, 0xfe, 0xbb,
  0x4c, 0x2a, 0xa0, 0xbe, 0x61, 0x47, 0x13, 0xbf, 0xee, 0x0e, 0xa9, 0xbe,
  0x1f, 0xcb, 0x80, 0xbe, 0xbd, 0x49, 0x00, 0xbe, 0x99, 0x19, 0xf5, 0x3c,
  0x9c, 0x99, 0x29, 0x3e, 0x26, 0xc7, 0xfb, 0xbd, 0x0c, 0x09, 0x00, 0xbe,
  0xdc, 0x51, 0x9b, 0xbc, 0x19, 0x9c, 0x9b, 0xbe, 0xef, 0x92, 0xd7, 0xbd,
  0x9d, 0x45, 0x56, 0xbe, 0x0f, 0x24, 0x3a, 0xbe, 0x4c, 0xb2, 0x3e, 0xbe,
  0xfa, 0x3d, 0xd2, 0xbe, 0x96, 0xc3, 0x01, 0xbb, 0xbc, 0x40, 0xdd, 0xbe,
  0xee, 0xcc, 0xc0, 0xbe, 0x73, 0xfa, 0x8f, 0xbe, 0x78, 0xff, 0x19, 0xbe,
  0xf5, 0x90, 0x27, 0xbd, 0xe8, 0x98, 0x10, 0xbf, 0xdf, 0xb9, 0x1b, 0xbe,
  0x4c, 0xcd, 0x19, 0xbe, 0xa0, 0x96, 0xc1, 0xbd, 0x55, 0x07, 0xab, 0xbe,
  0xea, 0x59, 0x08, 0xbe, 0xd3, 0x93, 0xe1, 0xbd, 0x32, 0xb4, 0x63, 0xbe,
  0xc1, 0xcf, 0x12, 0x3e, 0xfd, 0x56, 0x8a, 0xbd, 0x92, 0x75, 0x09, 0x3e,
  0x6a, 0xaf, 0x28, 0xbe, 0x47, 0xbf, 0x06, 0xbe, 0xd9, 0x91, 0x73, 0xbe,
  0xac, 0x69, 0x2d, 0xbc, 0x48, 0x05, 0xc3, 0xbe, 0xc7, 0x30, 0xca, 0xbe,
  0xe3, 0x35, 0x00, 0xbe, 0xc2, 0xdc, 0xe4, 0x3e, 0xb8, 0x39, 0x95, 0xbe,
  0x04, 0x41, 0x80, 0xbe, 0xc3, 0xbd, 0x38, 0xbd, 0x12, 0xfb, 0x91, 0xbe,
  0xbd, 0x4c, 0xa5, 0xbe, 0x41, 0x41, 0xd1, 0x3e, 0xed, 0x41, 0x8f, 0xbe,
  0x2e, 0xdc, 0xb0, 0x3e, 0x23, 0xd2, 0x95, 0x3d, 0xc9, 0x5c, 0x6d, 0x3e,
  0x24, 0xad, 0x82, 0xbd, 0x87, 0x6b, 0x5c, 0xbe, 0x6d, 0x25, 0xaf, 0xbe,
  0x2a, 0x07, 0xf8, 0xbd, 0x38, 0x4b, 0x26, 0xbd, 0x24, 0xd9, 0xac, 0x3e,
  0xf5, 0xac, 0x08, 0x3e, 0x76, 0x92, 0x14, 0x3e, 0x90, 0x62, 0x18, 0x3e,
  0xbf, 0x03, 0x0c, 0xbe, 0xd1, 0xd9, 0x0d, 0xbd, 0x45, 0xe2, 0x34, 0x3e,
  0x3a, 0x5b, 0x1a, 0xbe, 0x32, 0x01, 0x2e, 0x3e, 0xc8, 0x0e, 0xbf, 0x3c,
  0x42, 0x19, 0xd5, 0xbc, 0xab, 0x32, 0x3b, 0x3e, 0xa1, 0x00, 0x57, 0xbd,
  0x03, 0x07, 0x7c, 0xbe, 0xf1, 0xfe, 0x10, 0x3d, 0xf3, 0xad, 0xa8, 0x3d,
  0x77, 0x13, 0x15, 0x3e, 0x7d, 0x55, 0x99, 0xbc, 0x2f, 0xcd, 0x1a, 0x3e,
  0x68, 0xda, 0x15, 0x3c, 0xd1, 0xe5, 0x5e, 0xbe, 0x74, 0xae, 0xa8, 0xbe,
  0x72, 0xad, 0xc0, 0xbe, 0x83, 0xcd, 0x95, 0xbd, 0x12, 0x4f, 0x53, 0xbd,
  0x7f, 0x5d, 0x74, 0xbe, 0xfa, 0x31, 0x98, 0xbe, 0xaa, 0x47, 0x1a, 0xbe,
  0x04, 0x15, 0x94, 0xbe, 0x6b, 0x0e, 0x5b, 0xbe, 0xf5, 0xd9, 0xf2, 0xbe,
  0x27, 0x91, 0xd9, 0x3c, 0x5f, 0x2d, 0x62, 0xbe, 0x67, 0xdc, 0x4c, 0xbd,
  0xd5, 0xd2, 0x5c, 0xbe, 0x5c, 0xf0, 0x22, 0x3d, 0xa6, 0xc2, 0x03, 0x3e,
  0xb5, 0x73, 0xfd, 0xbe, 0x18, 0xf1, 0xeb, 0x3e, 0xc4, 0x1c, 0x43, 0x3e,
  0x62, 0x11, 0x9c, 0x3e, 0xd1, 0xdc, 0x69, 0x3e, 0xb3, 0xc3, 0x88, 0xbe,
  0x2a, 0xfd, 0xcf, 0x3b, 0x99, 0x79, 0x4d, 0xbc, 0xc3, 0xf6, 0xc9, 0xbe,
  0xc6, 0xbf, 0xbd, 0xbe, 0x01, 0x10, 0xdb, 0x3d, 0x13, 0x4b, 0x6c, 0x3c,
  0x37, 0x83, 0x3a, 0x3e, 0x08, 0x6f, 0x9d, 0xbe, 0xa7, 0x09, 0x44, 0x3d,
  0x99, 0x72, 0xcf, 0x3d, 0xf1, 0x76, 0x77, 0xbe, 0x53, 0xfe, 0x0b, 0x3f,
  0x05, 0x73, 0x66, 0x3d, 0x38, 0x79, 0xb5, 0x3d, 0x2c, 0x14, 0xbb, 0x3e,
  0xd1, 0x81, 0xc4, 0x3c, 0x6a, 0x35, 0x33, 0x3d, 0x6f, 0x34, 0x1b, 0x3e,
  0xc5, 0xe7, 0x7f, 0x3c, 0x75, 0xc6, 0xad, 0xbe, 0x27, 0xb3, 0x91, 0x3d,
  0x4c, 0x6f, 0x07, 0xbc, 0x06, 0x13, 0xa1, 0x3d, 0x43, 0x52, 0x38, 0xbe,
  0x25, 0xde, 0x92, 0x3b, 0x38, 0x44, 0x31, 0x3e, 0x87, 0x34, 0x88, 0xbe,
  0xd5, 0xfd, 0x3b, 0x3e, 0x0c, 0xff, 0xcf, 0x3d, 0x98, 0x54, 0x82, 0xbd,
  0x9e, 0x47, 0xa5, 0x3e, 0x96, 0x89, 0x05, 0x3d, 0x11, 0x32, 0xd6, 0x3d,
  0x50, 0x2a, 0x6a, 0x3d, 0xbb, 0x14, 0xa6, 0x3e, 0x7c, 0x2e, 0x15, 0x3e,
  0x8d, 0x53, 0x07, 0x3d, 0x1a, 0x93, 0x07, 0x3e, 0x08, 0x07, 0x52, 0x3d,
  0xb6, 0x58, 0x13, 0xbe, 0xc5, 0xcf, 0x20, 0x3d, 0x0c, 0xc2, 0x0f, 0x3d,
  0x60, 0x9f, 0xe3, 0xbe, 0x52, 0x55, 0x5d, 0x3e, 0x93, 0xe6, 0x1a, 0x3c,
  0x33, 0x9e, 0xc9, 0xbe, 0xe1, 0x0d, 0x9d, 0x3e, 0x41, 0xfe, 0xa0, 0x3d,
  0x3b, 0xb9, 0xf9, 0x3b, 0x3e, 0xb7, 0x64, 0xbc, 0xc8, 0x51, 0x97, 0xbe,
  0x65, 0x8e, 0x82, 0xbe, 0xb2, 0xc7, 0x67, 0x3d, 0x68, 0xc9, 0x93, 0xbd,
  0x02, 0x34, 0x17, 0x3d, 0xff, 0x4d, 0xc0, 0xbe, 0xf8, 0xe1, 0x05, 0xbd,
  0x43, 0x86, 0x0e, 0x3e, 0x42, 0xaa, 0x5e, 0xbe, 0x53, 0x2e, 0x7a, 0x3c,
  0xd3, 0xdc, 0x5e, 0xbd, 0xda, 0x9c, 0x28, 0xbe, 0x3d, 0xfd, 0x78, 0x3e,
  0x47, 0x47, 0xbf, 0xbe, 0x12, 0xe3, 0xd4, 0xbc, 0x3a, 0x3f, 0xa7, 0xbe,
  0xae, 0x9c, 0x21, 0x3d, 0xe1, 0x97, 0x10, 0xbe, 0x90, 0x3e, 0x10, 0x3d,
  0x0a, 0x71, 0x5a, 0xbe, 0x36, 0xd6, 0xf1, 0x3d, 0x56, 0xb1, 0x50, 0xbf,
  0x89, 0x10, 0xb9, 0x3b, 0xbc, 0x33, 0x4a, 0x3e, 0xd4, 0x1d, 0xd4, 0x3d,
  0xe3, 0xeb, 0x19, 0xbe, 0x43, 0x2b, 0x89, 0xbd, 0x67, 0x5b, 0x2d, 0xbe,
  0x63, 0xab, 0xb9, 0xbd, 0xda, 0xfa, 0x05, 0x3d, 0xc9, 0x74, 0x65, 0xbd,
  0x72, 0x9b, 0x62, 0xbd, 0x9c, 0x6a, 0xe8, 0xbe, 0x1e, 0x6d, 0xa8, 0xbc,
  0x0a, 0xa2, 0x9a, 0xbd, 0x2a, 0x02, 0x24, 0xbc, 0xed, 0xa4, 0x2e, 0xbd,
  0x55, 0x31, 0x82, 0xbe, 0x5e, 0x71, 0x26, 0xbe, 0xbf, 0xf3, 0x52, 0x3d,
  0xbe, 0x88, 0x25, 0x3e, 0x0f, 0xad, 0x39, 0xbe, 0xb9, 0x42, 0x6b, 0xbe,
  0x12, 0xc8, 0x0a, 0xbe, 0xf2, 0x60, 0x29, 0xbe, 0xb8, 0xd7, 0x72, 0xbe,
  0x69, 0x3f, 0xd4, 0xbe, 0xe6, 0x73, 0xfd, 0x3d, 0xba, 0xfe, 0x2a, 0x3d,
  0x16, 0xcd, 0x14, 0x3e, 0xa8, 0xca, 0x15, 0xbe, 0xa0, 0xcb, 0x56, 0xbe,
  0x4a, 0xc3, 0x5f, 0xbe, 0xab, 0x14, 0x84, 0xbe, 0xb0, 0x7f, 0x2b, 0xbe,
  0xa7, 0x27, 0x8c, 0x3d, 0x8a, 0x13, 0x28, 0x3f, 0xe0, 0x78, 0x02, 0xbc,
  0xbb, 0xda, 0x4c, 0x3e, 0x8d, 0xbe, 0x0f, 0x3e, 0xd5, 0x5e, 0xed, 0x3c,
  0x68, 0xcc, 0x2a, 0xbe, 0x10, 0xb5, 0x9d, 0xbd, 0x1e, 0x3c, 0xd1, 0xbc,
  0x22, 0x50, 0xc8, 0x3e, 0xfc, 0x96, 0x93, 0x3d, 0x1d, 0x47, 0x42, 0xbe,
  0x93, 0x87, 0x10, 0x3e, 0x09, 0x80, 0x23, 0xbe, 0xe3, 0xe7, 0x9b, 0x3e,
  0x76, 0xdb, 0x0d, 0xbe, 0xae, 0xe6, 0x4e, 0x3d, 0x57, 0x70, 0xad, 0x3e,
  0x37, 0x4a, 0x31, 0x3e, 0x06, 0x20, 0xe2, 0xbc, 0xc2, 0x84, 0xfb, 0xbc,
  0x2b, 0xf1, 0xb7, 0x3c, 0x4b, 0x11, 0x38, 0x3d, 0xf4, 0xbf, 0x6b, 0xbe,
  0xf0, 0x65, 0x17, 0xbd, 0xb7, 0x85, 0x26, 0x3e, 0x84, 0x70, 0xc6, 0x3c,
  0xbe, 0xc3, 0x32, 0xbd, 0xc7, 0xd6, 0x26, 0x3e, 0x31, 0xf2, 0xa7, 0x3d,
  0x39, 0xe1, 0x29, 0x3e, 0xd2, 0x1f, 0xba, 0xbc, 0x2e, 0x88, 0xbe, 0xbe,
  0x34, 0x45, 0xde, 0x3e, 0xfb, 0x80, 0x01, 0xbe, 0x4d, 0x2c, 0xf2, 0x3c,
  0x34, 0x2f, 0x02, 0x3e, 0xd0, 0x86, 0x5b, 0xbe, 0x95, 0xa0, 0x47, 0x3e,
  0x76, 0xfa, 0x05, 0xbd, 0x13, 0x05, 0x4e, 0x3e, 0x24, 0x2b, 0x85, 0x3e,
  0x48, 0x83, 0xb2, 0x3e, 0x95, 0x84, 0x81, 0xbd, 0x76, 0x66, 0xa0, 0x3e,
  0x65, 0x1f, 0xa7, 0x3d, 0xa1, 0x67, 0x7f, 0x3d, 0xc2, 0xa6, 0x2a, 0xbe,
  0x66, 0x6a, 0x54, 0xbe, 0x7f, 0x3d, 0x94, 0x3d, 0x55, 0x49, 0x9c, 0x3d,
  0x89, 0x9c, 0xbe, 0xbd, 0xbf, 0x45, 0xaf, 0xbe, 0x6c, 0x4b, 0x39, 0xbc,
  0x28, 0xd9, 0x48, 0x3c, 0xa1, 0x37, 0xfa, 0xbe, 0x19, 0xaf, 0x80, 0xbe,
  0xcf, 0x16, 0xf8, 0x3e, 0xd6, 0xd3, 0x78, 0x3e, 0x25, 0xa2, 0x08, 0xbe,
  0x03, 0x7d, 0xde, 0xbd, 0x13, 0x4d, 0xc0, 0xbd, 0xf0, 0xb0, 0x2b, 0x3e,
  0xff, 0x63, 0x4e, 0x3d, 0xd5, 0x15, 0x4b, 0xbe, 0x8a, 0xab, 0xc6, 0x3d,
  0xc2, 0xee, 0x03, 0xbe, 0x3f, 0x78, 0x94, 0x3e, 0x6a, 0x2f, 0x8a, 0xbe,
  0xc3, 0x47, 0x44, 0xbe, 0x0c, 0x26, 0x65, 0xbd, 0xe0, 0x72, 0x93, 0xbe,
  0x27, 0x8c, 0xb3, 0x3c, 0x3d, 0xa9, 0xd2, 0x3e, 0x91, 0x43, 0xbd, 0x3d,
  0xa3, 0x3b, 0x0a, 0xbe, 0x13, 0xfe, 0xba, 0xbe, 0x68, 0x82, 0xc5, 0xbe,
  0x39, 0x60, 0xbb, 0x3e, 0x65, 0x15, 0x3a, 0xbd, 0x67, 0x3e, 0x95, 0xbd,
  0x31, 0xba, 0x1e, 0xbd, 0xbb, 0x68, 0xb1, 0xbc, 0xd8, 0xa8, 0xc7, 0x3d,
  0x0c, 0x72, 0x29, 0x3d, 0x99, 0xfa, 0x40, 0xbe, 0x08, 0x77, 0xd6, 0xbd,
  0xef, 0xc0, 0x76, 0xbe, 0xd6, 0x72, 0x12, 0x3e, 0x77, 0x0c, 0xda, 0x3e,
  0x24, 0x58, 0x1e, 0x3e, 0x56, 0xcc, 0x8e, 0x3c, 0x04, 0x91, 0x8e, 0xbe,
  0x4b, 0x82, 0x8d, 0x3d, 0xef, 0xe6, 0x01, 0x3d, 0x7b, 0x90, 0xef, 0xbd,
  0x2a, 0x43, 0x34, 0x3d, 0x27, 0x87, 0x02, 0x3f, 0x6e, 0xde, 0xb6, 0x3d,
  0x76, 0xe7, 0xa4, 0x3d, 0xf6, 0xee, 0x92, 0xbe, 0xa1, 0xb6, 0x96, 0xbe,
  0x17, 0x42, 0x3c, 0xbe, 0x1f, 0xe3, 0x93, 0xbe, 0x2b, 0xa1, 0x97, 0x3e,
  0x2e, 0x2e, 0x01, 0x3f, 0x6d, 0xf6, 0x60, 0x3e, 0xee, 0x03, 0x17, 0x3d,
  0x46, 0x7e, 0xb6, 0xbd, 0xd4, 0xe1, 0x01, 0x3e, 0xff, 0xed, 0xd2, 0x3c,
  0x86, 0x56, 0x07, 0xbd, 0x82, 0xce, 0xa4, 0xbe, 0x70, 0x5e, 0xcb, 0x3e,
  0x8d, 0x5a, 0x50, 0xbe, 0x2e, 0xe1, 0x5a, 0xbe, 0xe5, 0x96, 0x45, 0xbd,
  0x55, 0xb3, 0x81, 0xbd, 0xe1, 0x6b, 0x25, 0xbd, 0xeb, 0x10, 0x12, 0xbe,
  0x33, 0xda, 0x0d, 0x3d, 0x81, 0x9f, 0x31, 0x3d, 0x42, 0xeb, 0x9b, 0x3e,
  0x70, 0xf3, 0x39, 0xbc, 0x49, 0x80, 0x08, 0xbe, 0x6d, 0xce, 0x7c, 0xbd,
  0x68, 0xa7, 0x79, 0x3e, 0x14, 0xcd, 0x0d, 0x3d, 0x2e, 0xcf, 0xeb, 0xbe,
  0x04, 0xc3, 0x00, 0x3f, 0xf8, 0x1f, 0xed, 0xbd, 0x50, 0x49, 0x5b, 0x3d,
  0x40, 0xba, 0xcd, 0xbe, 0x54, 0x3d, 0x0d, 0xbe, 0x3d, 0x6a, 0x61, 0x3e,
  0x46, 0x6c, 0x54, 0x3e, 0x87, 0x15, 0xd2, 0x3d, 0x05, 0xbd, 0x8e, 0x3e,
  0xbf, 0xff, 0x06, 0x3e, 0x45, 0xc6, 0x3f, 0xbd, 0x60, 0x93, 0x42, 0x3e,
  0x97, 0x42, 0x66, 0xbe, 0x30, 0x96, 0xc8, 0x3e, 0x0f, 0x65, 0x02, 0xbc,
  0x53, 0x5e, 0xa0, 0xbe, 0x44, 0x8c, 0xb3, 0x3e, 0x8b, 0xb2, 0xf4, 0x3d,
  0x9e, 0xe2, 0xf3, 0x3c, 0xbc, 0x84, 0x44, 0xbe, 0x90, 0x00, 0x02, 0xbe,
  0x39, 0x36, 0xcf, 0xbc, 0x9c, 0x85, 0xed, 0x3c, 0x40, 0xc4, 0xdd, 0x3d,
  0xa8, 0x14, 0xe0, 0xbd, 0xff, 0x61, 0x69, 0x3e, 0xd6, 0x13, 0xbe, 0xbc,
  0x4c, 0x00, 0x23, 0x3e, 0xbf, 0x38, 0x85, 0x3c, 0xaa, 0xac, 0xb2, 0x3e,
  0x72, 0x55, 0x1a, 0xbd, 0x34, 0x46, 0xcc, 0xbb, 0x3e, 0x98, 0x07, 0x3f,
  0xff, 0x18, 0x73, 0xbe, 0x38, 0xc1, 0xab, 0xbd, 0xfb, 0x97, 0x7c, 0xbd,
  0x04, 0xb5, 0xe0, 0xbd, 0x2c, 0x8d, 0x9c, 0x3d, 0x06, 0xd7, 0x78, 0xbe,
  0x29, 0x21, 0xe0, 0x3e, 0xfc, 0xf5, 0x88, 0x3e, 0xd0, 0xf4, 0xe2, 0x3d,
  0x16, 0xbf, 0x56, 0x3c, 0xdd, 0xea, 0xb9, 0xbe, 0xde, 0xb3, 0xe6, 0xbc,
  0xe8, 0x1b, 0x0e, 0x3f, 0x29, 0x33, 0x11, 0xbd, 0x78, 0x13, 0xc9, 0xbc,
  0x34, 0x22, 0xb9, 0x3e, 0x9f, 0xf1, 0x96, 0xbe, 0x80, 0x27, 0xbe, 0xbe,
  0x7a, 0x76, 0xdb, 0xbe, 0xdf, 0x8d, 0xa6, 0xbe, 0xc9, 0xab, 0x05, 0xbe,
  0xf2, 0xc4, 0x18, 0xbe, 0x10, 0x2d, 0x8c, 0xbe, 0x8c, 0xf1, 0x8f, 0x3d,
  0xcc, 0x35, 0x09, 0x3d, 0x27, 0xa3, 0x95, 0xbd, 0x93, 0x44, 0xaf, 0xbd,
  0x6e, 0x9b, 0x57, 0xbe, 0x20, 0x8b, 0x91, 0x3e, 0x11, 0xef, 0xba, 0x3c,
  0x4c, 0xd3, 0x88, 0xbd, 0x94, 0x1f, 0xbb, 0xbd, 0xb0, 0x40, 0xfe, 0xbd,
  0x8b, 0x77, 0x38, 0x3e, 0xbb, 0x07, 0xb8, 0xbc, 0xeb, 0x74, 0xb2, 0x3b,
  0x7b, 0x47, 0x50, 0xbe, 0x0b, 0xfa, 0x83, 0xbd, 0x9f, 0x46, 0x3c, 0x3e,
  0x8c, 0xf6, 0x9c, 0x3e, 0xce, 0x5e, 0xe7, 0xbc, 0xb9, 0xfb, 0x2a, 0x3d,
  0xb5, 0x0e, 0x31, 0xbd, 0x1a, 0x57, 0x7f, 0xbc, 0x66, 0x98, 0x2a, 0x3e,
  0xfa, 0x2c, 0x55, 0xbd, 0x9f, 0x36, 0x59, 0xbe, 0x55, 0xa9, 0x29, 0x3f,
  0xe0, 0x65, 0xfe, 0x3d, 0x1d, 0xe1, 0x2a, 0xbe, 0x00, 0xd3, 0x22, 0xbd,
  0x20, 0x73, 0x8b, 0xbd, 0xc1, 0x58, 0x72, 0xbd, 0x97, 0x4c, 0xff, 0xbe,
  0x21, 0xfd, 0xcf, 0xbd, 0xdf, 0x17, 0x2a, 0x3d, 0xd6, 0x62, 0x2d, 0xbd,
  0x28, 0xf2, 0x97, 0xbd, 0x0b, 0xb1, 0x3a, 0xbe, 0xd3, 0x5e, 0x2f, 0xbe,
  0x5b, 0x34, 0x8b, 0xbd, 0x32, 0x0a, 0xb9, 0xbc, 0x35, 0x95, 0x23, 0xbd,
  0x01, 0x14, 0x02, 0x3f, 0x28, 0x7d, 0xdf, 0xbc, 0x53, 0x8a, 0xa2, 0xbc,
  0xf5, 0xfe, 0x5e, 0xbc, 0xa6, 0x50, 0x79, 0xbe, 0xb1, 0xe1, 0x64, 0xbe,
  0xd2, 0xf7, 0xa5, 0xbe, 0xaa, 0xcb, 0x63, 0xbd, 0xd0, 0xa8, 0x40, 0x3d,
  0xef, 0x55, 0xf4, 0x3c, 0x87, 0xb8, 0xf2, 0xbd, 0x37, 0xe5, 0xbd, 0xba,
  0x66, 0x30, 0x95, 0xbe, 0xde, 0x48, 0x9d, 0xbb, 0xff, 0x3e, 0x16, 0xbe,
  0x31, 0x60, 0xa3, 0x3d, 0xcf, 0x07, 0x1c, 0x3f, 0x24, 0xb6, 0x0f, 0x3e,
  0xcd, 0x09, 0x8c, 0xbe, 0x95, 0x5a, 0xb1, 0x3d, 0x89, 0x9b, 0x3d, 0xbe,
  0x13, 0x9e, 0xd8, 0x3c, 0x63, 0x76, 0x7b, 0xbe, 0xcf, 0x50, 0x06, 0xbe,
  0x9c, 0x84, 0x54, 0x3e, 0x48, 0xe7, 0x05, 0x3d, 0xc0, 0x9c, 0xd4, 0xbd,
  0xfb, 0x04, 0xb5, 0xbd, 0x8d, 0xab, 0x1d, 0xbe, 0xc4, 0x3d, 0x3d, 0xbd,
  0xa7, 0xbe, 0x2d, 0xbe, 0x7b, 0xfb, 0x51, 0xbd, 0x1f, 0xdb, 0x03, 0x3f,
  0x3a, 0x28, 0x48, 0xbe, 0xab, 0x4a, 0xd2, 0x3d, 0xe2, 0x4f, 0xcb, 0xbd,
  0x03, 0xf4, 0x2e, 0xbe, 0x6b, 0x4c, 0xff, 0x3b, 0xe3, 0xd5, 0x7d, 0xbe,
  0x55, 0x84, 0x93, 0xbe, 0xff, 0x4f, 0xe1, 0x3d, 0xbf, 0x5d, 0x2b, 0x3d,
  0xcb, 0x4c, 0x0f, 0xbd, 0x48, 0x3b, 0x04, 0xbe, 0xb3, 0x3c, 0xe0, 0xbc,
  0xe1, 0xe9, 0xf6, 0x3d, 0x03, 0xba, 0x12, 0xbd, 0xe7, 0xd4, 0xde, 0xbc,
  0xa3, 0xab, 0x46, 0x3e, 0xab, 0x41, 0x70, 0xbe, 0xb7, 0xf9, 0x72, 0x3d,
  0xa3, 0xad, 0xeb, 0xbe, 0x54, 0x85, 0xa1, 0xbe, 0x80, 0xd0, 0xf3, 0x3d,
  0xcb, 0x97, 0xb4, 0xbe, 0xb0, 0x9a, 0xee, 0x3d, 0xde, 0x61, 0x33, 0x3e,
  0x62, 0xd7, 0xd1, 0x3d, 0xec, 0xc5, 0x00, 0xbe, 0x66, 0xbc, 0x99, 0xbe,
  0x60, 0xb5, 0x0f, 0xbe, 0x54, 0x82, 0x74, 0x3e, 0x76, 0x79, 0x8a, 0xbd,
  0xba, 0xdd, 0x86, 0x3a, 0x64, 0x95, 0xf6, 0x3e, 0x60, 0x03, 0x83, 0xbe,
  0xe2, 0x4c, 0x52, 0x3e, 0xa2, 0x4c, 0x1d, 0xbe, 0x87, 0xa0, 0x09, 0xbe,
  0x50, 0xf1, 0xf4, 0xbd, 0x95, 0x3b, 0x21, 0xbe, 0x96, 0x90, 0x99, 0x3e,
  0x44, 0xaa, 0xcf, 0x3d, 0x03, 0x38, 0x1e, 0x3e, 0x9d, 0x28, 0x4c, 0xbd,
  0x42, 0xd8, 0x15, 0xbe, 0xd7, 0xcc, 0xb5, 0xbd, 0x8a, 0xcd, 0x62, 0x3e,
  0x21, 0x17, 0xf2, 0xbc, 0x3a, 0x8a, 0xff, 0xbd, 0x21, 0x7d, 0x15, 0x3d,
  0xc7, 0x45, 0x98, 0xbe, 0x6b, 0x9a, 0xc0, 0xbd, 0x70, 0x76, 0x2b, 0xbe,
  0xf7, 0x27, 0x25, 0x39, 0x97, 0xf4, 0xed, 0xbc, 0x11, 0xd5, 0x02, 0x3e,
  0x31, 0x00, 0x69, 0xbd, 0x38, 0x4d, 0x0a, 0x3f, 0xd3, 0xce, 0x20, 0x3d,
  0x73, 0x5a, 0x07, 0xbe, 0xef, 0xbb, 0x29, 0xbe, 0xbc, 0x2f, 0x13, 0xbd,
  0x5d, 0x33, 0x37, 0xbd, 0x89, 0xbe, 0x06, 0xbe, 0x2b, 0x1f, 0x80, 0x3b,
  0xef, 0x07, 0x9d, 0x3e, 0xcb, 0xdd, 0xd1, 0xbc, 0xe9, 0x6a, 0xbf, 0xbc,
  0x66, 0xd1, 0xd2, 0x3d, 0x20, 0xf3, 0x0b, 0xbd, 0xd6, 0xc5, 0x22, 0xbe,
  0xc1, 0x8a, 0x2a, 0xbe, 0x7f, 0x93, 0x7c, 0xbd, 0x5c, 0x7e, 0xd1, 0x3e,
  0xe5, 0x68, 0x75, 0xb8, 0xb6, 0x3c, 0x38, 0xbe, 0x4c, 0x48, 0x49, 0xbe,
  0x5e, 0xea, 0x4e, 0x3c, 0xc1, 0xd5, 0xf0, 0xbd, 0xfa, 0x1f, 0x5d, 0xbe,
  0x77, 0x02, 0x0f, 0xbe, 0x28, 0xf7, 0x12, 0x3e, 0x61, 0x94, 0x3b, 0xbe,
  0x8f, 0x57, 0x06, 0x3d, 0xa1, 0x12, 0x92, 0x3d, 0xcc, 0x11, 0x6f, 0xbd,
  0xc9, 0xc7, 0xd9, 0xbc, 0x2c, 0xe5, 0x4e, 0xbe, 0x9a, 0xb8, 0xb6, 0xbd,
  0x25, 0xeb, 0x98, 0xbd, 0xcc, 0xb7, 0x44, 0xbe, 0x8b, 0x7c, 0xbb, 0xbe,
  0x4b, 0x41, 0x44, 0x3e, 0x20, 0xcb, 0x9b, 0xbd, 0x42, 0xbb, 0xc3, 0x3d,
  0x13, 0x34, 0x8d, 0xbe, 0xb3, 0x46, 0x99, 0x3d, 0xc4, 0xff, 0xaf, 0x3e,
  0x8e, 0x48, 0xaa, 0xbd, 0x6d, 0x04, 0x90, 0x3d, 0xc5, 0x4f, 0x8d, 0xbc,
  0x72, 0x04, 0x6a, 0xbe, 0xee, 0x70, 0x45, 0xbe, 0xfd, 0xd0, 0x25, 0xbd,
  0xfd, 0xc8, 0x60, 0x3e, 0x80, 0x85, 0x35, 0x3e, 0x52, 0xa1, 0x78, 0x3d,
  0x4e, 0x25, 0x6c, 0xbe, 0x0b, 0xb9, 0x19, 0xbe, 0xff, 0x7e, 0x91, 0xbe,
  0xba, 0xd7, 0x5a, 0x3e, 0xd7, 0x87, 0x86, 0xbe, 0xd2, 0xf6, 0xeb, 0xbd,
  0xda, 0xa1, 0xb8, 0x3f, 0xa5, 0x60, 0xd8, 0x3d, 0xc8, 0x95, 0xc2, 0xbd,
  0xbf, 0x5b, 0x90, 0xbd, 0xa2, 0x01, 0x2d, 0xbd, 0x6a, 0x82, 0xd3, 0xbd,
  0x04, 0xb6, 0x10, 0xbe, 0xc8, 0x8a, 0xca, 0x3d, 0x4a, 0xc6, 0xb0, 0x3d,
  0x24, 0xfb, 0x01, 0xbe, 0x1d, 0x5b, 0x9a, 0xbe, 0xe3, 0xda, 0xd8, 0xbd,
  0x06, 0xa0, 0x2b, 0x3d, 0x34, 0x5d, 0x0c, 0x3e, 0x86, 0x4e, 0xd6, 0xbe,
  0x05, 0xc0, 0x22, 0x3e, 0x8e, 0x12, 0x36, 0x3f, 0xc2, 0x4a, 0xbd, 0x3d,
  0x83, 0x07, 0x8d, 0x3d, 0xae, 0x60, 0x4b, 0xbc, 0x5f, 0x69, 0x81, 0xbd,
  0xb2, 0xa6, 0x5e, 0xbd, 0x87, 0x9e, 0x2e, 0xbe, 0x45, 0x02, 0x3a, 0xbd,
  0x96, 0x45, 0x90, 0x3f, 0x00, 0xfc, 0x3b, 0xbc, 0x9f, 0xda, 0xcf, 0xbd,
  0x89, 0xb6, 0xb1, 0xbd, 0xa3, 0x05, 0x49, 0xbe, 0x92, 0x6d, 0x4c, 0xbe,
  0x94, 0xa8, 0x91, 0xbe, 0x4f, 0x08, 0x09, 0x3e, 0xcf, 0x15, 0x17, 0x3f,
  0x37, 0xe3, 0x06, 0x3e, 0xab, 0x08, 0xa5, 0x3d, 0x5d, 0x48, 0x6e, 0xbd,
  0x0c, 0xa8, 0x54, 0x3d, 0x3c, 0x8d, 0x14, 0xbe, 0x7c, 0x2b, 0xe0, 0xbd,
  0xf9, 0x37, 0x1b, 0xbe, 0xf9, 0xf5, 0x96, 0x3e, 0x7c, 0x0a, 0x1f, 0x3e,
  0xfd, 0xa2, 0x8d, 0xbe, 0x75, 0x10, 0xa0, 0x3d, 0xb6, 0xda, 0xe6, 0xbc,
  0xf3, 0x2f, 0xdf, 0x3d, 0x44, 0x98, 0x9a, 0xbd, 0xdc, 0x01, 0x33, 0xbd,
  0xe0, 0x48, 0xbd, 0x3d, 0xe0, 0xa9, 0x9d, 0xbc, 0xda, 0xcd, 0x17, 0xbe,
  0x8d, 0x9f, 0xbb, 0x3b, 0x11, 0x30, 0x99, 0xbe, 0x9f, 0xcd, 0xc2, 0xbd,
  0x10, 0xc3, 0x67, 0xbe, 0x16, 0xe8, 0xa9, 0x3d, 0xce, 0xde, 0xac, 0x3e,
  0x88, 0xff, 0x9c, 0xbe, 0xc3, 0xa1, 0xa0, 0xbe, 0x94, 0x33, 0xfe, 0x3d,
  0xa6, 0x09, 0x48, 0xbe, 0x22, 0x5d, 0x57, 0xbe, 0x28, 0xb8, 0x1d, 0x3c,
  0xda, 0x49, 0xa2, 0x3e, 0xe5, 0xb1, 0x75, 0xbe, 0xb1, 0x4c, 0xb0, 0x3e,
  0x32, 0xb2, 0x7c, 0xbd, 0xcc, 0xbc, 0x38, 0x3d, 0xf1, 0x26, 0x14, 0x3e,
  0xd1, 0xb9, 0x39, 0x3e, 0x44, 0x37, 0xe8, 0x3d, 0xe5, 0x56, 0x0b, 0x3d,
  0xc2, 0xcf, 0x96, 0xbc, 0x8f, 0xbb, 0x8a, 0x3e, 0xec, 0x34, 0x52, 0x3d,
  0x91, 0x40, 0x1e, 0x3e, 0xc5, 0x0e, 0x04, 0x3e, 0x12, 0x5f, 0x2e, 0x3e,
  0x01, 0x25, 0x9d, 0xbd, 0x2f, 0x3c, 0xa9, 0xbc, 0xc5, 0x7f, 0x30, 0xbd,
  0x99, 0x3c, 0xb9, 0xbe, 0x8a, 0xb3, 0xe1, 0xbc, 0x4c, 0xa1, 0x90, 0xbe,
  0xe1, 0x56, 0x9f, 0xbe, 0x69, 0xa4, 0x6e, 0x3e, 0x30, 0x04, 0x3a, 0xbe,
  0xae, 0x21, 0x09, 0xbe, 0x00, 0x61, 0x16, 0x3d, 0xff, 0x9c, 0x2c, 0xbd,
  0x29, 0x74, 0x2c, 0xbd, 0x04, 0xf5, 0xa4, 0xbd, 0x2e, 0x96, 0x31, 0xbe,
  0xad, 0xf1, 0x73, 0xbe, 0x84, 0x6a, 0x95, 0xbd, 0xd1, 0xda, 0x86, 0x3d,
  0x8b, 0x40, 0x58, 0xbc, 0x05, 0x77, 0xe1, 0xbe, 0x5c, 0x92, 0x40, 0x3e,
  0xcb, 0x68, 0x4a, 0xbd, 0xab, 0x14, 0xfe, 0xbe, 0x0b, 0x6c, 0x8e, 0x3d,
  0x8b, 0x20, 0x33, 0xbe, 0x47, 0x06, 0x68, 0xbe, 0x83, 0x20, 0x50, 0x3e,
  0x44, 0xc9, 0xc3, 0x3d, 0x01, 0xf5, 0x98, 0xbd, 0x25, 0x3e, 0x2e, 0xbe,
  0x17, 0x80, 0x0d, 0xbe, 0x21, 0x51, 0x1d, 0xbf, 0x88, 0xe6, 0xba, 0xbd,
  0x35, 0x49, 0xd5, 0xbd, 0x0e, 0xd9, 0xd5, 0xbe, 0x79, 0x2c, 0xaf, 0xbe,
  0x33, 0x4f, 0x9b, 0xbe, 0x03, 0x85, 0xc6, 0x3d, 0x2f, 0x32, 0x0a, 0xbf,
  0xcb, 0xa9, 0x0c, 0xbe, 0xfe, 0xdd, 0x58, 0xbd, 0x18, 0x8a, 0xa0, 0xbe,
  0xec, 0x27, 0xdc, 0xbe, 0xf8, 0x59, 0x06, 0xbf, 0x62, 0x74, 0x94, 0xbd,
  0x97, 0x79, 0xd9, 0xbd, 0x02, 0xe8, 0xd1, 0xbd, 0xe8, 0x03, 0x36, 0xbf,
  0xd1, 0x7b, 0x16, 0xbd, 0xa1, 0xfb, 0x4c, 0xbe, 0x86, 0x03, 0x08, 0xbe,
  0x96, 0xe4, 0x32, 0xbe, 0x0f, 0x88, 0x19, 0xbe, 0xaf, 0xea, 0xc2, 0x3e,
  0x12, 0x96, 0xd0, 0xbe, 0x9b, 0xd3, 0xb6, 0x3d, 0xe1, 0x91, 0xf1, 0xbd,
  0xdf, 0x71, 0x7b, 0xbe, 0x4d, 0x6e, 0x07, 0x3d, 0x6d, 0xec, 0x80, 0xbe,
  0xbf, 0xa3, 0xa1, 0xbd, 0x3d, 0x57, 0xa0, 0x3e, 0xc1, 0xcc, 0x37, 0xbd,
  0xb7, 0x6a, 0xc0, 0x3c, 0xdc, 0x4f, 0x47, 0x3d, 0x9c, 0x33, 0xa3, 0xbe,
  0x4b, 0x7f, 0x34, 0xbc, 0x79, 0xe9, 0xec, 0x3e, 0xe8, 0xf4, 0xd9, 0xbd,
  0x3c, 0x29, 0x82, 0x3e, 0xfb, 0x2f, 0x42, 0xbd, 0xf0, 0xfd, 0x88, 0x3e,
  0x78, 0xd6, 0x5f, 0x3c, 0xe6, 0xf8, 0x05, 0xbe, 0x5f, 0x5e, 0x2d, 0xbe,
  0x83, 0x42, 0x1a, 0x3c, 0x01, 0x6c, 0x91, 0xbc, 0x25, 0x4a, 0x8a, 0x3e,
  0xb4, 0x6c, 0x38, 0x3d, 0x8e, 0x5d, 0xf0, 0x3d, 0xcb, 0x6e, 0x97, 0x3d,
  0x35, 0x5b, 0xff, 0xbd, 0xe0, 0xcb, 0x6d, 0xbd, 0x93, 0x4a, 0x73, 0x3e,
  0x10, 0x18, 0x91, 0x3d, 0x8f, 0xf3, 0x3f, 0x3e, 0x35, 0xd7, 0x25, 0x3d,
  0xa6, 0x5a, 0x80, 0x3b, 0x4a, 0x99, 0xc9, 0xbb, 0x34, 0x44, 0xb2, 0xbb,
  0x85, 0x1e, 0xe1, 0x3d, 0x34, 0x0e, 0x22, 0x3e, 0xe1, 0x96, 0xe8, 0x3c,
  0xa7, 0x19, 0x8f, 0xbd, 0x67, 0xd6, 0x42, 0x3d, 0x37, 0x73, 0x3f, 0x3e,
  0x77, 0x70, 0x6e, 0xbe, 0x68, 0x56, 0x36, 0xbe, 0xa1, 0xa8, 0x1b, 0x3f,
  0x4c, 0x97, 0x80, 0xbd, 0x0a, 0xe5, 0x83, 0x3d, 0x7a, 0x25, 0x1f, 0xbe,
  0x02, 0xeb, 0xc3, 0xbd, 0xa5, 0x49, 0x3c, 0x3d, 0xbb, 0xf5, 0x18, 0xbe,
  0xb6, 0x4b, 0x93, 0xbd, 0x32, 0x15, 0x28, 0x3f, 0x1d, 0x78, 0x5d, 0xbe,
  0x29, 0x64, 0x1e, 0xbe, 0x1b, 0x5e, 0x0d, 0xbc, 0xba, 0xf1, 0x81, 0xbe,
  0x5f, 0x4d, 0x75, 0xbe, 0xcf, 0xfb, 0xa2, 0xbe, 0x24, 0xd1, 0xb7, 0xbd,
  0x40, 0xff, 0x3c, 0xbd, 0x51, 0x99, 0x32, 0x3e, 0xe7, 0x02, 0xeb, 0x3c,
  0x83, 0xc7, 0x1e, 0x3d, 0x78, 0xf3, 0xd9, 0xbd, 0x62, 0xdc, 0x8c, 0xbd,
  0x54, 0xfc, 0x96, 0xbd, 0xf5, 0x88, 0x94, 0x3d, 0x61, 0x1f, 0x24, 0xbe,
  0xbf, 0x44, 0xd2, 0xbd, 0xb8, 0x02, 0x76, 0xbe, 0xde, 0x65, 0xd1, 0x3c,
  0x42, 0x7b, 0x4b, 0xbd, 0x11, 0x50, 0x0c, 0xbe, 0xd3, 0x88, 0x6f, 0xbe,
  0xda, 0x72, 0x17, 0x3e, 0xc1, 0x48, 0xf3, 0x3e, 0x0d, 0xf2, 0x8c, 0xbd,
  0x82, 0x7b, 0x53, 0xbe, 0x21, 0xc8, 0x06, 0x3e, 0x96, 0xef, 0xcb, 0x3d,
  0x66, 0x40, 0x2f, 0xbe, 0xaf, 0xf9, 0x43, 0x3e, 0x4d, 0xf8, 0x6d, 0x3a,
  0x02, 0xd6, 0x0d, 0x3f, 0x43, 0x6c, 0x68, 0xbe, 0x58, 0x98, 0x57, 0xbe,
  0x47, 0x6b, 0x64, 0xbe, 0x11, 0x78, 0x3d, 0xbe, 0xcc, 0x0a, 0x01, 0xbe,
  0xe3, 0x36, 0x46, 0xbe, 0x2a, 0x03, 0x08, 0xbe, 0x38, 0x0d, 0x92, 0x3f,
  0x5f, 0x84, 0xb1, 0x3d, 0xa2, 0x41, 0x1d, 0xbe, 0x57, 0x8f, 0xd3, 0xbd,
  0xe3, 0x85, 0x43, 0x3e, 0xfb, 0x02, 0x5a, 0x3c, 0xc9, 0xd5, 0xc9, 0xbd,
  0x08, 0xa5, 0x13, 0x3e, 0x5f, 0x5d, 0x0f, 0x3e, 0x87, 0x9f, 0xaf, 0x3d,
  0xa4, 0xd5, 0xd5, 0xbd, 0x77, 0xff, 0x61, 0x3e, 0x5a, 0x6c, 0x8e, 0x3e,
  0x5e, 0xda, 0xea, 0xbd, 0xfc, 0x96, 0xb7, 0xbe, 0x6b, 0x6c, 0x1d, 0xbe,
  0x9d, 0x82, 0x23, 0x3f, 0x91, 0x71, 0x66, 0xbe, 0xaf, 0x84, 0xd4, 0x3d,
  0x6f, 0x74, 0x94, 0xbe, 0xcd, 0x8f, 0x22, 0xbd, 0x21, 0x36, 0xf3, 0xbb,
  0xdd, 0x6f, 0x53, 0xbe, 0xa9, 0x15, 0x11, 0xbd, 0x55, 0xd6, 0xa8, 0x3f,
  0x11, 0xf0, 0x2c, 0xbe, 0xaf, 0x88, 0xba, 0xbe, 0xf1, 0x36, 0x61, 0xbe,
  0xcf, 0xd6, 0x7a, 0xbc, 0xc0, 0x87, 0x2e, 0xbe, 0x01, 0x96, 0xb4, 0xbe,
  0x70, 0x10, 0xc7, 0xbc, 0x8b, 0x65, 0xed, 0x3e, 0x04, 0x71, 0xaf, 0x3c,
  0xb1, 0xde, 0x2c, 0x3e, 0x0f, 0xb4, 0xb0, 0xbd, 0x97, 0x16, 0x5f, 0xbe,
  0xe6, 0x63, 0xbb, 0x3d, 0x5f, 0x97, 0xd8, 0xbd, 0x34, 0xc9, 0xf0, 0xbd,
  0xa5, 0xe2, 0x96, 0x3e, 0xa9, 0x63, 0x79, 0x3e, 0x57, 0x04, 0x85, 0x3d,
  0xe6, 0xac, 0x45, 0xbe, 0xd2, 0x01, 0x9f, 0x3c, 0xd0, 0xa5, 0xff, 0xbc,
  0x4b, 0xdb, 0xfc, 0xbd, 0xfd, 0xf7, 0x21, 0x3b, 0xb4, 0x02, 0x36, 0xbe,
  0x2f, 0xe0, 0x04, 0x3c, 0xa3, 0x0c, 0x2e, 0xbd, 0x82, 0x0c, 0x1c, 0x3e,
  0xfe, 0x84, 0x81, 0xbe, 0x06, 0xf3, 0xd8, 0xbc, 0x04, 0x71, 0x0f, 0xbe,
  0x15, 0x3b, 0xf6, 0xbd, 0x8b, 0xae, 0xe9, 0x3d, 0x3c, 0xf8, 0x80, 0xbe,
  0x31, 0x85, 0x8f, 0xbe, 0x0c, 0x27, 0x97, 0xbd, 0xd4, 0xff, 0x36, 0xbe,
  0x73, 0xc9, 0x65, 0xbd, 0xfc, 0xe9, 0x2f, 0x3b, 0xaf, 0x7d, 0x23, 0x3d,
  0x8f, 0xc1, 0x09, 0x3f, 0x97, 0xf7, 0x56, 0x3d, 0x17, 0xd5, 0xe2, 0xbb,
  0xee, 0x66, 0x93, 0xbe, 0x76, 0xc3, 0xc1, 0xbd, 0x31, 0xed, 0x16, 0xbd,
  0x70, 0x14, 0x3f, 0xbe, 0x31, 0x8c, 0x98, 0x3e, 0x77, 0x7a, 0xc8, 0x3e,
  0x5a, 0x5b, 0xe8, 0x3e, 0x48, 0xa0, 0x10, 0x3d, 0x4f, 0x72, 0x25, 0xbe,
  0x85, 0xf2, 0xa8, 0xbd, 0x4f, 0x23, 0x4d, 0x3c, 0xce, 0x81, 0x9d, 0xbd,
  0xdb, 0xa9, 0x36, 0xbe, 0x6f, 0x7f, 0x3b, 0x3e, 0x53, 0x0f, 0x36, 0xbe,
  0xea, 0x1f, 0x8e, 0xbe, 0xc4, 0x92, 0xd5, 0x3d, 0xeb, 0xc0, 0x64, 0xbd,
  0x6c, 0x54, 0xaf, 0x3d, 0x1d, 0x96, 0xb4, 0x3d, 0xf0, 0x1c, 0x0a, 0xbe,
  0x9f, 0x6f, 0x82, 0x3e, 0x00, 0x82, 0x99, 0x3e, 0x18, 0x2b, 0xef, 0xbb,
  0x60, 0xde, 0x98, 0xbd, 0x8a, 0x2a, 0x8e, 0x3d, 0xe4, 0x6e, 0x10, 0x3e,
  0x17, 0x38, 0x25, 0xbd, 0xdc, 0xe9, 0x86, 0xbe, 0x39, 0x1e, 0xdc, 0x3e,
  0xa0, 0xe3, 0xd9, 0xbd, 0x73, 0x0a, 0x65, 0xbe, 0x71, 0xda, 0xb2, 0x3c,
  0x78, 0x1f, 0xf3, 0xbd, 0x2e, 0x85, 0xc4, 0x3d, 0xcc, 0xc2, 0x03, 0x3d,
  0xc3, 0xa8, 0x1c, 0xbe, 0xf2, 0x67, 0x6e, 0x3e, 0x8e, 0xea, 0x92, 0xbe,
  0x98, 0x22, 0x84, 0xbd, 0x03, 0xef, 0x01, 0xb9, 0xbf, 0xb5, 0x34, 0xbe,
  0xa9, 0x1b, 0xb3, 0x3e, 0x73, 0x96, 0x20, 0x3c, 0x52, 0x98, 0x83, 0xbe,
  0x27, 0xe0, 0x75, 0x3e, 0x12, 0x8b, 0x52, 0x3e, 0x07, 0x72, 0x12, 0x3e,
  0x2d, 0x24, 0x0a, 0xbe, 0x32, 0x2a, 0x25, 0xbe, 0xa2, 0xed, 0xd5, 0x3c,
  0x88, 0x7b, 0xad, 0xbd, 0x6d, 0xc7, 0x43, 0xbe, 0x3d, 0xa0, 0x98, 0xbe,
  0x00, 0x39, 0x08, 0xbd, 0xa4, 0x09, 0x3c, 0xbd, 0x09, 0x2f, 0x42, 0x3e,
  0x33, 0xa5, 0x1c, 0xbe, 0x7b, 0x85, 0xb0, 0x3e, 0xa7, 0xa2, 0x2c, 0xbd,
  0x72, 0xb0, 0x0c, 0xbe, 0xb6, 0x20, 0x02, 0x3f, 0xe4, 0x6c, 0x9f, 0xbe,
  0xac, 0x55, 0xa4, 0x3b, 0xe2, 0x67, 0x9d, 0xbe, 0x82, 0xf4, 0x79, 0xbe,
  0x30, 0xa0, 0x00, 0xbb, 0x7a, 0x54, 0x79, 0xbe, 0x32, 0xc3, 0xb5, 0x3d,
  0xc9, 0x98, 0x88, 0xbc, 0x8f, 0xd4, 0xd6, 0x3d, 0xc7, 0x93, 0xdc, 0xbc,
  0x13, 0x19, 0xb2, 0xbe, 0x41, 0x22, 0xbc, 0xbd, 0x71, 0xc3, 0x4f, 0x3e,
  0xf0, 0x64, 0xa7, 0xbd, 0xc7, 0x5f, 0x40, 0x3c, 0x8d, 0x9b, 0x9c, 0x3e,
  0x63, 0xe9, 0x08, 0xbe, 0xac, 0x26, 0x36, 0x3e, 0x09, 0x56, 0x35, 0xbe,
  0x21, 0xf9, 0x68, 0xbe, 0xd1, 0x8d, 0xab, 0xbe, 0xe0, 0x4d, 0x51, 0xbe,
  0xf3, 0x12, 0xd2, 0x3e, 0xa5, 0x25, 0xce, 0xbc, 0xfb, 0x47, 0x77, 0x3e,
  0x62, 0xdd, 0xed, 0x3c, 0x3c, 0x61, 0x79, 0xbd, 0xf6, 0x25, 0x87, 0x3c,
  0xd7, 0x37, 0x2d, 0x3e, 0xe5, 0xd9, 0x81, 0xbd, 0x8e, 0x17, 0xae, 0xbd,
  0x3f, 0x86, 0x90, 0xbc, 0xad, 0x50, 0x2d, 0xbe, 0x4e, 0x54, 0x96, 0xbd,
  0x5a, 0x11, 0xd9, 0xbd, 0x46, 0x9f, 0xa6, 0x3d, 0x62, 0x44, 0xb2, 0xbd,
  0x0c, 0x2d, 0xb1, 0xbd, 0x2e, 0x1b, 0xd5, 0xbd, 0x2d, 0x0a, 0xc6, 0x3e,
  0xd3, 0x43, 0xea, 0x3c, 0x90, 0x50, 0xa7, 0xbc, 0xf9, 0x54, 0x11, 0xbe,
  0x8f, 0x4e, 0xd2, 0xbd, 0xc6, 0xb5, 0x28, 0x3e, 0x4a, 0xfe, 0xff, 0xff,
  0x10, 0x00, 0x00, 0x00, 0x05, 0x00, 0x00, 0x00, 0x14, 0x00, 0x00, 0x00,
  0x2c, 0x00, 0x00, 0x00, 0x02, 0x00, 0x00, 0x00, 0x10, 0x00, 0x00, 0x00,
  0x70, 0x00, 0x00, 0x00, 0x17, 0x00, 0x00, 0x00, 0x73, 0x65, 0x71, 0x75,
  0x65, 0x6e, 0x74, 0x69, 0x61, 0x6c, 0x2f, 0x64, 0x65, 0x6e, 0x73, 0x65,
  0x2f, 0x4d, 0x61, 0x74, 0x4d, 0x75, 0x6c, 0x00, 0x38, 0xfe, 0xff, 0xff,
  0x2e, 0xff, 0xff, 0xff, 0x04, 0x00, 0x00, 0x00, 0x08, 0x00, 0x00, 0x00,
  0xff, 0xff, 0xff, 0xff, 0x70, 0x00, 0x00, 0x00, 0x00, 0x00, 0x0e, 0x00,
  0x18, 0x00, 0x08, 0x00, 0x07, 0x00, 0x0c, 0x00, 0x10, 0x00, 0x14, 0x00,
  0x0e, 0x00, 0x00, 0x00, 0x00, 0x00, 0x00, 0x02, 0x10, 0x00, 0x00, 0x00,
  0x04, 0x00, 0x00, 0x00, 0x10, 0x00, 0x00, 0x00, 0x2c, 0x00, 0x00, 0x00,
  0x01, 0x00, 0x00, 0x00, 0x02, 0x00, 0x00, 0x00, 0x18, 0x00, 0x00, 0x00,
  0x73, 0x65, 0x71, 0x75, 0x65, 0x6e, 0x74, 0x69, 0x61, 0x6c, 0x2f, 0x66,
  0x6c, 0x61, 0x74, 0x74, 0x65, 0x6e, 0x2f, 0x43, 0x6f, 0x6e, 0x73, 0x74,
  0x00, 0x00, 0x00, 0x00, 0xa0, 0xfe, 0xff, 0xff, 0x96, 0xff, 0xff, 0xff,
  0x04, 0x00, 0x00, 0x00, 0x0c, 0x00, 0x00, 0x00, 0x82, 0xb3, 0x0d, 0xc0,
  0x99, 0x4d, 0x0d, 0xc0, 0x12, 0xa8, 0x4d, 0x40, 0x0a, 0xff, 0xff, 0xff,
  0x10, 0x00, 0x00, 0x00, 0x03, 0x00, 0x00, 0x00, 0x10, 0x00, 0x00, 0x00,
  0x3c, 0x00, 0x00, 0x00, 0x01, 0x00, 0x00, 0x00, 0x03, 0x00, 0x00, 0x00,
  0x29, 0x00, 0x00, 0x00, 0x73, 0x65, 0x71, 0x75, 0x65, 0x6e, 0x74, 0x69,
  0x61, 0x6c, 0x2f, 0x64, 0x65, 0x6e, 0x73, 0x65, 0x5f, 0x31, 0x2f, 0x42,
  0x69, 0x61, 0x73, 0x41, 0x64, 0x64, 0x2f, 0x52, 0x65, 0x61, 0x64, 0x56,
  0x61, 0x72, 0x69, 0x61, 0x62, 0x6c, 0x65, 0x4f, 0x70, 0x00, 0x00, 0x00,
  0x60, 0xff, 0xff, 0xff, 0x00, 0x00, 0x06, 0x00, 0x08, 0x00, 0x04, 0x00,
  0x06, 0x00, 0x00, 0x00, 0x04, 0x00, 0x00, 0x00, 0x40, 0x00, 0x00, 0x00,
  0xb3, 0x9f, 0xd6, 0xbd, 0xac, 0x8b, 0x28, 0x3f, 0xbe, 0x1f, 0x1c, 0xbf,
  0x71, 0xde, 0xbd, 0xbe, 0x3c, 0xdc, 0xe4, 0xbe, 0x9b, 0x15, 0xde, 0xbd,
  0xfa, 0x65, 0x70, 0xbe, 0x3b, 0xa5, 0x51, 0xbf, 0xbc, 0x99, 0x61, 0x40,
  0x84, 0xd5, 0x9e, 0xbe, 0x64, 0xef, 0x90, 0xbf, 0xb8, 0x7b, 0x0b, 0x3f,
  0xda, 0x94, 0x99, 0x3f, 0xb9, 0x1e, 0xa7, 0xbf, 0x07, 0x8b, 0x14, 0x3f,
  0xbc, 0x36, 0xb8, 0xbe, 0xae, 0xff, 0xff, 0xff, 0x10, 0x00, 0x00, 0x00,
  0x02, 0x00, 0x00, 0x00, 0x10, 0x00, 0x00, 0x00, 0x3c, 0x00, 0x00, 0x00,
  0x01, 0x00, 0x00, 0x00, 0x10, 0x00, 0x00, 0x00, 0x27, 0x00, 0x00, 0x00,
  0x73, 0x65, 0x71, 0x75, 0x65, 0x6e, 0x74, 0x69, 0x61, 0x6c, 0x2f, 0x64,
  0x65, 0x6e, 0x73, 0x65, 0x2f, 0x42, 0x69, 0x61, 0x73, 0x41, 0x64, 0x64,
  0x2f, 0x52, 0x65, 0x61, 0x64, 0x56, 0x61, 0x72, 0x69, 0x61, 0x62, 0x6c,
  0x65, 0x4f, 0x70, 0x00, 0x04, 0x00, 0x06, 0x00, 0x04, 0x00, 0x00, 0x00,
  0x00, 0x00, 0x0e, 0x00, 0x14, 0x00, 0x04, 0x00, 0x00, 0x00, 0x08, 0x00,
  0x0c, 0x00, 0x10, 0x00, 0x0e, 0x00, 0x00, 0x00, 0x10, 0x00, 0x00, 0x00,
  0x01, 0x00, 0x00, 0x00, 0x1c, 0x00, 0x00, 0x00, 0x2c, 0x00, 0x00, 0x00,
  0x04, 0x00, 0x00, 0x00, 0x01, 0x00, 0x00, 0x00, 0x40, 0x00, 0x00, 0x00,
  0x03, 0x00, 0x00, 0x00, 0x01, 0x00, 0x00, 0x00, 0x0c, 0x00, 0x00, 0x00,
  0x63, 0x6f, 0x6e, 0x76, 0x32, 0x64, 0x5f, 0x69, 0x6e, 0x70, 0x75, 0x74,
  0x00, 0x00, 0x00, 0x00, 0xfc, 0xff, 0xff, 0xff, 0x04, 0x00, 0x04, 0x00,
  0x04, 0x00, 0x00, 0x00
};

unsigned int model_tflite_len = 12316;// Fill the int in `src/model.cc` here