#include "magic_wand_model_data.h"

// We need to keep the data array aligned on some architectures.
#ifdef __has_attribute
#define HAVE_ATTRIBUTE(x) __has_attribute(x)
#else
#define HAVE_ATTRIBUTE(x) 0
#endif
#if HAVE_ATTRIBUTE(aligned) || (defined(__GNUC__) && !defined(__clang__))
#define DATA_ALIGN_ATTRIBUTE __attribute__((aligned(4)))
#else
#define DATA_ALIGN_ATTRIBUTE
#endif

const unsigned char g_magic_wand_model_data[] DATA_ALIGN_ATTRIBUTE = {
0x08, 0x00, 0x00, 0x00, 0x54, 0x46, 0x4c, 0x33, 0x62, 0xff, 0xff, 0xff,
  0x03, 0x00, 0x00, 0x00, 0x10, 0x00, 0x00, 0x00, 0x24, 0x00, 0x00, 0x00,
  0x78, 0x00, 0x00, 0x00, 0x24, 0x00, 0x00, 0x00, 0x05, 0x00, 0x00, 0x00,
  0x78, 0x05, 0x00, 0x00, 0xb0, 0x04, 0x00, 0x00, 0xe0, 0x02, 0x00, 0x00,
  0x60, 0x02, 0x00, 0x00, 0x54, 0x01, 0x00, 0x00, 0x01, 0x00, 0x00, 0x00,
  0x78, 0x00, 0x00, 0x00, 0x13, 0x00, 0x00, 0x00, 0xd4, 0x2f, 0x00, 0x00,
  0xd0, 0x2f, 0x00, 0x00, 0xdc, 0x2e, 0x00, 0x00, 0x68, 0x2e, 0x00, 0x00,
  0xfc, 0x2d, 0x00, 0x00, 0xac, 0x11, 0x00, 0x00, 0x98, 0x10, 0x00, 0x00,
  0xbc, 0x0e, 0x00, 0x00, 0x60, 0x06, 0x00, 0x00, 0xfc, 0x05, 0x00, 0x00,
  0x78, 0x05, 0x00, 0x00, 0xa8, 0x2f, 0x00, 0x00, 0xa4, 0x2f, 0x00, 0x00,
  0xa0, 0x2f, 0x00, 0x00, 0x9c, 0x2f, 0x00, 0x00, 0x98, 0x2f, 0x00, 0x00,
  0x94, 0x2f, 0x00, 0x00, 0x90, 0x2f, 0x00, 0x00, 0x8c, 0x2f, 0x00, 0x00,
  0x0f, 0x00, 0x00, 0x00, 0x4d, 0x4c, 0x49, 0x52, 0x20, 0x43, 0x6f, 0x6e,
  0x76, 0x65, 0x72, 0x74, 0x65, 0x64, 0x2e, 0x00, 0x00, 0x00, 0x0e, 0x00,
  0x18, 0x00, 0x04, 0x00, 0x08, 0x00, 0x0c, 0x00, 0x10, 0x00, 0x14, 0x00,
  0x0e, 0x00, 0x00, 0x00, 0x14, 0x00, 0x00, 0x00, 0x5c, 0x00, 0x00, 0x00,
  0x60, 0x00, 0x00, 0x00, 0x64, 0x00, 0x00, 0x00, 0x84, 0x00, 0x00, 0x00,
  0x12, 0x00, 0x00, 0x00, 0x04, 0x2f, 0x00, 0x00, 0xa0, 0x2e, 0x00, 0x00,
  0xf8, 0x2d, 0x00, 0x00, 0x98, 0x2d, 0x00, 0x00, 0x30, 0x2d, 0x00, 0x00,
  0xdc, 0x10, 0x00, 0x00, 0xc0, 0x0f, 0x00, 0x00, 0xe4, 0x0d, 0x00, 0x00,
  0xa0, 0x05, 0x00, 0x00, 0x3c, 0x05, 0x00, 0x00, 0xb0, 0x04, 0x00, 0x00,
  0xe8, 0x03, 0x00, 0x00, 0x38, 0x03, 0x00, 0x00, 0xa4, 0x02, 0x00, 0x00,
  0x10, 0x02, 0x00, 0x00, 0x90, 0x01, 0x00, 0x00, 0xfc, 0x00, 0x00, 0x00,
  0x80, 0x00, 0x00, 0x00, 0x01, 0x00, 0x00, 0x00, 0x00, 0x00, 0x00, 0x00,
  0x01, 0x00, 0x00, 0x00, 0x11, 0x00, 0x00, 0x00, 0x08, 0x00, 0x00, 0x00,
  0x1c, 0x04, 0x00, 0x00, 0x58, 0x03, 0x00, 0x00, 0xc8, 0x02, 0x00, 0x00,
  0x24, 0x02, 0x00, 0x00, 0xac, 0x01, 0x00, 0x00, 0x10, 0x01, 0x00, 0x00,
  0x94, 0x00, 0x00, 0x00, 0x10, 0x00, 0x00, 0x00, 0x04, 0x00, 0x00, 0x00,
  0x6d, 0x61, 0x69, 0x6e, 0x00, 0x00, 0x00, 0x00, 0x8e, 0xff, 0xff, 0xff,
  0x00, 0x00, 0x00, 0x09, 0x04, 0x00, 0x00, 0x00, 0x1c, 0x00, 0x00, 0x00,
  0x10, 0x00, 0x00, 0x00, 0x04, 0x00, 0x00, 0x00, 0x4e, 0xd2, 0xff, 0xff,
  0x00, 0x00, 0x80, 0x3f, 0x01, 0x00, 0x00, 0x00, 0x11, 0x00, 0x00, 0x00,
  0x01, 0x00, 0x00, 0x00, 0x10, 0x00, 0x00, 0x00, 0xf6, 0xfb, 0xff, 0xff,
  0x00, 0x00, 0x00, 0x19, 0x01, 0x00, 0x00, 0x00, 0xce, 0xd1, 0xff, 0xff,
  0x10, 0x00, 0x00, 0x00, 0x12, 0x00, 0x00, 0x00, 0x14, 0x00, 0x00, 0x00,
  0x20, 0x00, 0x00, 0x00, 0x02, 0x00, 0x00, 0x00, 0x01, 0x00, 0x00, 0x00,
  0x03, 0x00, 0x00, 0x00, 0x08, 0x00, 0x00, 0x00, 0x49, 0x64, 0x65, 0x6e,
  0x74, 0x69, 0x74, 0x79, 0x00, 0x00, 0x00, 0x00, 0x08, 0xd2, 0xff, 0xff,
  0x00, 0x00, 0x0e, 0x00, 0x18, 0x00, 0x08, 0x00, 0x0c, 0x00, 0x10, 0x00,
  0x07, 0x00, 0x14, 0x00, 0x0e, 0x00, 0x00, 0x00, 0x00, 0x00, 0x00, 0x08,
  0x03, 0x00, 0x00, 0x00, 0x18, 0x00, 0x00, 0x00, 0x0c, 0x00, 0x00, 0x00,
  0x04, 0x00, 0x00, 0x00, 0xdc, 0xd1, 0xff, 0xff, 0x01, 0x00, 0x00, 0x00,
  0x10, 0x00, 0x00, 0x00, 0x03, 0x00, 0x00, 0x00, 0x0f, 0x00, 0x00, 0x00,
  0x05, 0x00, 0x00, 0x00, 0x02, 0x00, 0x00, 0x00, 0x46, 0xd2, 0xff, 0xff,
  0x10, 0x00, 0x00, 0x00, 0x11, 0x00, 0x00, 0x00, 0x14, 0x00, 0x00, 0x00,
  0x30, 0x00, 0x00, 0x00, 0x02, 0x00, 0x00, 0x00, 0x01, 0x00, 0x00, 0x00,
  0x03, 0x00, 0x00, 0x00, 0x1a, 0x00, 0x00, 0x00, 0x73, 0x65, 0x71, 0x75,
  0x65, 0x6e, 0x74, 0x69, 0x61, 0x6c, 0x2f, 0x64, 0x65, 0x6e, 0x73, 0x65,
  0x5f, 0x31, 0x2f, 0x42, 0x69, 0x61, 0x73, 0x41, 0x64, 0x64, 0x00, 0x00,
  0x38, 0xd2, 0xff, 0xff, 0xd6, 0xfd, 0xff, 0xff, 0x00, 0x00, 0x00, 0x08,
  0x03, 0x00, 0x00, 0x00, 0x24, 0x00, 0x00, 0x00, 0x18, 0x00, 0x00, 0x00,
  0x0c, 0x00, 0x00, 0x00, 0x00, 0x00, 0x06, 0x00, 0x08, 0x00, 0x07, 0x00,
  0x06, 0x00, 0x00, 0x00, 0x00, 0x00, 0x00, 0x01, 0x01, 0x00, 0x00, 0x00,
  0x0f, 0x00, 0x00, 0x00, 0x03, 0x00, 0x00, 0x00, 0x0e, 0x00, 0x00, 0x00,
  0x04, 0x00, 0x00, 0x00, 0x01, 0x00, 0x00, 0x00, 0xfe, 0xfc, 0xff, 0xff,
  0x00, 0x00, 0x00, 0x09, 0x01, 0x00, 0x00, 0x00, 0xd6, 0xd2, 0xff, 0xff,
  0x10, 0x00, 0x00, 0x00, 0x10, 0x00, 0x00, 0x00, 0x14, 0x00, 0x00, 0x00,
  0x2c, 0x00, 0x00, 0x00, 0x02, 0x00, 0x00, 0x00, 0x01, 0x00, 0x00, 0x00,
  0x10, 0x00, 0x00, 0x00, 0x15, 0x00, 0x00, 0x00, 0x73, 0x65, 0x71, 0x75,
  0x65, 0x6e, 0x74, 0x69, 0x61, 0x6c, 0x2f, 0x64, 0x65, 0x6e, 0x73, 0x65,
  0x2f, 0x52, 0x65, 0x6c, 0x75, 0x00, 0x00, 0x00, 0x1c, 0xd3, 0xff, 0xff,
  0x00, 0x00, 0x0a, 0x00, 0x10, 0x00, 0x04, 0x00, 0x08, 0x00, 0x0c, 0x00,
  0x0a, 0x00, 0x00, 0x00, 0x02, 0x00, 0x00, 0x00, 0x10, 0x00, 0x00, 0x00,
  0x04, 0x00, 0x00, 0x00, 0x01, 0x00, 0x00, 0x00, 0x0e, 0x00, 0x00, 0x00,
  0x02, 0x00, 0x00, 0x00, 0x0d, 0x00, 0x00, 0x00, 0x03, 0x00, 0x00, 0x00,
  0x7a, 0xfd, 0xff, 0xff, 0x00, 0x00, 0x00, 0x16, 0x01, 0x00, 0x00, 0x00,
  0x52, 0xd3, 0xff, 0xff, 0x10, 0x00, 0x00, 0x00, 0x0f, 0x00, 0x00, 0x00,
  0x14, 0x00, 0x00, 0x00, 0x30, 0x00, 0x00, 0x00, 0x02, 0x00, 0x00, 0x00,
  0x01, 0x00, 0x00, 0x00, 0x70, 0x00, 0x00, 0x00, 0x1a, 0x00, 0x00, 0x00,
  0x73, 0x65, 0x71, 0x75, 0x65, 0x6e, 0x74, 0x69, 0x61, 0x6c, 0x2f, 0x66,
  0x6c, 0x61, 0x74, 0x74, 0x65, 0x6e, 0x2f, 0x52, 0x65, 0x73, 0x68, 0x61,
  0x70, 0x65, 0x00, 0x00, 0x44, 0xd3, 0xff, 0xff, 0xe2, 0xfe, 0xff, 0xff,
  0x00, 0x00, 0x00, 0x05, 0x01, 0x00, 0x00, 0x00, 0x38, 0x00, 0x00, 0x00,
  0x2c, 0x00, 0x00, 0x00, 0x14, 0x00, 0x00, 0x00, 0x00, 0x00, 0x0e, 0x00,
  0x14, 0x00, 0x00, 0x00, 0x10, 0x00, 0x0c, 0x00, 0x08, 0x00, 0x04, 0x00,
  0x0e, 0x00, 0x00, 0x00, 0x03, 0x00, 0x00, 0x00, 0x01, 0x00, 0x00, 0x00,
  0x03, 0x00, 0x00, 0x00, 0x01, 0x00, 0x00, 0x00, 0x01, 0x00, 0x00, 0x00,
  0x0d, 0x00, 0x00, 0x00, 0x01, 0x00, 0x00, 0x00, 0x0c, 0x00, 0x00, 0x00,
  0xe2, 0xd3, 0xff, 0xff, 0x10, 0x00, 0x00, 0x00, 0x0e, 0x00, 0x00, 0x00,
  0x1c, 0x00, 0x00, 0x00, 0x40, 0x00, 0x00, 0x00, 0x04, 0x00, 0x00, 0x00,
  0x01, 0x00, 0x00, 0x00, 0x07, 0x00, 0x00, 0x00, 0x01, 0x00, 0x00, 0x00,
  0x10, 0x00, 0x00, 0x00, 0x22, 0x00, 0x00, 0x00, 0x73, 0x65, 0x71, 0x75,
  0x65, 0x6e, 0x74, 0x69, 0x61, 0x6c, 0x2f, 0x6d, 0x61, 0x78, 0x5f, 0x70,
  0x6f, 0x6f, 0x6c, 0x69, 0x6e, 0x67, 0x32, 0x64, 0x5f, 0x31, 0x2f, 0x4d,
  0x61, 0x78, 0x50, 0x6f, 0x6f, 0x6c, 0x00, 0x00, 0xe4, 0xd3, 0xff, 0xff,
  0xc2, 0xfe, 0xff, 0xff, 0x00, 0x00, 0x00, 0x01, 0x24, 0x00, 0x00, 0x00,
  0x18, 0x00, 0x00, 0x00, 0x04, 0x00, 0x00, 0x00, 0xb4, 0xfe, 0xff, 0xff,
  0x01, 0x00, 0x00, 0x00, 0x01, 0x00, 0x00, 0x00, 0x00, 0x00, 0x00, 0x01,
  0x01, 0x00, 0x00, 0x00, 0x0c, 0x00, 0x00, 0x00, 0x03, 0x00, 0x00, 0x00,
  0x0b, 0x00, 0x00, 0x00, 0x07, 0x00, 0x00, 0x00, 0x09, 0x00, 0x00, 0x00,
  0x72, 0xd4, 0xff, 0xff, 0x10, 0x00, 0x00, 0x00, 0x0d, 0x00, 0x00, 0x00,
  0x1c, 0x00, 0x00, 0x00, 0x2c, 0x00, 0x00, 0x00, 0x04, 0x00, 0x00, 0x00,
  0x01, 0x00, 0x00, 0x00, 0x15, 0x00, 0x00, 0x00, 0x01, 0x00, 0x00, 0x00,
  0x10, 0x00, 0x00, 0x00, 0x0c, 0x00, 0x00, 0x00, 0x74, 0x66, 0x6c, 0x2e,
  0x63, 0x6f, 0x6e, 0x76, 0x5f, 0x32, 0x64, 0x31, 0x00, 0x00, 0x00, 0x00,
  0xb8, 0xd4, 0xff, 0xff, 0x00, 0x00, 0x0e, 0x00, 0x1a, 0x00, 0x08, 0x00,
  0x0c, 0x00, 0x10, 0x00, 0x07, 0x00, 0x14, 0x00, 0x0e, 0x00, 0x00, 0x00,
  0x00, 0x00, 0x00, 0x05, 0x01, 0x00, 0x00, 0x00, 0x3c, 0x00, 0x00, 0x00,
  0x30, 0x00, 0x00, 0x00, 0x14, 0x00, 0x00, 0x00, 0x00, 0x00, 0x0e, 0x00,
  0x18, 0x00, 0x17, 0x00, 0x10, 0x00, 0x0c, 0x00, 0x08, 0x00, 0x04, 0x00,
  0x0e, 0x00, 0x00, 0x00, 0x03, 0x00, 0x00, 0x00, 0x03, 0x00, 0x00, 0x00,
  0x03, 0x00, 0x00, 0x00, 0x03, 0x00, 0x00, 0x00, 0x00, 0x00, 0x00, 0x01,
  0x01, 0x00, 0x00, 0x00, 0x0b, 0x00, 0x00, 0x00, 0x01, 0x00, 0x00, 0x00,
  0x0a, 0x00, 0x00, 0x00, 0x46, 0xff, 0xff, 0xff, 0x00, 0x00, 0x00, 0x11,
  0x01, 0x00, 0x00, 0x00, 0x1e, 0xd5, 0xff, 0xff, 0x10, 0x00, 0x00, 0x00,
  0x0c, 0x00, 0x00, 0x00, 0x1c, 0x00, 0x00, 0x00, 0x40, 0x00, 0x00, 0x00,
  0x04, 0x00, 0x00, 0x00, 0x01, 0x00, 0x00, 0x00, 0x15, 0x00, 0x00, 0x00,
  0x01, 0x00, 0x00, 0x00, 0x08, 0x00, 0x00, 0x00, 0x20, 0x00, 0x00, 0x00,
  0x73, 0x65, 0x71, 0x75, 0x65, 0x6e, 0x74, 0x69, 0x61, 0x6c, 0x2f, 0x6d,
  0x61, 0x78, 0x5f, 0x70, 0x6f, 0x6f, 0x6c, 0x69, 0x6e, 0x67, 0x32, 0x64,
  0x2f, 0x4d, 0x61, 0x78, 0x50, 0x6f, 0x6f, 0x6c, 0x00, 0x00, 0x00, 0x00,
  0x78, 0xd5, 0xff, 0xff, 0x00, 0x00, 0x0e, 0x00, 0x14, 0x00, 0x00, 0x00,
  0x08, 0x00, 0x0c, 0x00, 0x07, 0x00, 0x10, 0x00, 0x0e, 0x00, 0x00, 0x00,
  0x00, 0x00, 0x00, 0x01, 0x30, 0x00, 0x00, 0x00, 0x24, 0x00, 0x00, 0x00,
  0x10, 0x00, 0x00, 0x00, 0x0c, 0x00, 0x10, 0x00, 0x00, 0x00, 0x04, 0x00,
  0x08, 0x00, 0x0f, 0x00, 0x0c, 0x00, 0x00, 0x00, 0x01, 0x00, 0x00, 0x00,
  0x01, 0x00, 0x00, 0x00, 0x00, 0x00, 0x00, 0x01, 0x01, 0x00, 0x00, 0x00,
  0x0a, 0x00, 0x00, 0x00, 0x03, 0x00, 0x00, 0x00, 0x00, 0x00, 0x00, 0x00,
  0x06, 0x00, 0x00, 0x00, 0x08, 0x00, 0x00, 0x00, 0x00, 0x00, 0x0a, 0x00,
  0x0c, 0x00, 0x07, 0x00, 0x00, 0x00, 0x08, 0x00, 0x0a, 0x00, 0x00, 0x00,
  0x00, 0x00, 0x00, 0x03, 0x01, 0x00, 0x00, 0x00, 0xe2, 0xd5, 0xff, 0xff,
  0x10, 0x00, 0x00, 0x00, 0x0b, 0x00, 0x00, 0x00, 0x1c, 0x00, 0x00, 0x00,
  0x28, 0x00, 0x00, 0x00, 0x04, 0x00, 0x00, 0x00, 0x01, 0x00, 0x00, 0x00,
  0x40, 0x00, 0x00, 0x00, 0x03, 0x00, 0x00, 0x00, 0x08, 0x00, 0x00, 0x00,
  0x0b, 0x00, 0x00, 0x00, 0x74, 0x66, 0x6c, 0x2e, 0x63, 0x6f, 0x6e, 0x76,
  0x5f, 0x32, 0x64, 0x00, 0xcc, 0xd5, 0xff, 0xff, 0xc2, 0xd6, 0xff, 0xff,
  0x04, 0x00, 0x00, 0x00, 0x40, 0x00, 0x00, 0x00, 0x90, 0x9e, 0x53, 0xbe,
  0xac, 0xc9, 0x07, 0x41, 0xa6, 0xc5, 0x41, 0xc0, 0x13, 0xe1, 0xb1, 0x40,
  0x36, 0x43, 0x62, 0xc0, 0x3b, 0x36, 0x13, 0xc0, 0x00, 0x63, 0x42, 0x40,
  0x9d, 0x9e, 0xbe, 0xbe, 0x0a, 0xb9, 0x83, 0xbf, 0x21, 0x41, 0x3d, 0x40,
  0xcb, 0x59, 0x87, 0xbf, 0x1a, 0x03, 0x7d, 0x3f, 0x2f, 0x1a, 0x99, 0xbf,
  0x67, 0xeb, 0xe2, 0x3e, 0x78, 0x51, 0xd8, 0xbf, 0x75, 0x34, 0x41, 0xc0,
  0x6a, 0xd6, 0xff, 0xff, 0x10, 0x00, 0x00, 0x00, 0x0a, 0x00, 0x00, 0x00,
  0x10, 0x00, 0x00, 0x00, 0x20, 0x00, 0x00, 0x00, 0x01, 0x00, 0x00, 0x00,
  0x10, 0x00, 0x00, 0x00, 0x0d, 0x00, 0x00, 0x00, 0x73, 0x74, 0x64, 0x2e,
  0x63, 0x6f, 0x6e, 0x73, 0x74, 0x61, 0x6e, 0x74, 0x31, 0x00, 0x00, 0x00,
  0x4c, 0xd6, 0xff, 0xff, 0x42, 0xd7, 0xff, 0xff, 0x04, 0x00, 0x00, 0x00,
  0x20, 0x00, 0x00, 0x00, 0x84, 0xea, 0x73, 0xc0, 0x72, 0x86, 0x24, 0x3f,
  0xa4, 0xe0, 0x4b, 0xc0, 0x69, 0xa6, 0xe9, 0x3c, 0x5e, 0x67, 0x62, 0xc0,
  0x33, 0x2b, 0x24, 0xbf, 0x23, 0x32, 0x5a, 0xbf, 0x8d, 0x02, 0x56, 0xbe,
  0xca, 0xd6, 0xff, 0xff, 0x10, 0x00, 0x00, 0x00, 0x09, 0x00, 0x00, 0x00,
  0x10, 0x00, 0x00, 0x00, 0x20, 0x00, 0x00, 0x00, 0x01, 0x00, 0x00, 0x00,
  0x08, 0x00, 0x00, 0x00, 0x0c, 0x00, 0x00, 0x00, 0x73, 0x74, 0x64, 0x2e,
  0x63, 0x6f, 0x6e, 0x73, 0x74, 0x61, 0x6e, 0x74, 0x00, 0x00, 0x00, 0x00,
  0xac, 0xd6, 0xff, 0xff, 0xa2, 0xd7, 0xff, 0xff, 0x04, 0x00, 0x00, 0x00,
  0x00, 0x08, 0x00, 0x00, 0xe2, 0xff, 0xb5, 0x3e, 0x6a, 0x28, 0x72, 0xbc,
  0x24, 0x67, 0x4e, 0x3d, 0x30, 0xc3, 0xb9, 0xbd, 0x66, 0x56, 0xfd, 0x3e,
  0x03, 0x1d, 0x83, 0xbe, 0x02, 0xf0, 0x75, 0x3d, 0x36, 0x33, 0xbf, 0xbe,
  0xb5, 0xea, 0xb7, 0x3e, 0x0a, 0x79, 0x08, 0x3e, 0x1a, 0x51, 0xcb, 0x3d,
  0x34, 0x8e, 0x13, 0x3c, 0x4d, 0x83, 0x69, 0x3e, 0xdc, 0x98, 0xac, 0xbe,
  0x39, 0x0d, 0x82, 0xbe, 0xe8, 0x9e, 0x0a, 0xbf, 0xe8, 0xbc, 0x33, 0x3e,
  0x68, 0x9e, 0xcc, 0xbc, 0xe3, 0x54, 0x76, 0x3d, 0x86, 0x9d, 0xb0, 0xbd,
  0x1a, 0xc2, 0xc9, 0x3e, 0x66, 0x4a, 0x9b, 0xbe, 0x07, 0x7c, 0x34, 0xbe,
  0x2a, 0xf3, 0xa6, 0xbe, 0xf9, 0x00, 0x55, 0x3e, 0xdc, 0xb1, 0x60, 0x3e,
  0xac, 0xf7, 0x0a, 0x3d, 0x5e, 0xed, 0x03, 0x3e, 0x30, 0xbd, 0xb5, 0x3e,
  0xc6, 0xd8, 0xa5, 0xbe, 0xf2, 0x77, 0x7d, 0xbe, 0xcd, 0x0f, 0xf4, 0xbe,
  0x29, 0x2a, 0xa1, 0xbe, 0xbf, 0xf4, 0x66, 0xbe, 0x9c, 0x69, 0x17, 0xbf,
  0xc0, 0x60, 0x15, 0xbf, 0x49, 0x23, 0x32, 0xbf, 0x5e, 0x58, 0xd1, 0xbe,
  0x78, 0x0a, 0x20, 0xbf, 0x73, 0x4a, 0xe1, 0xbe, 0xe9, 0xf3, 0x42, 0x3e,
  0xeb, 0x61, 0x52, 0x3d, 0xb2, 0xbd, 0x8b, 0x3d, 0x0c, 0xa8, 0x32, 0xbd,
  0x65, 0x0a, 0xb1, 0xbc, 0x17, 0x09, 0xcb, 0x3c, 0xb2, 0x3c, 0xd5, 0x3e,
  0x5b, 0xd8, 0x9e, 0xbd, 0x6f, 0x6a, 0x5e, 0xbe, 0x45, 0xf5, 0xb8, 0xbd,
  0x54, 0xfe, 0xb1, 0xbe, 0xc8, 0xd2, 0xe1, 0xbd, 0x3b, 0x50, 0xa2, 0xbe,
  0x0b, 0xdb, 0xeb, 0xbd, 0x17, 0xf8, 0x39, 0xbe, 0xcf, 0x7d, 0xe2, 0xbd,
  0x3c, 0x00, 0x34, 0x3e, 0x6c, 0xc7, 0x9c, 0xbb, 0xd3, 0xa7, 0x8c, 0xbd,
  0x11, 0x2d, 0xc1, 0x3c, 0xda, 0xf1, 0x1c, 0x3d, 0xe5, 0x71, 0xe0, 0x3d,
  0xfb, 0xfc, 0x8e, 0xbc, 0x5b, 0xd1, 0x15, 0x3e, 0x6d, 0x44, 0xe2, 0xbe,
  0x5b, 0x75, 0x94, 0xbe, 0x6a, 0x16, 0xfa, 0xbe, 0x3f, 0xfa, 0x9e, 0xbd,
  0xf8, 0x85, 0x6e, 0x3c, 0x71, 0xdd, 0x48, 0xbe, 0xaf, 0x33, 0x0c, 0xbe,
  0x13, 0x49, 0xac, 0xbd, 0x9e, 0xac, 0x42, 0xbe, 0xfc, 0x25, 0x8d, 0xbe,
  0x4b, 0x77, 0x80, 0xbe, 0xdb, 0x0a, 0xde, 0xbd, 0x67, 0x9f, 0x74, 0xbc,
  0xf4, 0xe8, 0x3b, 0xbe, 0xa9, 0x3d, 0xc2, 0xbc, 0xe2, 0x04, 0x94, 0xbd,
  0x5d, 0xaf, 0xc4, 0x3e, 0x15, 0x81, 0x8d, 0x3d, 0xce, 0x75, 0x3b, 0x3e,
  0x36, 0x61, 0x65, 0xbc, 0xf3, 0x81, 0x57, 0xbd, 0xfe, 0xa3, 0x02, 0xbe,
  0x59, 0x59, 0x58, 0xbd, 0xf8, 0x56, 0xec, 0xbc, 0xc1, 0x78, 0x02, 0x3f,
  0x9d, 0x55, 0x0b, 0x3d, 0x5b, 0x7a, 0xea, 0x3e, 0x44, 0x84, 0x8d, 0xbd,
  0x75, 0x8b, 0xb6, 0x3c, 0xc5, 0x9d, 0x9d, 0x3e, 0x07, 0x16, 0x05, 0x3d,
  0x70, 0x7b, 0x73, 0x3d, 0xe2, 0xd2, 0x52, 0xbd, 0x2c, 0x4d, 0x94, 0xbe,
  0x3b, 0x79, 0xa7, 0xbe, 0x25, 0x3c, 0x10, 0xbf, 0x9e, 0x8f, 0xac, 0xbe,
  0x47, 0x2c, 0x6c, 0xbe, 0x2d, 0x6c, 0xf8, 0xbe, 0x31, 0x94, 0xcf, 0xbe,
  0x9e, 0x29, 0x4e, 0xbc, 0x5b, 0xdf, 0xa6, 0xbc, 0xc0, 0xfb, 0xfb, 0x3c,
  0xfc, 0x8e, 0x8f, 0xbe, 0xfc, 0xe2, 0x4e, 0xbd, 0x84, 0x74, 0x15, 0x3c,
  0xd4, 0xfb, 0xba, 0xbe, 0x01, 0x2f, 0x1d, 0x3e, 0xdf, 0xb6, 0x46, 0x3e,
  0x4e, 0xda, 0x91, 0xbd, 0xbb, 0xc9, 0x06, 0x3e, 0x38, 0xd7, 0x5e, 0xbe,
  0x1c, 0xae, 0x91, 0x3e, 0x9b, 0x1d, 0x7e, 0x3d, 0x00, 0xbb, 0x0d, 0x3e,
  0xba, 0xc7, 0xcd, 0x3d, 0xa5, 0x99, 0x15, 0x3e, 0xdc, 0xc1, 0x52, 0x3d,
  0xae, 0x3d, 0x49, 0x3d, 0x5d, 0x37, 0xe2, 0xbe, 0xa0, 0x00, 0xb3, 0x3d,
  0xe7, 0xb6, 0x61, 0x3d, 0xd6, 0x54, 0x25, 0x3e, 0x17, 0x5f, 0xa1, 0xbd,
  0xd8, 0x3a, 0xc7, 0xbe, 0xee, 0xe4, 0x5e, 0xbe, 0x1e, 0xb4, 0xa3, 0xbe,
  0x50, 0xe0, 0xb7, 0xbd, 0xce, 0x29, 0x1a, 0xbf, 0x9e, 0x22, 0xe4, 0xbd,
  0xbb, 0x34, 0x1c, 0xbe, 0x07, 0x6b, 0x31, 0xbc, 0xa7, 0x73, 0x13, 0xbd,
  0xf1, 0xef, 0xc7, 0xbd, 0xb4, 0xcb, 0x26, 0xbd, 0x04, 0x77, 0xd0, 0xbd,
  0x02, 0xfc, 0x72, 0xbe, 0x7c, 0xc7, 0x25, 0xbd, 0x05, 0x5b, 0xb8, 0xbd,
  0xba, 0x24, 0x10, 0xbd, 0xe9, 0xaa, 0x43, 0x3f, 0xd0, 0xbd, 0x6a, 0xbd,
  0xf8, 0x87, 0x08, 0x3f, 0x1f, 0x5d, 0xa1, 0xbd, 0x1a, 0x09, 0x0e, 0x3f,
  0xe1, 0x7f, 0x19, 0xbc, 0xe5, 0xbc, 0x49, 0x3d, 0x60, 0x87, 0x2a, 0xbc,
  0x45, 0x88, 0xe4, 0xbd, 0x8e, 0x52, 0xb1, 0xbc, 0xf6, 0xd7, 0xa7, 0xbd,
  0x5f, 0x42, 0x43, 0xbd, 0x70, 0xea, 0x78, 0x3e, 0xa6, 0x52, 0x01, 0x3e,
  0xa5, 0x25, 0xf1, 0x3d, 0x6c, 0x0b, 0x0f, 0x3c, 0x24, 0xa5, 0x5f, 0xbd,
  0x07, 0xa2, 0xc1, 0xbc, 0xb3, 0x23, 0x7a, 0x3e, 0xa9, 0xa2, 0xe4, 0xbe,
  0x8b, 0x7f, 0xf2, 0x3e, 0x79, 0xe8, 0x6b, 0x3e, 0x69, 0x5b, 0xd9, 0x3d,
  0x9e, 0x8f, 0xb5, 0x3d, 0xe3, 0x14, 0x0b, 0xbe, 0xa6, 0x2c, 0x2f, 0xbe,
  0x34, 0x98, 0x34, 0x3e, 0x4f, 0xdb, 0x8f, 0xbe, 0xdf, 0x7d, 0xbf, 0x3e,
  0x0d, 0xe7, 0x80, 0x3c, 0x5c, 0xe8, 0xc8, 0x3d, 0x75, 0x9c, 0xc1, 0xbd,
  0xf7, 0xc4, 0xa3, 0xbc, 0x6c, 0xad, 0x7c, 0xbe, 0x0c, 0x7a, 0xae, 0xbe,
  0x79, 0xe4, 0xf5, 0xbd, 0xeb, 0x8a, 0x88, 0x3e, 0x5f, 0x02, 0x08, 0xbe,
  0x92, 0x93, 0x7c, 0xbd, 0xa4, 0x85, 0x03, 0xbe, 0x09, 0x27, 0x13, 0x3e,
  0x74, 0xc7, 0x20, 0xbe, 0x52, 0x1a, 0xc4, 0xbe, 0x5d, 0x24, 0xac, 0xbc,
  0x00, 0xd8, 0x4b, 0x3d, 0xc4, 0x88, 0x38, 0xbe, 0xc0, 0xe5, 0x22, 0xbe,
  0x9d, 0xbe, 0xe3, 0xbd, 0xff, 0xaf, 0x54, 0xbe, 0xa0, 0x1a, 0x32, 0xbe,
  0xf7, 0xa8, 0xee, 0xbd, 0x48, 0x0c, 0x92, 0x3e, 0x7b, 0xda, 0x8c, 0xbd,
  0xaa, 0x28, 0x65, 0x3d, 0xce, 0x17, 0x7d, 0x3d, 0x79, 0x8e, 0x3e, 0x3d,
  0x59, 0x6c, 0xf2, 0xbd, 0xca, 0x86, 0xc1, 0x3d, 0x7e, 0x3e, 0x9c, 0x3c,
  0x78, 0x14, 0xb3, 0x3d, 0xd2, 0x75, 0xa4, 0x3e, 0x2c, 0xde, 0xfd, 0xbd,
  0x1e, 0x82, 0x81, 0x3e, 0x82, 0x61, 0x10, 0xbe, 0xbb, 0x94, 0x08, 0xbd,
  0x0b, 0x1e, 0x28, 0x3c, 0xd3, 0x99, 0xb1, 0x3e, 0xd6, 0xfe, 0xa0, 0x3d,
  0x85, 0x60, 0x3d, 0xbe, 0xf8, 0x91, 0xb6, 0xbd, 0x37, 0x11, 0x4a, 0xbe,
  0x33, 0x9d, 0x2e, 0xbd, 0xfc, 0x10, 0x03, 0xbd, 0xfd, 0x7b, 0x92, 0x3e,
  0x6b, 0xe2, 0x30, 0xbe, 0xb8, 0xb6, 0x5b, 0xbb, 0x04, 0x83, 0x32, 0x3e,
  0xf3, 0x50, 0x0f, 0xbe, 0x0e, 0x9f, 0xc2, 0xbd, 0xfe, 0xbf, 0xeb, 0xbd,
  0x13, 0x75, 0x07, 0xbf, 0x9c, 0x17, 0x7f, 0xbd, 0x5f, 0x18, 0xb9, 0xbc,
  0x05, 0x89, 0xbe, 0xbd, 0xaa, 0xbc, 0xd7, 0xbe, 0x60, 0xb0, 0x0c, 0xbe,
  0x17, 0xc3, 0xa4, 0xbe, 0x76, 0x29, 0x09, 0xbe, 0xec, 0x54, 0x95, 0xbe,
  0x3a, 0x79, 0xbe, 0x3d, 0xd5, 0x04, 0x88, 0xbd, 0x75, 0xe0, 0xf5, 0xbd,
  0x5e, 0x7f, 0x24, 0xb9, 0xfc, 0xce, 0x4a, 0xbe, 0xf9, 0xc4, 0x0c, 0xbe,
  0x9e, 0xe9, 0x9e, 0xbd, 0x73, 0x03, 0x83, 0xbe, 0xcb, 0x96, 0x29, 0xbe,
  0xc2, 0x40, 0x85, 0xbe, 0x21, 0x9e, 0xfb, 0x3d, 0xa9, 0x23, 0xf2, 0x3d,
  0x7d, 0xb5, 0x7e, 0xbe, 0x11, 0x00, 0x9b, 0xbc, 0xaa, 0xfe, 0xff, 0xbd,
  0x8b, 0xe4, 0x0c, 0x3d, 0xa4, 0x33, 0x63, 0x3e, 0x67, 0xdf, 0x6f, 0xbe,
  0xa2, 0xf5, 0xdb, 0x3e, 0x90, 0xff, 0xaf, 0x3e, 0x30, 0x1d, 0x51, 0xbe,
  0x97, 0xa4, 0x99, 0x3e, 0x91, 0x83, 0xdc, 0xbd, 0x0b, 0x1e, 0x3f, 0x3e,
  0x4e, 0x06, 0x9c, 0xbe, 0xa6, 0xcd, 0xad, 0x3b, 0xd1, 0x44, 0xb2, 0x3e,
  0xe9, 0xd5, 0xde, 0x3c, 0xa9, 0x33, 0x0f, 0xbf, 0x46, 0x82, 0x1f, 0xbd,
  0xb6, 0xef, 0x7a, 0xbe, 0x57, 0x24, 0x00, 0x3e, 0x18, 0x93, 0xc5, 0xbd,
  0x06, 0xfe, 0xb4, 0x3d, 0x1e, 0xd0, 0x2b, 0x3c, 0xcb, 0x65, 0x28, 0x3f,
  0x30, 0xf1, 0xa3, 0xbe, 0x56, 0x6f, 0x98, 0xbd, 0x23, 0x2a, 0xa6, 0xbe,
  0x8c, 0xb2, 0xd1, 0x3d, 0xf2, 0x23, 0x9f, 0x3e, 0xbb, 0x40, 0x26, 0x3e,
  0x83, 0x99, 0x92, 0x3d, 0x01, 0x66, 0x4c, 0xbd, 0xa0, 0x83, 0x17, 0xbe,
  0xa6, 0xc3, 0x16, 0xbe, 0xd4, 0xef, 0x75, 0xbe, 0x31, 0x80, 0x71, 0xbd,
  0x96, 0x3a, 0x37, 0x3e, 0x2e, 0x79, 0x59, 0xbc, 0xed, 0x94, 0x90, 0x3c,
  0xa3, 0x6d, 0x9b, 0x3e, 0xba, 0x1f, 0x08, 0xbe, 0x1f, 0xa4, 0x4e, 0xbd,
  0xe6, 0xe7, 0xfb, 0xbd, 0xed, 0xeb, 0x88, 0xbe, 0x8a, 0x73, 0x54, 0xbd,
  0x23, 0xcb, 0xbc, 0xbd, 0x36, 0x77, 0x9b, 0x3d, 0xe1, 0xb7, 0x91, 0xbd,
  0xdf, 0x4a, 0x53, 0x3e, 0xd0, 0x5f, 0x74, 0xbc, 0x69, 0x4a, 0x31, 0xbd,
  0x55, 0x11, 0x3d, 0xbd, 0x05, 0xd9, 0xf4, 0xbc, 0x6f, 0x40, 0x80, 0x3d,
  0x52, 0x76, 0x20, 0xbe, 0x6b, 0x40, 0xad, 0xbd, 0xfc, 0x00, 0x04, 0xb9,
  0x5f, 0x56, 0xf6, 0x3c, 0xad, 0xf1, 0x40, 0xbc, 0x62, 0x6e, 0x26, 0xbe,
  0x9d, 0xa9, 0x6b, 0xbb, 0x41, 0xb1, 0xfc, 0xbd, 0x6f, 0x3b, 0x97, 0x3e,
  0x3d, 0x0e, 0xcb, 0x3c, 0x67, 0x65, 0xd2, 0x3d, 0xdf, 0x93, 0xb2, 0x3d,
  0xf3, 0x32, 0xfa, 0x3c, 0xf5, 0xb5, 0xcb, 0x3d, 0x64, 0x85, 0xba, 0xbd,
  0xd7, 0xf9, 0x1e, 0xbc, 0x17, 0x7f, 0x3f, 0xbd, 0xa3, 0x3b, 0xd7, 0xbc,
  0x5b, 0xd5, 0x75, 0xbd, 0x95, 0x51, 0x3d, 0xbc, 0x47, 0x4b, 0x25, 0x3e,
  0xe4, 0xb2, 0x1d, 0xbe, 0x27, 0x2a, 0x5a, 0xbe, 0x65, 0x69, 0x84, 0xbd,
  0x38, 0xef, 0x09, 0x3e, 0xbb, 0x39, 0x19, 0xbe, 0xb7, 0xcd, 0x13, 0x3d,
  0x3c, 0x0b, 0x53, 0xbd, 0xad, 0x2c, 0xf2, 0xbe, 0x8a, 0xa3, 0x28, 0xbd,
  0xe8, 0xc0, 0x25, 0xbb, 0x73, 0xee, 0x35, 0x3d, 0xd2, 0x32, 0x87, 0x3e,
  0x15, 0x3d, 0x08, 0x3f, 0x9a, 0xcc, 0x51, 0xbd, 0x1b, 0x2e, 0x70, 0xbd,
  0x01, 0xd0, 0x76, 0xbe, 0x61, 0x8e, 0x93, 0x3e, 0x70, 0x0e, 0x59, 0x3e,
  0x94, 0xb9, 0x14, 0x3e, 0xa7, 0x91, 0x58, 0xbe, 0x94, 0x8c, 0x19, 0x3f,
  0xe3, 0x46, 0x29, 0x3c, 0xa9, 0xfa, 0xec, 0xbd, 0x5f, 0x57, 0x31, 0xbe,
  0x80, 0x04, 0x1e, 0xbd, 0xc0, 0xfa, 0x19, 0x3e, 0x58, 0x1d, 0x65, 0x3d,
  0x2a, 0x45, 0x25, 0xbe, 0xb7, 0x9b, 0x27, 0xbe, 0xc8, 0x97, 0xb5, 0xbc,
  0x0d, 0x36, 0x83, 0xbe, 0xc3, 0x5a, 0x20, 0xbe, 0x86, 0x42, 0x0d, 0xbe,
  0x8d, 0xe0, 0xc8, 0x3e, 0x2b, 0xf0, 0x26, 0x3e, 0x31, 0xb4, 0x29, 0x3e,
  0xe5, 0xe5, 0x5b, 0x3e, 0x85, 0x38, 0xb7, 0xbd, 0x61, 0xad, 0xf4, 0xbe,
  0x36, 0x7f, 0xcb, 0xbd, 0x63, 0xae, 0x3b, 0xbe, 0x64, 0x3c, 0x47, 0x3e,
  0xf3, 0x05, 0x03, 0xbe, 0x95, 0xd4, 0x39, 0xbd, 0xb6, 0x82, 0x31, 0xbe,
  0x5c, 0x06, 0xc9, 0xbc, 0xbe, 0x06, 0xdc, 0xbe, 0xf9, 0x62, 0x9f, 0xbe,
  0x5e, 0xfc, 0x78, 0xbd, 0x27, 0xc2, 0xd6, 0x3d, 0x6d, 0x8c, 0xf6, 0x3d,
  0xa9, 0x08, 0xaa, 0x3e, 0xef, 0xb2, 0x6c, 0x3e, 0x27, 0xf6, 0x1e, 0xbd,
  0x43, 0x9d, 0xf6, 0xbe, 0xb4, 0x4e, 0x13, 0xbe, 0x9c, 0x8c, 0xe3, 0xbd,
  0x25, 0x89, 0xaf, 0x3c, 0xd7, 0x40, 0x8f, 0x3c, 0x7e, 0x42, 0xb4, 0x3d,
  0xaa, 0x35, 0xf8, 0x3d, 0x7a, 0xf0, 0xe3, 0xbd, 0x5e, 0x63, 0xe5, 0xbe,
  0xb5, 0xe9, 0xb4, 0x3d, 0x4f, 0xb1, 0xa8, 0xbe, 0xa7, 0xfb, 0xa7, 0xbe,
  0xce, 0xc6, 0x97, 0xbe, 0xd7, 0x81, 0x1b, 0x3d, 0x42, 0x85, 0x0a, 0x3e,
  0x32, 0xff, 0xa2, 0xbe, 0x1c, 0x7e, 0x09, 0xbe, 0x96, 0xbe, 0xa6, 0xbd,
  0x50, 0x17, 0xdc, 0xbd, 0xb1, 0xe5, 0xf7, 0xbd, 0x37, 0x85, 0x19, 0xbe,
  0xa1, 0x2f, 0xc4, 0x3e, 0xb0, 0xb0, 0x2c, 0x3f, 0x7c, 0xb0, 0xcf, 0xbe,
  0xa6, 0x94, 0x37, 0x3e, 0x2d, 0x08, 0x5a, 0xbe, 0x36, 0x84, 0xb2, 0x3e,
  0x2a, 0x0e, 0x46, 0x3d, 0xf4, 0xbc, 0x0f, 0x3e, 0x44, 0x46, 0x12, 0xbd,
  0xf5, 0x10, 0x48, 0xbe, 0x29, 0xb3, 0x8e, 0x3d, 0xf8, 0x07, 0x3f, 0xbe,
  0xdd, 0x9a, 0x85, 0xbe, 0xa0, 0x17, 0xc4, 0x3d, 0xa0, 0x42, 0xbb, 0x3e,
  0xec, 0x94, 0x59, 0x3e, 0xe8, 0x59, 0x3d, 0xbe, 0xbb, 0x9f, 0x20, 0xbe,
  0xb3, 0xeb, 0x81, 0xbd, 0x96, 0xb0, 0xa2, 0xbe, 0x80, 0x4b, 0x34, 0xbe,
  0xa8, 0x35, 0x42, 0x3e, 0x4e, 0x3d, 0x0d, 0xbe, 0xa3, 0x4b, 0xf4, 0xbc,
  0x93, 0x1a, 0x99, 0x3c, 0xfb, 0x18, 0x86, 0x3e, 0xf1, 0xe9, 0x80, 0xbe,
  0xc3, 0x24, 0x8f, 0xbd, 0x01, 0xc8, 0x26, 0xbe, 0x7a, 0xa6, 0xb7, 0x3d,
  0x0b, 0x9f, 0xbe, 0xbd, 0x90, 0xaa, 0x9f, 0x3b, 0x74, 0x61, 0x2f, 0x3f,
  0xc6, 0xc1, 0x6a, 0xbb, 0x86, 0x2c, 0xb5, 0xbe, 0x39, 0xd2, 0xf8, 0xbc,
  0x77, 0xa4, 0x49, 0xbe, 0x81, 0xa1, 0x55, 0x3e, 0x6d, 0x9b, 0x92, 0x3e,
  0xad, 0x01, 0x94, 0x3e, 0x27, 0xc1, 0x63, 0xbd, 0x0b, 0x7c, 0x7d, 0xbc,
  0x22, 0xf7, 0x0a, 0xbe, 0x7a, 0xa0, 0x23, 0xbe, 0x5a, 0x6c, 0x22, 0xbe,
  0x63, 0x15, 0x0e, 0x3e, 0x91, 0xba, 0x1a, 0x3e, 0x50, 0xcb, 0x21, 0xbe,
  0xee, 0x4d, 0xd6, 0xbd, 0xba, 0xfe, 0xbc, 0xbd, 0x83, 0x1e, 0x39, 0x3d,
  0x2f, 0x59, 0x26, 0xbe, 0x71, 0xbc, 0x7b, 0xbd, 0x10, 0x45, 0x00, 0xbf,
  0x74, 0xe8, 0x96, 0xbd, 0x3c, 0x39, 0xba, 0xbd, 0x5b, 0xfa, 0x36, 0xbe,
  0x15, 0x2a, 0x00, 0xbf, 0xae, 0x4c, 0x15, 0xbe, 0x5b, 0xf8, 0x50, 0xbe,
  0xba, 0x12, 0x38, 0xbd, 0x53, 0x00, 0x7f, 0xbd, 0x9b, 0xd9, 0x0c, 0xbe,
  0xb3, 0xfd, 0x30, 0xbd, 0x1c, 0x9e, 0x5c, 0x3e, 0xdb, 0x45, 0x09, 0xbf,
  0xb6, 0x7d, 0xf6, 0xbd, 0x1e, 0x51, 0x98, 0xbd, 0xc2, 0x8b, 0x6b, 0xbd,
  0xa1, 0xe8, 0xaf, 0xbd, 0x89, 0xc4, 0x85, 0x3d, 0x6a, 0x88, 0x02, 0xbf,
  0xe2, 0xb3, 0xab, 0xbd, 0xa5, 0x4f, 0xee, 0x3e, 0xb6, 0x6c, 0xa0, 0xbd,
  0xce, 0xb9, 0xa5, 0xbd, 0xac, 0xbb, 0xd0, 0x3c, 0xa6, 0xea, 0x8e, 0xbe,
  0x00, 0x06, 0x0d, 0xbe, 0xb8, 0x16, 0x20, 0xbe, 0x6b, 0x0a, 0x2f, 0x3d,
  0xac, 0xb1, 0x1f, 0x3f, 0x50, 0x53, 0xb7, 0xbd, 0x05, 0xf3, 0x78, 0x3e,
  0x01, 0x8c, 0x93, 0xbd, 0x83, 0xc8, 0x32, 0x3b, 0x41, 0xce, 0x9e, 0x3d,
  0x56, 0x60, 0x1a, 0x3e, 0x75, 0x38, 0x60, 0xbf, 0xa2, 0x44, 0x99, 0x3d,
  0xe6, 0x48, 0xbc, 0x3e, 0xff, 0x57, 0x25, 0xbe, 0x9f, 0xa0, 0x07, 0x3d,
  0x15, 0xa0, 0x9b, 0x3e, 0xb4, 0x71, 0x09, 0xbe, 0xe4, 0xbb, 0xec, 0xbb,
  0x3d, 0xb4, 0x75, 0xbe, 0xc4, 0xbb, 0x96, 0x3e, 0x8c, 0x76, 0xa7, 0xbd,
  0x7d, 0xd4, 0x19, 0xbd, 0xa6, 0xf3, 0xdc, 0xbd, 0xad, 0xd6, 0x05, 0xbf,
  0xf4, 0x3c, 0x7e, 0xbe, 0xef, 0x2a, 0xcc, 0xbe, 0x9d, 0x97, 0xaf, 0xbd,
  0xb0, 0x67, 0x94, 0x3e, 0xea, 0xbf, 0xe4, 0xbd, 0x69, 0xc6, 0x83, 0x3e,
  0xed, 0x28, 0x15, 0xbd, 0x0f, 0x85, 0x30, 0xbe, 0xf7, 0x7d, 0xb3, 0xbe,
  0xfe, 0x4c, 0x2b, 0xbf, 0x25, 0x3b, 0xac, 0x3c, 0x5f, 0x9e, 0x00, 0x3f,
  0xe5, 0xf8, 0x35, 0xbe, 0x49, 0xb7, 0x8a, 0xbd, 0x75, 0xc4, 0xd2, 0xbd,
  0x0a, 0xdf, 0xff, 0xff, 0x10, 0x00, 0x00, 0x00, 0x08, 0x00, 0x00, 0x00,
  0x1c, 0x00, 0x00, 0x00, 0x38, 0x00, 0x00, 0x00, 0x04, 0x00, 0x00, 0x00,
  0x10, 0x00, 0x00, 0x00, 0x04, 0x00, 0x00, 0x00, 0x01, 0x00, 0x00, 0x00,
  0x08, 0x00, 0x00, 0x00, 0x1a, 0x00, 0x00, 0x00, 0x73, 0x65, 0x71, 0x75,
  0x65, 0x6e, 0x74, 0x69, 0x61, 0x6c, 0x2f, 0x63, 0x6f, 0x6e, 0x76, 0x32,
  0x64, 0x5f, 0x31, 0x2f, 0x43, 0x6f, 0x6e, 0x76, 0x32, 0x44, 0x00, 0x00,
  0x04, 0xdf, 0xff, 0xff, 0xfa, 0xdf, 0xff, 0xff, 0x04, 0x00, 0x00, 0x00,
  0x80, 0x01, 0x00, 0x00, 0x96, 0x19, 0x19, 0x3f, 0x92, 0x22, 0xde, 0x3a,
  0xe0, 0xba, 0xfb, 0x3d, 0x4b, 0x76, 0x81, 0xbe, 0xb4, 0x07, 0x15, 0xbd,
  0x1a, 0x9f, 0x17, 0xbc, 0x02, 0x7e, 0x9b, 0xbe, 0xcc, 0x7d, 0xde, 0x3c,
  0xb6, 0x5f, 0x00, 0xbe, 0x0a, 0xc5, 0x42, 0xbd, 0xe8, 0xc5, 0x65, 0x3c,
  0x2d, 0x8e, 0x06, 0x3d, 0x5c, 0x28, 0x2c, 0xbe, 0x56, 0xa2, 0x2c, 0x3e,
  0x80, 0xb7, 0x60, 0x3e, 0x6c, 0x79, 0x36, 0x3e, 0xfb, 0x40, 0x4c, 0xbe,
  0xe0, 0x06, 0x1c, 0xbe, 0x41, 0x58, 0xc3, 0x3d, 0x84, 0xe6, 0x89, 0xbb,
  0x57, 0xf6, 0x2f, 0x3e, 0x3f, 0xdc, 0x25, 0xbe, 0xd1, 0x2d, 0x80, 0xbd,
  0xf2, 0x57, 0x89, 0xbe, 0x3b, 0xc3, 0x7a, 0x3e, 0x75, 0xc1, 0xda, 0x3e,
  0xde, 0x23, 0x16, 0xbe, 0xcb, 0xf8, 0x86, 0x3d, 0x70, 0x5d, 0x27, 0x3d,
  0x83, 0x88, 0xd2, 0xbd, 0x1e, 0x88, 0xcd, 0xbd, 0x82, 0x58, 0xb4, 0xbe,
  0x14, 0x2c, 0x11, 0x3e, 0x62, 0x10, 0x1b, 0xbe, 0x56, 0x9a, 0x08, 0xbe,
  0x6f, 0xb0, 0x1d, 0x3d, 0xec, 0x4e, 0x1a, 0x3e, 0xab, 0x95, 0x37, 0xbd,
  0xcf, 0x4d, 0x2a, 0xbe, 0xa2, 0x54, 0x8c, 0xbe, 0x4b, 0xac, 0x0a, 0xbe,
  0x7f, 0xae, 0x72, 0xbe, 0xc3, 0x46, 0x08, 0x3f, 0x5b, 0xdc, 0xa4, 0x3e,
  0xb8, 0x2d, 0x25, 0x3e, 0x53, 0x5b, 0x85, 0xbd, 0xe7, 0xbd, 0xd1, 0x3d,
  0xba, 0x23, 0x22, 0x3e, 0x36, 0x08, 0xae, 0xbc, 0xe1, 0x46, 0x28, 0xbe,
  0x98, 0xaa, 0x8e, 0xbe, 0x57, 0xb4, 0x9b, 0xbe, 0x0f, 0x46, 0x9e, 0xbd,
  0x1d, 0x3d, 0x11, 0xbf, 0x0d, 0xc0, 0x8a, 0x3e, 0xca, 0x83, 0x21, 0x3e,
  0x13, 0x66, 0x32, 0x3f, 0x76, 0x1f, 0xb0, 0x3d, 0x30, 0x01, 0xa4, 0x3d,
  0xda, 0x65, 0xec, 0x3d, 0xff, 0xbe, 0xa3, 0x3c, 0xd3, 0x08, 0xed, 0xbd,
  0x2e, 0x49, 0x17, 0x3e, 0xb8, 0x93, 0x22, 0x3d, 0xf0, 0x93, 0xb7, 0xbd,
  0x94, 0x5f, 0xce, 0x3d, 0xb4, 0x89, 0x2c, 0xbe, 0x17, 0x84, 0x2c, 0xbd,
  0xb6, 0x73, 0x6e, 0x3c, 0xa4, 0x26, 0xbb, 0xbd, 0x9b, 0x9b, 0xd7, 0x3d,
  0x1b, 0x7f, 0xb7, 0x3d, 0x25, 0xed, 0xa2, 0xbe, 0xd8, 0x6a, 0x0c, 0xbe,
  0x3d, 0x40, 0x99, 0xbd, 0xfb, 0xb6, 0xd3, 0xbb, 0xde, 0x1c, 0xca, 0x3d,
  0xe5, 0x17, 0x03, 0x3e, 0x04, 0x79, 0x52, 0x3e, 0xe4, 0x69, 0x1f, 0x3e,
  0x8e, 0xc3, 0xbc, 0x3d, 0x3a, 0x24, 0xbc, 0x3d, 0x71, 0xc5, 0x02, 0x3e,
  0xbe, 0x57, 0xe4, 0x3c, 0x98, 0x4f, 0xc0, 0xbd, 0x31, 0xc2, 0x9a, 0x3d,
  0x36, 0xad, 0x05, 0x3e, 0x93, 0xd7, 0xa4, 0xbd, 0x9b, 0xf9, 0x3f, 0x3d,
  0xb4, 0x71, 0x41, 0x3d, 0x4c, 0xc2, 0xa1, 0xbd, 0x2e, 0xbe, 0xa3, 0x3d,
  0x52, 0x1d, 0xb7, 0xb8, 0x14, 0x0e, 0xb1, 0xbd, 0xf7, 0x30, 0xd2, 0x3d,
  0x7b, 0xae, 0x9d, 0xbb, 0xe2, 0xe0, 0xff, 0xff, 0x10, 0x00, 0x00, 0x00,
  0x07, 0x00, 0x00, 0x00, 0x1c, 0x00, 0x00, 0x00, 0x38, 0x00, 0x00, 0x00,
  0x04, 0x00, 0x00, 0x00, 0x08, 0x00, 0x00, 0x00, 0x04, 0x00, 0x00, 0x00,
  0x03, 0x00, 0x00, 0x00, 0x01, 0x00, 0x00, 0x00, 0x18, 0x00, 0x00, 0x00,
  0x73, 0x65, 0x71, 0x75, 0x65, 0x6e, 0x74, 0x69, 0x61, 0x6c, 0x2f, 0x63,
  0x6f, 0x6e, 0x76, 0x32, 0x64, 0x2f, 0x43, 0x6f, 0x6e, 0x76, 0x32, 0x44,
  0x00, 0x00, 0x00, 0x00, 0xdc, 0xe0, 0xff, 0xff, 0xd2, 0xe1, 0xff, 0xff,
  0x04, 0x00, 0x00, 0x00, 0xc0, 0x00, 0x00, 0x00, 0x7e, 0xf1, 0x96, 0xbe,
  0xca, 0x63, 0x5b, 0x3e, 0xae, 0xd9, 0x70, 0x3e, 0x83, 0x75, 0x27, 0xbe,
  0x7b, 0x98, 0x75, 0x3e, 0x7e, 0xa4, 0x9d, 0xbe, 0x7f, 0xb8, 0x01, 0xbf,
  0x4e, 0x60, 0x71, 0xbe, 0xb2, 0x1d, 0x2c, 0x3e, 0x43, 0xd8, 0xf9, 0x3c,
  0x8c, 0x80, 0x58, 0x3e, 0x81, 0xe6, 0x55, 0x3e, 0x0a, 0x1b, 0x20, 0x3e,
  0xa1, 0x42, 0x01, 0xbe, 0xb9, 0x54, 0x52, 0xbc, 0xb1, 0xfe, 0x87, 0x3e,
  0xf8, 0x3b, 0x4d, 0x3e, 0x83, 0x3c, 0x9a, 0x3e, 0x3f, 0x93, 0xac, 0xbe,
  0xc1, 0xea, 0xc9, 0xbd, 0x13, 0xdd, 0x8d, 0x3e, 0x08, 0x84, 0x42, 0xbe,
  0x1b, 0xef, 0xe0, 0x3d, 0x61, 0x3f, 0x3d, 0xbe, 0x53, 0x7b, 0x50, 0x3e,
  0x93, 0xf1, 0x0b, 0xbe, 0x8d, 0x99, 0x8c, 0xbe, 0xc1, 0x55, 0x9e, 0xbe,
  0x1e, 0xd7, 0x47, 0xbd, 0x3c, 0x03, 0x14, 0x3c, 0x1a, 0x07, 0xb8, 0xbe,
  0xb1, 0xc3, 0x1c, 0x3c, 0x15, 0xb9, 0x22, 0x3e, 0x21, 0x92, 0x90, 0xbe,
  0x46, 0x88, 0x8a, 0xbe, 0x33, 0x8c, 0x6e, 0xbe, 0xdb, 0x2e, 0xc6, 0x3e,
  0xac, 0x56, 0xcd, 0xbe, 0x4a, 0xf4, 0x3b, 0xbe, 0x97, 0x1b, 0xbd, 0xbe,
  0x62, 0x2e, 0x9f, 0x3e, 0x4c, 0x3b, 0x0d, 0xbc, 0x88, 0x87, 0x5b, 0x3e,
  0x64, 0x4a, 0x86, 0xbc, 0x73, 0x7b, 0xb3, 0xbe, 0xc6, 0x64, 0xbb, 0x3d,
  0x0d, 0x7f, 0xbb, 0x3d, 0xb0, 0x06, 0x88, 0xbe, 0xfa, 0xe1, 0xff, 0xff,
  0x10, 0x00, 0x00, 0x00, 0x06, 0x00, 0x00, 0x00, 0x14, 0x00, 0x00, 0x00,
  0x30, 0x00, 0x00, 0x00, 0x02, 0x00, 0x00, 0x00, 0x03, 0x00, 0x00, 0x00,
  0x10, 0x00, 0x00, 0x00, 0x19, 0x00, 0x00, 0x00, 0x73, 0x65, 0x71, 0x75,
  0x65, 0x6e, 0x74, 0x69, 0x61, 0x6c, 0x2f, 0x64, 0x65, 0x6e, 0x73, 0x65,
  0x5f, 0x31, 0x2f, 0x4d, 0x61, 0x74, 0x4d, 0x75, 0x6c, 0x00, 0x00, 0x00,
  0xec, 0xe1, 0xff, 0xff, 0xe2, 0xe2, 0xff, 0xff, 0x04, 0x00, 0x00, 0x00,
  0x00, 0x1c, 0x00, 0x00, 0xb5, 0x2f, 0x6a, 0xbd, 0xce, 0x99, 0xf2, 0xbc,
  0x4d, 0x92, 0xb1, 0xbc, 0xce, 0xb8, 0xb0, 0xbd, 0xac, 0xa6, 0x71, 0xbe,
  0xfe, 0x61, 0x82, 0xbd, 0x6b, 0x28, 0xa0, 0x3d, 0xd4, 0xce, 0x0f, 0x3e,
  0x01, 0xe5, 0x8c, 0xbd, 0xd7, 0x23, 0xed, 0xbc, 0x64, 0x18, 0x0a, 0xbc,
  0xc8, 0xbb, 0x4c, 0xbe, 0xff, 0xf2, 0xf3, 0xbb, 0x3f, 0x47, 0x50, 0xbe,
  0x53, 0x7a, 0x01, 0xbe, 0xf8, 0x5f, 0x54, 0xbc, 0x4e, 0x52, 0x56, 0xbe,
  0x3f, 0xbb, 0x5f, 0xbd, 0xa9, 0x72, 0x57, 0xbe, 0xe3, 0x75, 0xae, 0xbd,
  0xbe, 0x16, 0x02, 0x3e, 0x02, 0xab, 0xb9, 0xbb, 0x74, 0x56, 0x6e, 0xbb,
  0xfe, 0xb7, 0x01, 0x3e, 0x6e, 0xd0, 0xd0, 0xbc, 0xba, 0x1f, 0xc5, 0x3d,
  0xc8, 0x52, 0x24, 0xbe, 0xf9, 0x0d, 0x3e, 0x3e, 0xfa, 0x49, 0xcb, 0xbd,
  0xab, 0xb3, 0x3f, 0xbe, 0xe4, 0x6a, 0x0a, 0xba, 0xd7, 0x15, 0x12, 0xbe,
  0xf4, 0x51, 0xec, 0x3d, 0xb7, 0xbd, 0xa0, 0x3c, 0x3b, 0xcb, 0x36, 0xbe,
  0x58, 0xd5, 0xca, 0xbd, 0x14, 0x52, 0x14, 0xbe, 0x5d, 0xab, 0x70, 0xbe,
  0x55, 0x76, 0x3e, 0xbd, 0x6a, 0xb5, 0x0b, 0xbe, 0x5e, 0x9e, 0xec, 0xbd,
  0xae, 0x2e, 0x91, 0xbe, 0xa5, 0x74, 0x08, 0x3e, 0x9f, 0xbe, 0x05, 0xbe,
  0x17, 0x64, 0xaf, 0xbd, 0x9c, 0x2a, 0x12, 0xbe, 0xa9, 0xdf, 0x27, 0xbe,
  0x8a, 0xfc, 0x35, 0xbe, 0x6f, 0x11, 0x09, 0xbe, 0x96, 0x5c, 0x97, 0x3d,
  0xc2, 0x14, 0x14, 0x3e, 0x0e, 0xb5, 0xa7, 0xbd, 0x8c, 0x90, 0xd5, 0xbd,
  0x79, 0x31, 0x1a, 0xbe, 0x7e, 0xcf, 0xf7, 0xbd, 0x6e, 0x93, 0x0b, 0x3e,
  0x77, 0x72, 0x62, 0xbe, 0xab, 0xa0, 0x8c, 0xbe, 0xf9, 0xb4, 0xe3, 0x3b,
  0x91, 0x3b, 0xe9, 0x3b, 0x26, 0xac, 0x03, 0xbe, 0xdc, 0x99, 0x01, 0xbd,
  0x0a, 0xcb, 0x16, 0xbe, 0xf0, 0x34, 0x45, 0xbe, 0xc7, 0xd5, 0x03, 0x3e,
  0x36, 0x1c, 0x57, 0xbd, 0x5d, 0x84, 0x5f, 0xbe, 0x1a, 0x20, 0x21, 0xbe,
  0xbd, 0xea, 0x36, 0xbe, 0x64, 0xf9, 0x20, 0xbe, 0x78, 0x01, 0x04, 0xbe,
  0x77, 0xb2, 0xcb, 0xbd, 0xde, 0x7d, 0x4e, 0xbd, 0x80, 0xb0, 0x5e, 0xbe,
  0xb4, 0x83, 0x5c, 0x3d, 0xca, 0xad, 0x3c, 0x3d, 0x5a, 0xe6, 0x43, 0x3d,
  0x99, 0x49, 0x13, 0xbe, 0xf5, 0x4a, 0xe9, 0xbd, 0xc1, 0x11, 0x86, 0xbe,
  0x01, 0x9c, 0x40, 0xbd, 0x1b, 0xc0, 0x3f, 0xbe, 0xfb, 0x13, 0xad, 0xbc,
  0xaf, 0x51, 0x9c, 0xbd, 0x23, 0x44, 0x31, 0xbe, 0xb4, 0x13, 0x88, 0xbe,
  0x32, 0xf3, 0x2a, 0xbe, 0x2a, 0x21, 0x58, 0xbe, 0x09, 0x4c, 0xc6, 0xbd,
  0x14, 0xc1, 0x5a, 0xbe, 0xd3, 0x23, 0x4f, 0xbd, 0xd8, 0x41, 0x13, 0xbe,
  0x66, 0x1f, 0x7a, 0xbe, 0xc5, 0x68, 0x0d, 0xbd, 0x7b, 0x7c, 0xda, 0xbd,
  0x51, 0x67, 0x8d, 0xbe, 0x01, 0x06, 0x4a, 0xbe, 0xb8, 0xee, 0x5e, 0xbe,
  0x31, 0xc7, 0x39, 0xbe, 0x01, 0x0d, 0x9f, 0xbb, 0xd8, 0xf2, 0x44, 0x3d,
  0x24, 0x29, 0x22, 0xbe, 0x17, 0x75, 0x8a, 0xbe, 0x8b, 0x35, 0x29, 0x3e,
  0x19, 0x35, 0x5a, 0xbe, 0x81, 0x32, 0x3d, 0x3d, 0xbf, 0x41, 0x53, 0xbe,
  0x11, 0xf3, 0x28, 0xbe, 0xc1, 0x65, 0x41, 0x3d, 0x09, 0xed, 0x7c, 0xbe,
  0xa6, 0x7a, 0x6d, 0xbe, 0xb8, 0xb7, 0x6e, 0xbe, 0x33, 0x6c, 0xa8, 0x3d,
  0x61, 0xff, 0xd9, 0xbd, 0x5b, 0x1e, 0xd9, 0xbd, 0xa5, 0x0f, 0xf2, 0x3c,
  0x47, 0x59, 0xf1, 0xbd, 0x91, 0xc3, 0x10, 0xbd, 0xb9, 0xc3, 0xb2, 0xbe,
  0xe8, 0x8d, 0x64, 0xbd, 0x22, 0xeb, 0x57, 0xbe, 0x19, 0x84, 0xdf, 0xbd,
  0xf1, 0xf3, 0xcb, 0x3c, 0x18, 0xa9, 0x9c, 0x3d, 0x63, 0x64, 0x13, 0xbe,
  0x61, 0x6f, 0x75, 0xbe, 0x54, 0x4c, 0x89, 0xbd, 0x07, 0x49, 0x5b, 0xbe,
  0xbf, 0xcb, 0xac, 0x3d, 0xe0, 0x24, 0x7a, 0x3c, 0x53, 0x81, 0x85, 0x3d,
  0xbd, 0x60, 0x91, 0xbe, 0x36, 0x93, 0x68, 0xbc, 0xc1, 0x92, 0x5e, 0xbe,
  0x20, 0x1a, 0x65, 0xbe, 0xcb, 0x33, 0xcf, 0x3d, 0x93, 0xbf, 0x26, 0xbd,
  0x68, 0x84, 0x49, 0xbd, 0x79, 0xa4, 0xe6, 0xbd, 0xba, 0xf7, 0xec, 0xbd,
  0x72, 0x30, 0xee, 0x3d, 0x64, 0x27, 0xcb, 0xbd, 0x24, 0xb3, 0x55, 0xbe,
  0x5f, 0x93, 0x1d, 0x3e, 0x97, 0xfc, 0xb9, 0xbd, 0xed, 0x75, 0x87, 0xbe,
  0xc5, 0x89, 0x0c, 0xbe, 0x86, 0xd2, 0x73, 0x3c, 0x96, 0xb4, 0x07, 0xbe,
  0xca, 0x46, 0xd0, 0xb8, 0xd8, 0x67, 0x33, 0xbd, 0xec, 0xaf, 0x46, 0x3e,
  0x7c, 0xe8, 0x61, 0xbe, 0xe9, 0x76, 0x40, 0x3b, 0x0c, 0x6e, 0xb2, 0x3c,
  0xad, 0x9a, 0xf5, 0xbd, 0x21, 0xa8, 0xfc, 0x3d, 0x5a, 0xb6, 0x80, 0xbd,
  0xc6, 0xc0, 0xc6, 0xbd, 0x31, 0x49, 0x93, 0x3c, 0x76, 0x09, 0xd2, 0x3d,
  0x9b, 0x07, 0x11, 0xbe, 0x25, 0x78, 0x06, 0xbd, 0x38, 0xae, 0x07, 0xbe,
  0x27, 0x76, 0xb2, 0x3d, 0xa8, 0x92, 0x22, 0x3e, 0xad, 0xcd, 0x77, 0xbe,
  0xfa, 0x45, 0x06, 0xbe, 0x4c, 0x3f, 0x11, 0xbe, 0x4a, 0x27, 0x8d, 0xbe,
  0x74, 0xee, 0xc4, 0xbd, 0x0f, 0xb0, 0x02, 0xbe, 0x2b, 0xfa, 0xf6, 0x3d,
  0x64, 0x02, 0x35, 0xbd, 0xe7, 0x35, 0xd3, 0x3d, 0xe0, 0xa5, 0xee, 0xbd,
  0xc1, 0x53, 0x32, 0x3d, 0x2c, 0x13, 0x15, 0x3e, 0x7a, 0x59, 0x94, 0xbb,
  0xe3, 0xe2, 0xfe, 0x3c, 0x47, 0x37, 0xdd, 0xbd, 0xb5, 0xf0, 0x12, 0x3d,
  0x93, 0x63, 0xac, 0xbd, 0x91, 0xcd, 0xa4, 0xbd, 0x04, 0xeb, 0xf9, 0xbd,
  0x0d, 0x50, 0x43, 0xbe, 0x59, 0xb6, 0x36, 0x3d, 0xc7, 0xbe, 0x3c, 0xbd,
  0x2e, 0xc0, 0x89, 0xbd, 0xf5, 0x03, 0x27, 0x3e, 0xa5, 0xda, 0x46, 0xbe,
  0xae, 0xf6, 0x23, 0xbd, 0xa1, 0x0b, 0xa9, 0xbd, 0x1d, 0x0b, 0xcd, 0x3d,
  0x35, 0xfe, 0x0f, 0xbd, 0xd8, 0x0d, 0x4b, 0x3c, 0x69, 0xf0, 0x3b, 0xbe,
  0x7e, 0x14, 0xee, 0xbd, 0xf3, 0xcc, 0x54, 0xbe, 0x06, 0xc0, 0x04, 0xbe,
  0x49, 0xfd, 0xc9, 0x3d, 0x07, 0x01, 0x81, 0xbd, 0x98, 0x41, 0x51, 0x3d,
  0x8d, 0x3f, 0x2e, 0x3d, 0x7d, 0x37, 0x0f, 0xbe, 0x4c, 0xd0, 0x15, 0xbe,
  0xe8, 0xdc, 0xa3, 0x3d, 0x9d, 0x16, 0xdf, 0x3d, 0x55, 0x01, 0x4f, 0xbd,
  0x6d, 0xcd, 0x50, 0x3d, 0xcf, 0x1d, 0xc0, 0xbd, 0x3d, 0x71, 0xa2, 0x3d,
  0xbf, 0xf9, 0x82, 0xbd, 0x77, 0xda, 0xf8, 0xbc, 0x04, 0xaa, 0x4b, 0xbe,
  0x93, 0x53, 0xe2, 0x3d, 0x5c, 0x61, 0x2c, 0x3d, 0xe5, 0x32, 0x8d, 0xbd,
  0x95, 0x8e, 0x51, 0x3d, 0x92, 0xcb, 0x36, 0xbc, 0xdb, 0x14, 0xd5, 0xbd,
  0xf7, 0xc1, 0x19, 0xbd, 0xa3, 0x4b, 0x64, 0xbe, 0x66, 0xb8, 0x61, 0xbd,
  0x04, 0xa7, 0xa2, 0x3b, 0x7e, 0xa3, 0x09, 0x3c, 0x60, 0x0b, 0xcf, 0x3d,
  0xc8, 0x54, 0x37, 0xbd, 0x54, 0x41, 0x54, 0xbe, 0x3b, 0x09, 0x3f, 0xbe,
  0x4a, 0x38, 0x4f, 0xbe, 0xe6, 0xcb, 0x2c, 0xbc, 0xd7, 0x47, 0x21, 0xbe,
  0x09, 0x2f, 0x07, 0xbe, 0xe2, 0x34, 0xfc, 0xbd, 0x60, 0x92, 0x80, 0xbe,
  0x84, 0x84, 0x3d, 0xbe, 0x32, 0xeb, 0x55, 0xbe, 0xdb, 0x36, 0x10, 0x3e,
  0x13, 0x9f, 0x50, 0xbe, 0x41, 0xf8, 0x31, 0xbe, 0xc4, 0x7b, 0x04, 0x3e,
  0xd4, 0xbd, 0xcd, 0x3d, 0x9b, 0x1d, 0xac, 0x3d, 0x1b, 0x72, 0x53, 0xbd,
  0x57, 0xa7, 0x09, 0x3e, 0x62, 0x18, 0x5f, 0xbd, 0x11, 0xc4, 0x9b, 0xbc,
  0xd4, 0x58, 0x11, 0x3e, 0x7d, 0xda, 0x1a, 0xbe, 0x2a, 0xa7, 0x05, 0x3b,
  0xe3, 0x4c, 0x21, 0xbb, 0xb2, 0x57, 0x2d, 0xbe, 0x20, 0x61, 0x9c, 0xbe,
  0x76, 0x7a, 0xbf, 0x3d, 0xc6, 0xb7, 0xa4, 0xbd, 0x09, 0x1a, 0x96, 0x3d,
  0xe7, 0x3e, 0x3c, 0xbe, 0x89, 0x3d, 0x79, 0xbd, 0x86, 0x5d, 0xd8, 0xbb,
  0x92, 0xc6, 0x0f, 0x3e, 0xd4, 0x33, 0x9e, 0x3c, 0x29, 0x97, 0x61, 0xbd,
  0x16, 0xd6, 0x3e, 0xbe, 0x92, 0xcf, 0x50, 0xbe, 0x76, 0x52, 0xe3, 0x3d,
  0x90, 0x32, 0x1a, 0xbe, 0x7b, 0xf5, 0xfe, 0xbb, 0xd5, 0x91, 0x21, 0x3e,
  0xfa, 0xab, 0x80, 0xbe, 0x07, 0x12, 0x4e, 0xbd, 0x06, 0x48, 0x6b, 0xbe,
  0x50, 0xf0, 0x80, 0xbc, 0x13, 0x07, 0x19, 0xbe, 0x1a, 0x4a, 0x0c, 0xbd,
  0x7a, 0x50, 0x8e, 0x3e, 0x40, 0xd6, 0x6a, 0x3e, 0x6e, 0xe2, 0x2e, 0x3e,
  0xf8, 0x78, 0x38, 0xbd, 0x09, 0xb7, 0xe7, 0x3d, 0xd3, 0xa0, 0x13, 0x3e,
  0x92, 0x94, 0x3f, 0xbe, 0x5d, 0x18, 0x31, 0xbd, 0x51, 0x06, 0x20, 0xbe,
  0xa3, 0x82, 0x38, 0xbe, 0x60, 0xd5, 0xfe, 0x3d, 0x93, 0xe5, 0xa1, 0x3d,
  0x23, 0x07, 0x4b, 0xbd, 0xa2, 0x3e, 0x21, 0xbe, 0x2f, 0x8d, 0x2a, 0x3d,
  0xa1, 0xeb, 0x96, 0xbd, 0x74, 0x8f, 0xf4, 0x3d, 0x52, 0x2c, 0x05, 0xbe,
  0xbd, 0x55, 0x74, 0xbc, 0x1e, 0x75, 0x9a, 0xbe, 0x47, 0x5e, 0x39, 0xbe,
  0x99, 0x61, 0xf6, 0xbd, 0xb8, 0x7c, 0x18, 0xbc, 0x7c, 0xe5, 0xe5, 0xbc,
  0x7b, 0x49, 0xa2, 0xbe, 0x96, 0x84, 0x84, 0xbe, 0x5c, 0xe7, 0x4a, 0xbd,
  0xc8, 0xfb, 0x29, 0x3c, 0x45, 0x46, 0x50, 0x3e, 0x6c, 0xc8, 0x12, 0xbe,
  0x50, 0xe6, 0x62, 0xbe, 0xe1, 0x38, 0xce, 0xbd, 0x10, 0x5b, 0x4c, 0x3e,
  0xd9, 0x49, 0x3b, 0x3d, 0x7e, 0x00, 0x9f, 0x3e, 0xa3, 0xb8, 0x43, 0xbe,
  0x1c, 0x8c, 0xa3, 0x3c, 0xeb, 0x2a, 0x48, 0x3d, 0xd0, 0xbd, 0x3b, 0xbc,
  0xb7, 0x42, 0x90, 0xbe, 0x47, 0x5a, 0x4b, 0xbe, 0x65, 0xf4, 0xaa, 0xbd,
  0x63, 0x4c, 0x1b, 0xbe, 0xf5, 0xed, 0x0d, 0xbe, 0xd7, 0x89, 0x6b, 0x3e,
  0xc9, 0xe3, 0xc2, 0xbd, 0x44, 0x9e, 0x80, 0xbe, 0x4d, 0xe2, 0xad, 0x3d,
  0x8a, 0x72, 0x2d, 0x3d, 0x1d, 0x61, 0x8b, 0x3d, 0x7f, 0x3e, 0xe0, 0x3d,
  0x1d, 0x62, 0xbd, 0xbd, 0x0f, 0x81, 0x09, 0x3d, 0x27, 0xd2, 0x4c, 0x3d,
  0x78, 0xf9, 0x25, 0xbe, 0x79, 0x04, 0x21, 0xbe, 0x45, 0xd6, 0xdd, 0x3d,
  0x39, 0xbb, 0x04, 0xbe, 0xc8, 0x6a, 0x51, 0x3d, 0x9f, 0x83, 0xb4, 0xbc,
  0x33, 0xfb, 0xad, 0x3d, 0xde, 0x38, 0x18, 0xbd, 0x08, 0x63, 0x12, 0xbf,
  0x73, 0x22, 0x6e, 0xbe, 0xa9, 0x54, 0x1c, 0xbf, 0x7a, 0xe6, 0xc6, 0xbd,
  0x22, 0xff, 0x65, 0xbd, 0x9d, 0x9f, 0x1f, 0x3d, 0x4a, 0x1b, 0x21, 0x3e,
  0xa6, 0xbb, 0x0b, 0x3e, 0xdc, 0xfa, 0xc5, 0xbe, 0x1f, 0xb9, 0x14, 0xbe,
  0x89, 0x6b, 0x29, 0xbd, 0xbe, 0x64, 0x46, 0xbd, 0x11, 0x76, 0x6d, 0xbd,
  0x79, 0x22, 0xf4, 0x3d, 0x4d, 0x18, 0x7e, 0x3d, 0x41, 0x31, 0x74, 0x3d,
  0x2a, 0xb1, 0xa3, 0xbe, 0xe7, 0x06, 0x6c, 0xbd, 0x91, 0x49, 0xc9, 0xbe,
  0xd0, 0x26, 0xd8, 0xbd, 0x4a, 0x07, 0xe5, 0xbd, 0x72, 0x2b, 0xab, 0xbd,
  0x1e, 0x62, 0xdb, 0x3d, 0xe9, 0x96, 0x82, 0xbd, 0xd8, 0x5a, 0xa1, 0xbe,
  0x3e, 0x8b, 0x70, 0xbd, 0x96, 0x0b, 0xc7, 0xbd, 0x79, 0x52, 0xdc, 0xbd,
  0x5d, 0x7e, 0x12, 0xbe, 0xbd, 0xd1, 0x5f, 0x3e, 0xcc, 0xf0, 0x7d, 0xbe,
  0x4a, 0x18, 0x46, 0xbe, 0x63, 0x04, 0xfd, 0xbd, 0x9b, 0x37, 0x91, 0xbe,
  0x7a, 0xbb, 0x52, 0xbe, 0x0d, 0x43, 0x45, 0xbd, 0x68, 0xd3, 0x33, 0xbe,
  0x88, 0xa3, 0x66, 0xbe, 0x0a, 0x90, 0xfc, 0xbd, 0xcc, 0x3a, 0xa3, 0x3d,
  0x9b, 0x80, 0xef, 0xbe, 0x4b, 0x30, 0xab, 0xbe, 0x67, 0xa0, 0xea, 0xbc,
  0xc2, 0xa3, 0x53, 0xbe, 0x48, 0xfc, 0x3d, 0x3e, 0x41, 0x4a, 0x88, 0x3d,
  0x4d, 0x7c, 0x4f, 0x3c, 0xb2, 0x4c, 0x0e, 0xbe, 0xdd, 0xc7, 0xad, 0xbe,
  0x7f, 0x9d, 0xa4, 0xbe, 0xf6, 0x36, 0x1c, 0xbe, 0xdd, 0xda, 0x9b, 0xbe,
  0x12, 0x62, 0x13, 0xbd, 0xe6, 0x3a, 0x7f, 0xbe, 0x94, 0x81, 0x26, 0xbe,
  0xc4, 0x29, 0xef, 0xbd, 0x88, 0x57, 0xbd, 0xbe, 0x12, 0x2b, 0xb2, 0xbe,
  0x6f, 0x15, 0x86, 0x3c, 0x64, 0x3e, 0xc0, 0xbe, 0xd2, 0xf9, 0x99, 0xbc,
  0x34, 0x03, 0x97, 0xbd, 0xfe, 0xa6, 0x79, 0xbe, 0x20, 0xb2, 0x1b, 0x3e,
  0xbe, 0xac, 0x17, 0xbe, 0x9f, 0xaf, 0x66, 0xbd, 0xf6, 0x8e, 0x1d, 0xbe,
  0xe1, 0xd4, 0x32, 0x3d, 0x6b, 0xf6, 0x82, 0xbd, 0xac, 0x5b, 0x28, 0xbd,
  0xc3, 0xa6, 0xc8, 0x3e, 0x29, 0xa9, 0x1f, 0x3e, 0xb2, 0x23, 0x57, 0xbe,
  0x0a, 0x47, 0x8b, 0xbe, 0xe7, 0x28, 0x20, 0x3e, 0x61, 0x96, 0x25, 0x3d,
  0xab, 0x7f, 0xc2, 0xbe, 0xc4, 0x21, 0x68, 0x3e, 0x75, 0xce, 0x99, 0x3a,
  0xde, 0x3b, 0x12, 0x3e, 0x26, 0xab, 0x86, 0xbd, 0x5c, 0x8b, 0xa0, 0x3d,
  0x35, 0xbf, 0xe6, 0x3c, 0x7f, 0xed, 0xd7, 0xbb, 0x2e, 0x45, 0x79, 0xbe,
  0xf0, 0xb6, 0x7e, 0xbd, 0x9b, 0x56, 0xbf, 0x3e, 0x71, 0x2f, 0x53, 0x3d,
  0x39, 0x4b, 0x92, 0x3d, 0x77, 0xeb, 0xb3, 0x3d, 0x4b, 0xb0, 0x85, 0xba,
  0x6f, 0xfa, 0x7b, 0x3e, 0x92, 0xcc, 0xa2, 0x3e, 0xf1, 0xd8, 0xf1, 0x3d,
  0x5e, 0xc4, 0xaf, 0xbd, 0xd9, 0xcd, 0xd8, 0xbd, 0x6f, 0xb1, 0xfa, 0xbd,
  0xb9, 0xcd, 0xca, 0x3d, 0xf3, 0x94, 0x18, 0xbd, 0xf6, 0xda, 0x2a, 0x3c,
  0x38, 0x0c, 0xee, 0x3d, 0xec, 0x76, 0xa9, 0x3d, 0xdd, 0x18, 0x8f, 0x3e,
  0x49, 0x7a, 0x54, 0x3e, 0x4d, 0x31, 0x26, 0xbe, 0x3c, 0xd3, 0x48, 0x3d,
  0x5d, 0x5e, 0x16, 0xbd, 0xb7, 0xa2, 0xc3, 0x3d, 0xf5, 0x07, 0x73, 0x3b,
  0x4f, 0x36, 0x8f, 0x3e, 0x7e, 0x6f, 0x29, 0xbd, 0xdd, 0x01, 0x20, 0x3e,
  0x4a, 0x80, 0x62, 0x3e, 0x88, 0x92, 0x8c, 0xbe, 0xcf, 0xaf, 0xc8, 0x3c,
  0xd1, 0x28, 0x8a, 0xbe, 0x25, 0x0c, 0x77, 0xbe, 0x1c, 0x34, 0x6b, 0xbd,
  0xcb, 0xdc, 0x7d, 0x3e, 0x51, 0xac, 0x39, 0xbe, 0xff, 0x47, 0x83, 0x3d,
  0x26, 0x2f, 0x99, 0xbe, 0xdf, 0x0e, 0x35, 0x3e, 0xc6, 0x92, 0x94, 0xbd,
  0x0e, 0x2c, 0x58, 0xbe, 0x6b, 0xbe, 0x8c, 0xbe, 0xd7, 0x58, 0xa2, 0xbe,
  0x81, 0x29, 0xd5, 0x3e, 0x07, 0x0c, 0xe1, 0xbd, 0x77, 0xe2, 0xc0, 0xbe,
  0xfb, 0x30, 0xdb, 0x3d, 0x56, 0x9e, 0x91, 0xbe, 0x5f, 0x18, 0xf1, 0xbe,
  0x5b, 0x15, 0xa5, 0xbc, 0x1f, 0x24, 0x27, 0x3e, 0xd7, 0x84, 0x5c, 0x3e,
  0x3d, 0x84, 0xe6, 0x3d, 0x13, 0x65, 0x91, 0x3e, 0xc3, 0xd0, 0xb5, 0x3d,
  0x36, 0x34, 0x74, 0xbc, 0x14, 0x00, 0x22, 0x3d, 0xee, 0x00, 0x99, 0x3e,
  0xcf, 0xf3, 0xb3, 0xbe, 0x58, 0x0f, 0x87, 0x3f, 0x97, 0x08, 0xe7, 0xbe,
  0x8c, 0x77, 0x96, 0xbe, 0xba, 0x1a, 0xa8, 0x3d, 0x83, 0x99, 0x3d, 0xbe,
  0xd2, 0x7a, 0x52, 0xbd, 0x86, 0xec, 0xe3, 0x3d, 0xb2, 0xf6, 0x9f, 0x3d,
  0xb6, 0x0d, 0xc8, 0x3e, 0xec, 0x08, 0xe0, 0x3d, 0x4a, 0x64, 0xa3, 0x3e,
  0x8d, 0xb8, 0xe1, 0x3d, 0xe0, 0xcc, 0xaf, 0x3b, 0x31, 0xa6, 0x03, 0x3e,
  0x6c, 0xd8, 0xe6, 0x3d, 0xf8, 0x6a, 0x16, 0xbd, 0x85, 0x87, 0x22, 0x3f,
  0x31, 0x6e, 0xc4, 0xbe, 0x13, 0x44, 0x4d, 0xbe, 0xd5, 0xa9, 0x92, 0x3c,
  0x3a, 0xb4, 0xdf, 0xbd, 0xf0, 0x15, 0xd0, 0x39, 0xc5, 0x78, 0xb5, 0x3c,
  0x2e, 0x89, 0x07, 0xbd, 0x0a, 0x9e, 0xa7, 0x3e, 0x4d, 0x65, 0xba, 0x3d,
  0x81, 0xe8, 0x98, 0x3e, 0xa2, 0x5b, 0x0c, 0x3e, 0x54, 0x05, 0x98, 0x3e,
  0x44, 0x67, 0x1f, 0x3e, 0xab, 0x43, 0xa8, 0x3c, 0xc5, 0xdd, 0x60, 0xbe,
  0x5f, 0xf0, 0x0d, 0x3f, 0x9f, 0x72, 0x9e, 0xbe, 0xf1, 0x33, 0xbb, 0xbe,
  0x85, 0xb8, 0xfa, 0xbb, 0x1c, 0x01, 0x58, 0xbe, 0x6d, 0x0a, 0x40, 0xbe,
  0xcb, 0xe5, 0xaa, 0x3d, 0x41, 0x5c, 0xaa, 0xbd, 0x2d, 0x30, 0x63, 0x3e,
  0xdb, 0x0d, 0x9a, 0x3d, 0xf5, 0x90, 0x6c, 0x3e, 0x44, 0x5b, 0xd0, 0x3d,
  0x8a, 0x63, 0x73, 0xbd, 0xd3, 0x8f, 0xae, 0x3c, 0x0d, 0x95, 0xfb, 0xbd,
  0x20, 0xa3, 0xaf, 0xbe, 0x28, 0x1f, 0xd5, 0x3e, 0x16, 0x3a, 0x8a, 0xbe,
  0x42, 0xa2, 0x02, 0xbf, 0x41, 0x4e, 0x57, 0x3c, 0x27, 0x2f, 0x9e, 0xbe,
  0xba, 0x41, 0x45, 0xbe, 0x5d, 0x8b, 0x26, 0x3d, 0x56, 0xf5, 0x93, 0xbd,
  0x49, 0x83, 0xd6, 0xbc, 0x38, 0x72, 0x0f, 0x3d, 0x52, 0xe0, 0x1c, 0x3d,
  0xe3, 0x1a, 0xa0, 0x3c, 0x30, 0xf6, 0x83, 0xbd, 0x0e, 0xeb, 0x98, 0x3d,
  0x8a, 0x5e, 0x5f, 0xbe, 0x47, 0x1f, 0xc8, 0xbe, 0x5f, 0x9d, 0x2c, 0x3e,
  0xb6, 0xaa, 0x9a, 0xbe, 0xcf, 0xb5, 0xb4, 0xbe, 0xbb, 0x83, 0x76, 0x3d,
  0xf0, 0x72, 0xb1, 0xbe, 0x70, 0xef, 0x0e, 0x3c, 0xc8, 0x03, 0xa1, 0x3c,
  0xda, 0x7f, 0x9f, 0xbe, 0x9b, 0x5c, 0xca, 0x3d, 0x6b, 0xb8, 0x0b, 0x3d,
  0xd4, 0x6e, 0x9d, 0xbc, 0x1a, 0x9e, 0x1e, 0x3e, 0xef, 0xe4, 0x1d, 0xbe,
  0x95, 0xe8, 0xfa, 0x3c, 0xb7, 0xef, 0xf6, 0xbe, 0x75, 0x3b, 0x40, 0xbe,
  0xf4, 0x47, 0x61, 0x3e, 0x84, 0xa4, 0xdd, 0xbe, 0xb9, 0x8e, 0xc5, 0xbd,
  0xfb, 0xee, 0x4c, 0xbf, 0x0e, 0x8f, 0x34, 0xbd, 0xc2, 0x31, 0x4a, 0xbe,
  0xd4, 0x37, 0x32, 0xbd, 0x05, 0x77, 0x9e, 0xbe, 0xca, 0x50, 0x68, 0xbe,
  0x41, 0xeb, 0xcb, 0xbe, 0xef, 0x6a, 0xb4, 0xbe, 0xf3, 0x4d, 0x45, 0xbe,
  0xb4, 0xf9, 0x77, 0xbd, 0x2c, 0x53, 0x40, 0xbe, 0xc0, 0xf9, 0x5a, 0xbd,
  0x6b, 0xa1, 0x52, 0xbe, 0xc8, 0x8e, 0x87, 0xbc, 0x2a, 0x2b, 0x5b, 0xbe,
  0xee, 0xe5, 0xcb, 0xbd, 0x26, 0xcd, 0xa1, 0xbe, 0x11, 0x9a, 0xb8, 0xbc,
  0x68, 0x2e, 0xb0, 0xbc, 0x7b, 0x9a, 0xc4, 0xbd, 0xbe, 0x4a, 0x1b, 0xbe,
  0x39, 0x89, 0xfa, 0xbc, 0x39, 0x34, 0x26, 0xbe, 0x85, 0xcb, 0x9d, 0xbe,
  0x2c, 0x9d, 0xb4, 0x3c, 0x33, 0x4a, 0xbf, 0xbb, 0x35, 0xe1, 0xc2, 0x3d,
  0xc3, 0x72, 0xf0, 0x3b, 0x42, 0xcf, 0x59, 0xbd, 0x44, 0x60, 0xd2, 0x3d,
  0x9e, 0x8c, 0xc3, 0xbe, 0x31, 0xa0, 0x07, 0xbe, 0x1a, 0x86, 0xd8, 0xbe,
  0xb9, 0x20, 0x58, 0xbe, 0xef, 0x2c, 0xe9, 0xbd, 0xeb, 0x44, 0xdb, 0xbd,
  0xd6, 0x07, 0x94, 0xbe, 0x02, 0xfa, 0x66, 0x3c, 0x1d, 0x89, 0x88, 0xbe,
  0x5d, 0xa2, 0x06, 0xbe, 0x7f, 0x3e, 0x54, 0x3e, 0xba, 0xf6, 0xa6, 0xbd,
  0x30, 0x51, 0x07, 0x3c, 0xb2, 0xd3, 0xc1, 0xbe, 0xc5, 0x93, 0x3e, 0xbe,
  0x91, 0x76, 0xfa, 0xbc, 0x80, 0x48, 0xad, 0xbe, 0x50, 0x17, 0xf2, 0xbe,
  0x1b, 0xb7, 0x8f, 0xbe, 0xbe, 0x44, 0xce, 0xbe, 0x79, 0xe1, 0xcc, 0xbd,
  0x2e, 0xdd, 0x8a, 0xbe, 0x68, 0x6f, 0xb5, 0x3e, 0xe4, 0x94, 0x25, 0xbe,
  0xc0, 0x58, 0xa7, 0xbe, 0x18, 0xc6, 0x18, 0xbf, 0xe7, 0x73, 0xa0, 0xbc,
  0x60, 0x3b, 0xca, 0xbe, 0x93, 0xf8, 0x4a, 0xbe, 0xe9, 0xb8, 0x2e, 0x3e,
  0x44, 0xe8, 0x1b, 0x3e, 0x6b, 0x16, 0xcd, 0xbd, 0x91, 0x06, 0x19, 0xbe,
  0x0a, 0x3d, 0xf2, 0x3b, 0xcd, 0x7b, 0xab, 0xbe, 0xf8, 0xb0, 0xdb, 0xbd,
  0xb2, 0x8f, 0x90, 0xbd, 0x23, 0x3c, 0xb3, 0x3d, 0x5a, 0x21, 0xc4, 0x3e,
  0x51, 0x9a, 0xb0, 0x3a, 0xdc, 0xc8, 0x5f, 0xbe, 0xf6, 0xac, 0x84, 0x3d,
  0xd1, 0x03, 0x8b, 0xbb, 0x00, 0x8d, 0x53, 0x3e, 0x60, 0x0d, 0x1d, 0x3e,
  0x23, 0xdb, 0x20, 0x3e, 0x5c, 0x6e, 0x35, 0x39, 0x63, 0xec, 0x63, 0x3d,
  0xee, 0x3a, 0x26, 0xbe, 0x94, 0xb5, 0xaf, 0xbd, 0x44, 0xe3, 0x15, 0x3e,
  0x1c, 0x2e, 0xc4, 0xbd, 0x2a, 0x2c, 0x04, 0xbe, 0x7c, 0xe9, 0x9b, 0xbc,
  0x46, 0x26, 0xfd, 0x3e, 0x28, 0x8e, 0x69, 0x3e, 0x1e, 0x13, 0x0c, 0xbe,
  0xd5, 0x67, 0xde, 0x3c, 0xd0, 0xad, 0x92, 0xbd, 0xb4, 0x2d, 0x12, 0x3e,
  0xb0, 0x33, 0x45, 0x3e, 0x42, 0xef, 0x41, 0x3d, 0xc7, 0xdf, 0x8a, 0x3d,
  0x95, 0x4f, 0xe4, 0x3d, 0xf7, 0xb2, 0x87, 0x3e, 0x30, 0x70, 0x16, 0x3e,
  0xae, 0x04, 0x9d, 0x3e, 0x35, 0x77, 0xd7, 0x3b, 0x64, 0xec, 0x92, 0x3d,
  0xed, 0x6f, 0x33, 0x3e, 0xbb, 0xab, 0x05, 0x3f, 0x03, 0xa3, 0x52, 0xbc,
  0xd8, 0x28, 0x37, 0x3e, 0x26, 0xd4, 0x7d, 0x3c, 0x95, 0x55, 0xf4, 0x3d,
  0x72, 0x52, 0x50, 0x3e, 0x05, 0xea, 0xb1, 0x3c, 0xa7, 0xc4, 0x5d, 0x3e,
  0xce, 0xd0, 0xeb, 0x3d, 0xe8, 0x7c, 0x15, 0x3e, 0x8f, 0x93, 0xca, 0x3d,
  0xec, 0x1b, 0xea, 0xbc, 0x9e, 0x8b, 0x81, 0xbe, 0x5a, 0x21, 0xfb, 0x3a,
  0xec, 0xca, 0x6a, 0xbe, 0xfb, 0xe6, 0x8e, 0xbe, 0xbe, 0xb1, 0x30, 0x3e,
  0xd7, 0x40, 0xf3, 0xbd, 0xb3, 0xa5, 0x0c, 0xbe, 0xdd, 0x41, 0x3d, 0xbd,
  0xbe, 0x0f, 0xb5, 0x3d, 0xeb, 0x9a, 0x8a, 0xbe, 0xb3, 0xb1, 0xfd, 0xbd,
  0x1f, 0x43, 0xfa, 0x3d, 0x17, 0xb1, 0x90, 0x3c, 0x4e, 0xb4, 0xac, 0xbc,
  0xc3, 0xd9, 0x82, 0xbd, 0xb8, 0xd7, 0x21, 0x3d, 0x20, 0xe0, 0x7f, 0xbe,
  0x8a, 0xf6, 0x02, 0x3e, 0xb6, 0x0c, 0x3d, 0xbe, 0x6a, 0x0a, 0xb3, 0xbe,
  0xe3, 0x50, 0x0d, 0xbe, 0xa0, 0xe3, 0x42, 0x3d, 0x2f, 0x91, 0xe5, 0xbd,
  0xca, 0x7f, 0x37, 0x3d, 0x22, 0xb8, 0xf2, 0x3d, 0xd6, 0x81, 0x5a, 0xbd,
  0xc5, 0xb5, 0x99, 0x3d, 0xc7, 0xc7, 0xc5, 0xbd, 0x6e, 0xf1, 0x0f, 0xbe,
  0x64, 0x1a, 0x20, 0xbe, 0xdb, 0x7b, 0xbd, 0x3d, 0x82, 0xd5, 0x13, 0x3e,
  0x99, 0x03, 0xc7, 0xbc, 0x45, 0x37, 0x13, 0xbe, 0x17, 0xa7, 0x9f, 0x3d,
  0x94, 0x0e, 0xe4, 0xbe, 0xe7, 0xe0, 0xe3, 0x3d, 0xa8, 0x4f, 0x22, 0x3d,
  0x7a, 0x25, 0x40, 0xbe, 0x0a, 0x40, 0x4e, 0xbd, 0x77, 0xa5, 0x20, 0xbe,
  0x42, 0xbf, 0xf4, 0xbd, 0xe4, 0xf7, 0x23, 0xbe, 0x56, 0xcf, 0x98, 0xbd,
  0x20, 0xbd, 0x0a, 0xbe, 0xe1, 0x24, 0x8d, 0xbc, 0x7a, 0x6a, 0x50, 0xbe,
  0x64, 0xcd, 0x88, 0xbe, 0xc2, 0x02, 0xef, 0x3d, 0x19, 0x84, 0x88, 0x3d,
  0xe5, 0x80, 0x54, 0xbe, 0xa0, 0xbe, 0xb1, 0xbe, 0xf2, 0x81, 0x86, 0xbc,
  0x6b, 0x16, 0xf0, 0xbd, 0xef, 0x79, 0x24, 0xbe, 0xb5, 0x0d, 0x9e, 0xbc,
  0xb3, 0xf5, 0x06, 0x3e, 0x23, 0xa8, 0x63, 0xbe, 0x60, 0x5b, 0x28, 0xbd,
  0xe3, 0xb6, 0x1a, 0x3d, 0x7f, 0x60, 0xc2, 0x3d, 0x07, 0xff, 0xd1, 0x3d,
  0xc5, 0x90, 0x09, 0x3e, 0xb6, 0x7b, 0x41, 0xbe, 0x8a, 0xa8, 0x06, 0xbd,
  0x0a, 0xd9, 0xfb, 0xbc, 0x3c, 0xaf, 0x92, 0xbb, 0x7e, 0x2e, 0x03, 0xbe,
  0x0b, 0xd3, 0xf6, 0xbd, 0x87, 0x53, 0x57, 0xbe, 0x5e, 0x44, 0x15, 0xbd,
  0xc1, 0x42, 0x48, 0xbe, 0xd6, 0x99, 0xd4, 0x3d, 0xde, 0x4a, 0x45, 0xbe,
  0x5c, 0x19, 0x11, 0x3d, 0x78, 0x83, 0x3d, 0x3e, 0xe1, 0xab, 0x88, 0xbe,
  0x9d, 0x32, 0x96, 0xbd, 0xd1, 0xa7, 0x01, 0x3e, 0x61, 0xbb, 0x28, 0x3d,
  0x94, 0x1a, 0x61, 0xbd, 0x38, 0xc0, 0xf2, 0xbc, 0x9d, 0x53, 0x6a, 0xbe,
  0x2c, 0xdf, 0x9c, 0xbc, 0x6d, 0x69, 0x34, 0xbe, 0x30, 0x23, 0x46, 0xbe,
  0x2f, 0xc7, 0x36, 0xbd, 0xd5, 0xaa, 0x9f, 0x3c, 0xe5, 0x47, 0x0f, 0xbe,
  0x79, 0x76, 0x08, 0xbd, 0x46, 0xe2, 0x0c, 0xbd, 0x89, 0x1c, 0x8b, 0xbd,
  0x58, 0xb6, 0x80, 0x3b, 0x68, 0x9d, 0x9b, 0x3d, 0x35, 0x43, 0x8d, 0x3d,
  0x9c, 0x9d, 0x86, 0xbd, 0x92, 0x81, 0x40, 0xbe, 0xaf, 0xad, 0x49, 0xbe,
  0x7d, 0x9a, 0x10, 0xbe, 0x81, 0x00, 0x7b, 0xbe, 0x4e, 0xd8, 0x2a, 0x3e,
  0xd8, 0xf6, 0x04, 0x3d, 0x4a, 0xb3, 0xb2, 0xbd, 0x24, 0x55, 0xde, 0xbc,
  0x5f, 0x22, 0xf6, 0x3c, 0x0f, 0xaa, 0x87, 0x3d, 0xb9, 0xa9, 0xdf, 0xbd,
  0xf3, 0xf8, 0xf6, 0xbd, 0x67, 0xc6, 0x81, 0xbd, 0x38, 0x96, 0xc0, 0xbd,
  0x3a, 0x66, 0xc8, 0xbe, 0xa5, 0x60, 0x63, 0xbe, 0x8e, 0x75, 0x6e, 0xbf,
  0x0c, 0x24, 0xe1, 0xbd, 0xd9, 0x40, 0x40, 0x3d, 0x90, 0x63, 0x0a, 0xbb,
  0xe3, 0x07, 0x0d, 0x3e, 0x91, 0x54, 0x66, 0xbd, 0x51, 0x5b, 0x7a, 0xbe,
  0x5f, 0xc1, 0x10, 0xbe, 0x6e, 0x9a, 0x02, 0xbe, 0x20, 0x77, 0x3d, 0xbc,
  0x76, 0x2f, 0x88, 0xbd, 0x48, 0xb9, 0xae, 0xba, 0xd3, 0x49, 0x78, 0xbe,
  0x21, 0xe0, 0x20, 0x3d, 0x12, 0x3a, 0xbd, 0xbe, 0x74, 0x7a, 0xb3, 0x3c,
  0xd1, 0x6e, 0x32, 0xbe, 0xa3, 0x14, 0xb2, 0xbd, 0x31, 0xfe, 0x78, 0xbc,
  0xfa, 0xc8, 0x21, 0xbe, 0xfd, 0xbd, 0xfe, 0xbd, 0xfd, 0x76, 0xc5, 0xbb,
  0xc6, 0x51, 0x9c, 0xbe, 0xde, 0x7e, 0x74, 0xbd, 0x91, 0x53, 0x30, 0xbe,
  0xd4, 0x80, 0x47, 0xbe, 0xcd, 0x4f, 0x89, 0x3d, 0xc4, 0xa9, 0xde, 0x3d,
  0x27, 0x68, 0x8b, 0xbe, 0x94, 0x9c, 0xab, 0x3b, 0xb5, 0xa0, 0xcb, 0xbe,
  0xec, 0x16, 0x84, 0xbe, 0xf1, 0x40, 0x16, 0xbf, 0x9f, 0x11, 0xbf, 0xbe,
  0xdb, 0x9e, 0x82, 0xbe, 0x0f, 0x7c, 0x4c, 0xbe, 0xbc, 0xc0, 0xe7, 0xbd,
  0x40, 0xa6, 0x42, 0xbd, 0xcf, 0x7f, 0xc7, 0xbe, 0x9f, 0xf9, 0x89, 0xbc,
  0x60, 0x50, 0x4d, 0x3d, 0xd3, 0xf0, 0xb6, 0xbc, 0x97, 0xbd, 0x9f, 0x3d,
  0xa4, 0x21, 0x95, 0xbd, 0x82, 0x87, 0xef, 0xbc, 0x3c, 0xda, 0x1b, 0xbd,
  0x37, 0x14, 0x44, 0xbe, 0x32, 0x0a, 0x07, 0xbf, 0x71, 0xa9, 0x0f, 0xbf,
  0x5e, 0x9f, 0xc5, 0xbe, 0x78, 0xa7, 0xfd, 0xbd, 0x0f, 0x26, 0x9b, 0xbe,
  0x57, 0xc1, 0x68, 0x3c, 0xb5, 0x9c, 0xf4, 0xbc, 0xfd, 0xb5, 0xc6, 0xbe,
  0x20, 0x0a, 0x19, 0xbf, 0x6a, 0x2b, 0xcf, 0x3c, 0x0c, 0x91, 0x95, 0xbe,
  0x86, 0xd5, 0x0d, 0x3e, 0x89, 0xc5, 0x34, 0x3e, 0x66, 0x6b, 0x95, 0xbd,
  0xd9, 0x5e, 0x09, 0xbe, 0xc8, 0x7d, 0x75, 0xbd, 0x32, 0xf9, 0xa2, 0x3d,
  0x07, 0xe9, 0x01, 0xbe, 0xe5, 0x76, 0x26, 0xbe, 0xa1, 0x6a, 0xf7, 0xbd,
  0x0e, 0xe8, 0x4c, 0xbd, 0x33, 0x4e, 0xdb, 0x3e, 0xc4, 0xf0, 0x30, 0x3e,
  0xf4, 0x10, 0x38, 0xbe, 0x32, 0x4c, 0xf5, 0xbd, 0xea, 0xf8, 0x9e, 0x3d,
  0xef, 0x3b, 0x8c, 0x3e, 0x80, 0xba, 0x04, 0x3e, 0x1c, 0xc8, 0xf5, 0x3d,
  0xca, 0xc2, 0x0a, 0x3e, 0x68, 0x2d, 0x42, 0x3e, 0xe7, 0xde, 0xa1, 0x3c,
  0x3c, 0xf9, 0x5a, 0x3d, 0xd8, 0xba, 0xbd, 0x3d, 0xc7, 0x6e, 0xe9, 0x3c,
  0xef, 0xa0, 0x8c, 0xbe, 0x23, 0x69, 0x10, 0x3e, 0x6e, 0x7d, 0x8d, 0x3e,
  0xde, 0x67, 0x35, 0x3e, 0x35, 0x40, 0x42, 0xbd, 0x88, 0x1f, 0x84, 0x3d,
  0xf4, 0xa2, 0xec, 0x3c, 0xf3, 0xdc, 0x58, 0x3e, 0x02, 0x4f, 0xf0, 0x3d,
  0x63, 0x45, 0x99, 0x3d, 0xb8, 0x0c, 0xc2, 0x3d, 0x55, 0x89, 0xaf, 0xbd,
  0xeb, 0x77, 0x43, 0x3e, 0x28, 0x96, 0x4d, 0x3e, 0xfc, 0x91, 0x52, 0x3e,
  0x64, 0x11, 0x04, 0x3d, 0xd8, 0xd2, 0x02, 0xbd, 0x59, 0xd1, 0xa4, 0x3d,
  0x5c, 0x02, 0x37, 0x3f, 0x1d, 0x3d, 0xfb, 0xbd, 0xec, 0xa8, 0x5a, 0xbd,
  0xab, 0x10, 0xb2, 0x3c, 0x8f, 0x1a, 0xc6, 0x3c, 0x84, 0x2d, 0x6b, 0xbc,
  0xac, 0x7b, 0xd2, 0x3b, 0x61, 0xae, 0x91, 0x3e, 0xfc, 0x9f, 0x9a, 0x3d,
  0xd8, 0xf6, 0xa0, 0x3e, 0x58, 0xfc, 0x4d, 0x3e, 0x1e, 0x18, 0x8a, 0xbe,
  0x16, 0x7a, 0xa7, 0x3d, 0xe7, 0x7c, 0xb2, 0xbe, 0x95, 0x55, 0xa1, 0xbe,
  0xef, 0x47, 0x00, 0xbd, 0xc4, 0x7c, 0x8e, 0x3e, 0x53, 0xe8, 0x6e, 0xbe,
  0x39, 0xca, 0x8d, 0x3d, 0x54, 0xde, 0xd6, 0xbe, 0xe1, 0xa9, 0x65, 0x3e,
  0x2f, 0x7e, 0xca, 0xbd, 0x48, 0x83, 0xa1, 0xbe, 0x05, 0x57, 0xcb, 0xbe,
  0x77, 0x07, 0xbc, 0xbe, 0x02, 0x0c, 0x22, 0x3f, 0xfd, 0x86, 0xc5, 0xbe,
  0xf9, 0xb7, 0x60, 0xbe, 0x0b, 0x82, 0x23, 0x3c, 0xa6, 0xac, 0x7b, 0xbe,
  0xfb, 0xbd, 0x56, 0xbf, 0x3a, 0xda, 0x83, 0xb9, 0xe8, 0x20, 0x84, 0x3e,
  0x00, 0xc6, 0x87, 0x3e, 0xe2, 0x5e, 0xf6, 0x3d, 0x9b, 0x1f, 0x2c, 0x3e,
  0x80, 0x9d, 0x28, 0x3e, 0x47, 0x72, 0xb1, 0x3c, 0x86, 0xe0, 0x6a, 0x3e,
  0x53, 0x58, 0x73, 0x3e, 0x1e, 0x74, 0xcb, 0xbe, 0xb4, 0x48, 0x82, 0x3f,
  0xff, 0xa3, 0xf9, 0xbe, 0x3e, 0x5d, 0x81, 0xbe, 0x46, 0xb5, 0xe2, 0x3d,
  0x7b, 0x25, 0xb2, 0xbe, 0x9d, 0x60, 0x0b, 0xbd, 0x02, 0x97, 0x1a, 0x3e,
  0x25, 0xaa, 0x85, 0x3d, 0xa1, 0x19, 0x94, 0x3e, 0xc2, 0x59, 0xd7, 0x3d,
  0xd4, 0x36, 0x8c, 0x3e, 0xa2, 0x61, 0xe7, 0x3d, 0x83, 0x43, 0x44, 0x3d,
  0xb0, 0xa5, 0x9b, 0x3d, 0x74, 0xe0, 0x42, 0x3e, 0x92, 0xee, 0xb7, 0x3c,
  0x15, 0xe9, 0x55, 0x3f, 0x99, 0xcd, 0xad, 0xbe, 0x9b, 0x19, 0x80, 0xbe,
  0xe1, 0x0c, 0x3c, 0x3d, 0xae, 0x83, 0xee, 0xbd, 0x1e, 0x77, 0xbb, 0xbd,
  0xb2, 0x58, 0xd7, 0x3d, 0x6d, 0x77, 0x4a, 0xbe, 0xc9, 0xf7, 0xbe, 0x3e,
  0x91, 0xb4, 0xdd, 0x3d, 0x03, 0xb8, 0xc0, 0x3e, 0xbf, 0xbd, 0xbb, 0x3d,
  0xfb, 0x34, 0x9d, 0x3e, 0xe7, 0x29, 0x4d, 0x3e, 0x1b, 0x50, 0xe9, 0x3c,
  0x07, 0x0b, 0x93, 0xbe, 0x65, 0x11, 0x34, 0x3f, 0x7f, 0x5f, 0x6f, 0xbe,
  0x1a, 0xeb, 0xf9, 0xbe, 0x6f, 0xe8, 0xd7, 0xbb, 0x7c, 0xf2, 0x9f, 0xbe,
  0x65, 0x78, 0x7f, 0xbe, 0x44, 0x17, 0x57, 0x3d, 0x56, 0x43, 0xe8, 0xbd,
  0x5d, 0x10, 0x78, 0x3d, 0xca, 0x39, 0xce, 0x3d, 0x77, 0xf1, 0x74, 0x3e,
  0x79, 0x79, 0x36, 0x3d, 0x8b, 0xf4, 0x86, 0xbc, 0x79, 0xb1, 0x01, 0x3d,
  0x48, 0xa6, 0xbb, 0xbd, 0x80, 0x41, 0xe0, 0xbe, 0x68, 0x94, 0xec, 0x3e,
  0xaa, 0x8d, 0xf5, 0xbe, 0x29, 0xa0, 0x03, 0xbf, 0xb7, 0x58, 0x39, 0xbb,
  0xd4, 0xaf, 0xf5, 0xbe, 0xe9, 0x00, 0xd9, 0xbe, 0x2f, 0x8b, 0xbc, 0xbc,
  0x98, 0x85, 0xf3, 0x3c, 0x67, 0x4f, 0xb8, 0xbd, 0xe5, 0xb6, 0xae, 0x3d,
  0xf9, 0x08, 0x00, 0xbd, 0x4d, 0x21, 0x7a, 0x3d, 0xf5, 0x91, 0xab, 0xbb,
  0xfe, 0x69, 0x3d, 0x3d, 0xdb, 0x40, 0x59, 0xbe, 0xde, 0xca, 0xe8, 0xbe,
  0x66, 0x34, 0x4c, 0x3c, 0x15, 0x22, 0xa4, 0xbe, 0x1c, 0xe1, 0xf3, 0xbe,
  0xc6, 0xa8, 0x65, 0xbd, 0xb1, 0x79, 0xa3, 0xbe, 0xa8, 0x48, 0xd7, 0xbb,
  0x87, 0x9d, 0x18, 0x3d, 0x70, 0xc5, 0x90, 0xbe, 0x08, 0xdc, 0x35, 0x3e,
  0x59, 0x43, 0x14, 0x3d, 0xcb, 0xfb, 0x87, 0xbc, 0x32, 0x5d, 0x2f, 0x3e,
  0xef, 0x80, 0x91, 0xbe, 0x7d, 0x51, 0xad, 0xb9, 0x00, 0x05, 0x00, 0xbf,
  0x03, 0x1a, 0x26, 0xbe, 0xe3, 0x4f, 0xd1, 0xbd, 0x2d, 0x39, 0x6e, 0xbc,
  0x57, 0xf2, 0x79, 0xbd, 0xf2, 0x7f, 0x20, 0x3e, 0x84, 0x27, 0x92, 0xb8,
  0x9f, 0x4c, 0xd7, 0x3d, 0xcb, 0xdf, 0x00, 0xbe, 0x86, 0x54, 0x05, 0xbf,
  0x8c, 0xb1, 0x83, 0xbe, 0x60, 0x09, 0x12, 0x3d, 0xfa, 0x99, 0x15, 0xbd,
  0x26, 0x4a, 0xa5, 0xbc, 0x4d, 0x89, 0x8a, 0xbe, 0x64, 0xef, 0x4a, 0xbe,
  0xbb, 0x8c, 0xb4, 0xbd, 0xea, 0xca, 0x6a, 0x3d, 0xc2, 0x71, 0x74, 0xbe,
  0x30, 0x49, 0x8f, 0x40, 0x23, 0x6e, 0x60, 0x3e, 0x3b, 0x3e, 0x93, 0x3e,
  0xaf, 0x7c, 0x24, 0x3c, 0x6a, 0x9f, 0x85, 0x3d, 0xb1, 0xe8, 0x9b, 0x3d,
  0xe6, 0xdb, 0x30, 0x3d, 0x09, 0x9c, 0x50, 0xbe, 0x0c, 0xc7, 0xd8, 0x3c,
  0x7f, 0x00, 0x4f, 0xbe, 0x4c, 0x7a, 0x40, 0xbd, 0x98, 0x12, 0x08, 0xbe,
  0xa3, 0xcc, 0xcd, 0xbd, 0x5d, 0x7f, 0xbf, 0x3d, 0x10, 0x97, 0x93, 0x3c,
  0x93, 0x55, 0x11, 0xbe, 0x8f, 0xb0, 0x07, 0x40, 0x79, 0xa9, 0x43, 0x3f,
  0xb5, 0xbf, 0xf4, 0x3e, 0x80, 0x5d, 0xd5, 0x3e, 0xba, 0x08, 0x18, 0x3e,
  0x81, 0x8a, 0x7f, 0x3d, 0xfd, 0x7f, 0xdd, 0xbc, 0xc2, 0xd6, 0x1b, 0xbe,
  0x4e, 0xa8, 0x34, 0x3b, 0x78, 0x3f, 0x12, 0x3e, 0x0c, 0xf8, 0x0f, 0xbd,
  0x05, 0x7b, 0xeb, 0x3d, 0xa4, 0xb2, 0x3e, 0x3e, 0x6f, 0x6b, 0x23, 0x3e,
  0xf1, 0x71, 0x18, 0x3e, 0x67, 0x81, 0xe3, 0xbe, 0x9b, 0x4b, 0x38, 0x40,
  0x76, 0xff, 0x2b, 0x3f, 0xc3, 0xff, 0x34, 0x3f, 0xed, 0x6d, 0xa1, 0x3e,
  0xcd, 0xdb, 0x60, 0x3e, 0x94, 0xd7, 0x49, 0x3d, 0xea, 0xd0, 0x85, 0xbe,
  0xc9, 0x80, 0x07, 0xbf, 0x9d, 0xc7, 0x08, 0x3d, 0x6b, 0x3f, 0xd8, 0x3d,
  0xc5, 0xf2, 0xb4, 0xbc, 0x53, 0x2d, 0xf5, 0xbd, 0xa4, 0xfc, 0x83, 0x3e,
  0xfd, 0x72, 0x74, 0xbe, 0xae, 0xcf, 0x6e, 0x3d, 0xb2, 0x65, 0x95, 0xbe,
  0xde, 0x90, 0x07, 0x40, 0x9c, 0x21, 0x87, 0x3b, 0x2b, 0x1c, 0xa1, 0x3f,
  0x83, 0x72, 0x2e, 0x3d, 0x31, 0xbd, 0xbe, 0x3e, 0x91, 0x73, 0x56, 0x3d,
  0x77, 0x1b, 0x64, 0xbf, 0x88, 0xbb, 0x06, 0xbf, 0xaa, 0x36, 0x2a, 0x3a,
  0x76, 0x04, 0x24, 0xbe, 0x15, 0x08, 0x24, 0x3d, 0x86, 0xcd, 0xea, 0xbe,
  0xe9, 0xec, 0x82, 0xbd, 0xf3, 0x10, 0x14, 0xbf, 0x69, 0x75, 0x85, 0x3e,
  0x07, 0x04, 0x47, 0xbe, 0x61, 0x32, 0x2e, 0x3f, 0x79, 0x70, 0xba, 0x3b,
  0x58, 0x58, 0x76, 0x3e, 0xc6, 0x53, 0x99, 0x3d, 0xc1, 0xf3, 0xc6, 0x3e,
  0x37, 0x65, 0x18, 0xbc, 0x84, 0xfa, 0x34, 0xbe, 0xa4, 0x74, 0xd0, 0xbe,
  0x0c, 0x7c, 0x5d, 0x3c, 0x7d, 0x43, 0x81, 0xbd, 0x80, 0x34, 0x86, 0x3d,
  0xc2, 0x8a, 0xb6, 0xbe, 0x72, 0x05, 0x6c, 0xbe, 0xbf, 0x27, 0x98, 0x3a,
  0x16, 0x43, 0x9c, 0x3d, 0x1a, 0x5b, 0x7c, 0xbd, 0xe8, 0xab, 0xe7, 0x3f,
  0x02, 0xb4, 0xa7, 0xbc, 0xaa, 0x69, 0x8b, 0x3e, 0xb5, 0x1d, 0xdf, 0x3c,
  0x1b, 0xcf, 0x97, 0xbc, 0xae, 0xde, 0x56, 0x3c, 0x7a, 0x50, 0x5e, 0xbe,
  0x4c, 0x8c, 0x3d, 0xbe, 0xd5, 0xa8, 0xcd, 0x3a, 0xb9, 0xcb, 0xf0, 0x3b,
  0xd2, 0x63, 0xaa, 0xbb, 0x06, 0x7a, 0x1a, 0xbe, 0x49, 0x06, 0x8e, 0xbd,
  0x9c, 0xee, 0x53, 0xbd, 0x5d, 0x0a, 0x08, 0x3d, 0xd6, 0xa1, 0x96, 0x3d,
  0x1c, 0x41, 0x3a, 0xbe, 0xdc, 0x0b, 0xfc, 0xbd, 0x87, 0x24, 0x4b, 0xba,
  0xf3, 0x7f, 0xb5, 0xbc, 0x7b, 0x95, 0x5d, 0xbe, 0x04, 0x64, 0xea, 0xbd,
  0x74, 0xcc, 0x4e, 0xbe, 0xd7, 0x94, 0xdf, 0x3d, 0xf3, 0xbf, 0x9a, 0xbd,
  0xdb, 0x05, 0x6c, 0xbe, 0x9b, 0x4b, 0xfd, 0xbd, 0x96, 0xfa, 0x95, 0xbc,
  0xc7, 0x67, 0xa4, 0xbe, 0x4a, 0x3e, 0x00, 0xbe, 0xe5, 0x55, 0x69, 0x3c,
  0x40, 0x4f, 0x4a, 0xbe, 0xef, 0x0a, 0xcd, 0xbd, 0xb5, 0xf3, 0x4b, 0xbd,
  0xf5, 0x43, 0x48, 0xbe, 0x8e, 0xc2, 0x91, 0x3d, 0x23, 0x4f, 0x14, 0x3d,
  0x45, 0x8f, 0x7c, 0xbe, 0xd7, 0xce, 0xfa, 0x3d, 0x99, 0xde, 0xf9, 0xbd,
  0xdd, 0x48, 0x16, 0xbe, 0x40, 0xf9, 0x56, 0xbe, 0xef, 0xf8, 0xdd, 0xbd,
  0x11, 0xf1, 0x56, 0xbe, 0xbe, 0x4c, 0x1d, 0xbe, 0x4d, 0x0d, 0x47, 0xbe,
  0x92, 0xbe, 0xd4, 0xbb, 0x3b, 0x21, 0xbd, 0xbd, 0x66, 0x26, 0x3c, 0x3e,
  0x32, 0x3f, 0x3c, 0xbe, 0xe8, 0x09, 0xa8, 0xbd, 0xae, 0x57, 0x1e, 0xbe,
  0x2c, 0x1c, 0x20, 0xbe, 0x68, 0x03, 0x3a, 0xbe, 0x69, 0x91, 0x5c, 0xbe,
  0xd1, 0x4d, 0xae, 0xbd, 0x83, 0x86, 0xa1, 0xbe, 0xce, 0xea, 0x81, 0xbd,
  0xf2, 0x31, 0x42, 0x3d, 0x5f, 0x6f, 0x7d, 0xbe, 0x02, 0xbf, 0x1e, 0x3d,
  0x5a, 0x22, 0x46, 0x3e, 0xaf, 0xfa, 0x57, 0xbe, 0x77, 0x3f, 0x79, 0x3d,
  0x9d, 0x6c, 0xa5, 0xbb, 0x0b, 0x28, 0x90, 0xbd, 0xb1, 0x2f, 0x67, 0xbe,
  0x00, 0x39, 0x1c, 0x3e, 0x3a, 0xff, 0xba, 0xbc, 0x2c, 0x05, 0x81, 0xbd,
  0x92, 0x94, 0x0e, 0xbe, 0xa8, 0x7e, 0x23, 0x3c, 0x16, 0xcc, 0x3f, 0xbd,
  0x81, 0x3a, 0x3a, 0x3d, 0x2f, 0xd2, 0xa8, 0x3d, 0x48, 0x06, 0x43, 0xbe,
  0x6d, 0xd1, 0x3e, 0xbe, 0x89, 0x44, 0x93, 0x3d, 0x70, 0x3b, 0x4f, 0xbe,
  0x0b, 0xc8, 0x20, 0x3e, 0x78, 0x71, 0x43, 0x3c, 0x57, 0x77, 0x02, 0x3d,
  0x44, 0x6f, 0x75, 0xbe, 0x41, 0xb6, 0x81, 0xbd, 0xe7, 0x4c, 0x22, 0xbe,
  0xbf, 0xff, 0xc4, 0xbe, 0x19, 0x33, 0xe6, 0xbc, 0xff, 0xe9, 0x30, 0xbd,
  0xf9, 0x26, 0x21, 0xbd, 0xc8, 0x35, 0xc3, 0xbd, 0x0a, 0x4e, 0x39, 0xbc,
  0x5e, 0x58, 0x0e, 0x3e, 0x68, 0xde, 0x93, 0xbd, 0xd4, 0xa5, 0xf7, 0x3d,
  0x76, 0x96, 0x1d, 0x3e, 0xd4, 0xa0, 0x75, 0xbd, 0x0d, 0xe9, 0x15, 0xbe,
  0x44, 0x6a, 0x3e, 0xbe, 0x40, 0x8c, 0xce, 0x3c, 0xd4, 0x6a, 0x7d, 0xbd,
  0x24, 0xe4, 0x39, 0xbe, 0xc2, 0xc9, 0x93, 0xbe, 0xff, 0xce, 0xc8, 0x3d,
  0xb8, 0xac, 0xeb, 0xbc, 0xb2, 0xca, 0x83, 0xbe, 0x5d, 0xfd, 0x44, 0x3d,
  0x54, 0x85, 0x1f, 0xbe, 0xc6, 0x43, 0x71, 0xbe, 0xbf, 0xef, 0x6c, 0xbe,
  0x70, 0x1e, 0x64, 0xbc, 0xdb, 0xca, 0x5e, 0x3d, 0x67, 0x87, 0x61, 0xbe,
  0x9f, 0xe3, 0x82, 0xbd, 0x07, 0xc3, 0xf4, 0xbd, 0x50, 0x9f, 0x84, 0xbe,
  0xe1, 0xdf, 0xd4, 0xbb, 0x29, 0x30, 0x71, 0x3d, 0x2d, 0x87, 0x0b, 0xbe,
  0x20, 0xf1, 0x8a, 0xbd, 0x54, 0x13, 0x06, 0x3e, 0x02, 0x77, 0xf2, 0xbd,
  0x3d, 0x83, 0x94, 0x3d, 0x23, 0xaf, 0xf2, 0xbd, 0x59, 0x30, 0x28, 0x3c,
  0x6f, 0x9a, 0x1f, 0xbe, 0xca, 0xc9, 0x21, 0xbe, 0xa0, 0x12, 0x75, 0xbe,
  0x2d, 0x7b, 0x1e, 0xbe, 0x35, 0xd8, 0x99, 0xbe, 0xc8, 0x06, 0xdd, 0x3d,
  0x98, 0x07, 0x2c, 0xbe, 0x13, 0x52, 0xdb, 0x3c, 0xa8, 0xb4, 0x05, 0x3e,
  0x0e, 0xfc, 0xcf, 0xbe, 0x26, 0x6b, 0x42, 0xbe, 0xbc, 0xcd, 0x15, 0xbb,
  0x8b, 0xd4, 0xcd, 0xbc, 0x34, 0xda, 0x66, 0xbe, 0x31, 0xee, 0x64, 0xbd,
  0x00, 0x07, 0x6d, 0xbe, 0xbd, 0x60, 0x64, 0xbe, 0x86, 0x61, 0x54, 0x3c,
  0x96, 0x2f, 0x47, 0xbe, 0x37, 0x7c, 0xce, 0x3c, 0xfe, 0x86, 0xe6, 0x3d,
  0x7e, 0x79, 0x27, 0xbe, 0x73, 0xa7, 0xcf, 0xbd, 0xc6, 0xbb, 0x24, 0xbe,
  0xe5, 0x66, 0x92, 0xbe, 0xc8, 0x97, 0x0f, 0xbe, 0xb6, 0xc3, 0xfb, 0xbd,
  0x3a, 0x00, 0x42, 0xbd, 0x4f, 0xbf, 0x09, 0xbe, 0xdb, 0x95, 0xc2, 0x3d,
  0xd9, 0xa6, 0x06, 0xbd, 0x3d, 0x27, 0x12, 0x3e, 0x79, 0x0a, 0xff, 0xbc,
  0x28, 0x80, 0xa3, 0x3c, 0x30, 0x9d, 0x4f, 0xbe, 0xfd, 0x08, 0x73, 0x3c,
  0x58, 0x37, 0x4b, 0x3e, 0xac, 0x4e, 0x99, 0xbd, 0x14, 0xb4, 0x14, 0x3e,
  0xde, 0x41, 0x3e, 0x3d, 0x94, 0x03, 0xbf, 0x3d, 0x63, 0xc4, 0x93, 0xbe,
  0x36, 0xa4, 0x17, 0x3e, 0x8c, 0x6a, 0x6e, 0xbe, 0x7a, 0x93, 0x57, 0xbe,
  0x46, 0x47, 0xb5, 0x3d, 0x3b, 0x6d, 0xb3, 0xbd, 0x05, 0xce, 0xbc, 0x3d,
  0x73, 0xcc, 0xb4, 0xbd, 0x39, 0x98, 0x48, 0x3d, 0x0c, 0x96, 0xb8, 0xbd,
  0x2f, 0x72, 0x29, 0x3d, 0x0e, 0x93, 0xf5, 0x3d, 0x08, 0x3d, 0x9c, 0x3d,
  0x12, 0x02, 0x30, 0xbd, 0xfa, 0xfd, 0x02, 0xbd, 0xd3, 0xaa, 0xe7, 0xbd,
  0xd3, 0x85, 0xb5, 0xbe, 0x2c, 0x0b, 0x34, 0x3c, 0xb2, 0xed, 0x38, 0x3e,
  0x2e, 0xdc, 0xa6, 0xbe, 0xed, 0x5d, 0x94, 0xbd, 0xef, 0x5c, 0x41, 0x3e,
  0x72, 0x51, 0x25, 0xbe, 0x55, 0x92, 0x29, 0xbe, 0x7e, 0xd1, 0x2c, 0xbd,
  0x2e, 0x6c, 0x9d, 0xbd, 0xe7, 0x88, 0x45, 0xbe, 0xc3, 0x91, 0xe1, 0xbc,
  0x4b, 0x5d, 0xf0, 0xbd, 0xa9, 0xaf, 0x2a, 0xbe, 0x51, 0xeb, 0xe4, 0xbd,
  0x02, 0x40, 0xed, 0x3c, 0xf6, 0xb5, 0xee, 0xbe, 0xd1, 0x9d, 0xda, 0xbd,
  0xfa, 0xb8, 0x85, 0xbd, 0x4e, 0xa9, 0x8b, 0xbe, 0x97, 0x38, 0x84, 0x3d,
  0xa8, 0x87, 0xdc, 0xbc, 0xed, 0x7d, 0x5a, 0xbe, 0xb9, 0x1c, 0xb5, 0xbc,
  0x5c, 0x76, 0xd4, 0x3d, 0x7b, 0x58, 0xee, 0x3c, 0x2d, 0x83, 0x01, 0x3e,
  0x42, 0x44, 0x7f, 0xbd, 0x0a, 0x5e, 0xe3, 0x3d, 0x20, 0xf9, 0xbd, 0x3d,
  0x0a, 0xf5, 0xb8, 0xbd, 0x0a, 0x9d, 0xa3, 0xbd, 0x93, 0x8e, 0x71, 0xbe,
  0xe8, 0x2e, 0xa7, 0xbd, 0xbb, 0x00, 0x62, 0xbe, 0xa2, 0x1d, 0x31, 0xbc,
  0xd3, 0x73, 0x81, 0xbc, 0xdf, 0xf3, 0xf8, 0x3d, 0xb6, 0xb0, 0x10, 0xbe,
  0x68, 0x89, 0x0a, 0xbe, 0x92, 0x39, 0x1d, 0xbe, 0xef, 0x3c, 0x1a, 0xbe,
  0x33, 0x71, 0x1e, 0xbe, 0x98, 0xbb, 0x4e, 0xbe, 0x01, 0xea, 0x7b, 0xbe,
  0x2f, 0x94, 0x35, 0xbe, 0x97, 0x6b, 0xa2, 0x3d, 0x86, 0x0a, 0x77, 0xbe,
  0xbc, 0x73, 0x55, 0xbe, 0xa1, 0x3b, 0x09, 0x3e, 0x97, 0x79, 0x39, 0xbd,
  0x3a, 0xec, 0x05, 0x3c, 0x81, 0x0a, 0xf6, 0xbd, 0xd4, 0xb9, 0xee, 0xbd,
  0x50, 0x7c, 0x00, 0x3d, 0xfe, 0x32, 0x47, 0xbe, 0xd9, 0x9d, 0x15, 0x3e,
  0xe7, 0xa2, 0x1c, 0xb8, 0xfa, 0x63, 0x69, 0x3d, 0x07, 0x1b, 0xee, 0xbd,
  0x0c, 0xe4, 0x27, 0xbe, 0x6f, 0xd7, 0xf8, 0xbd, 0xa2, 0x58, 0xef, 0xbc,
  0xe5, 0x25, 0x78, 0x3e, 0x08, 0xb2, 0x60, 0xbe, 0xd9, 0x59, 0x17, 0xbe,
  0xc8, 0x53, 0xcc, 0xbd, 0xcf, 0xa9, 0x2e, 0xbe, 0x11, 0xe8, 0x31, 0xbd,
  0xdf, 0x73, 0x7c, 0xbe, 0x4a, 0x85, 0x9c, 0xbe, 0x33, 0x09, 0x43, 0xbe,
  0x9c, 0x59, 0x9a, 0x3c, 0xd6, 0x76, 0x5e, 0x3d, 0xe8, 0xbe, 0x0b, 0x3e,
  0xca, 0x24, 0x0b, 0x3e, 0x49, 0x22, 0x06, 0xbc, 0xe8, 0xcd, 0x65, 0x3d,
  0x54, 0xc8, 0x35, 0xbe, 0x3e, 0xda, 0x08, 0x3e, 0x90, 0xbb, 0x88, 0xbe,
  0xf3, 0xe3, 0xf4, 0xbd, 0x93, 0x56, 0xa4, 0x3d, 0x0a, 0x7b, 0xe5, 0xbd,
  0xfa, 0xa4, 0x42, 0xbd, 0xf7, 0x8d, 0x98, 0xbd, 0x7a, 0xde, 0x18, 0xbc,
  0xe5, 0x65, 0x0b, 0xbd, 0x0b, 0xec, 0x44, 0x3e, 0xc8, 0x54, 0xdb, 0xbd,
  0x87, 0x89, 0x65, 0xbd, 0x8e, 0xc0, 0xf9, 0xbc, 0xb0, 0xa5, 0x89, 0x3e,
  0x9b, 0xbb, 0x5f, 0xbe, 0x33, 0x84, 0x1f, 0x3e, 0x64, 0x60, 0x63, 0xbe,
  0xe9, 0x2e, 0x81, 0xbe, 0x44, 0xe8, 0xa5, 0x3d, 0x49, 0xe3, 0x46, 0xbe,
  0xfe, 0x5a, 0x3c, 0xbe, 0xf5, 0x07, 0x65, 0xbe, 0x17, 0x6a, 0x6f, 0xbd,
  0x2e, 0x04, 0x54, 0x3e, 0xd7, 0x10, 0x00, 0xbd, 0xe5, 0xb1, 0x6b, 0xbd,
  0x35, 0x51, 0x37, 0x3e, 0xdb, 0x2d, 0x01, 0xbe, 0x5f, 0xd2, 0x42, 0x3e,
  0xb5, 0x53, 0x6c, 0xbd, 0x42, 0xa2, 0x69, 0x3d, 0x94, 0x11, 0xd3, 0xbb,
  0xfe, 0x72, 0x03, 0x3c, 0x36, 0x58, 0x8b, 0xbe, 0x4d, 0x64, 0x43, 0xbe,
  0xa8, 0xca, 0x44, 0xbe, 0x53, 0x2f, 0x0f, 0xbe, 0x61, 0xef, 0x71, 0x3d,
  0x3d, 0x48, 0xea, 0xbd, 0xa5, 0xcf, 0xd4, 0x3d, 0x69, 0xf3, 0x01, 0xbe,
  0xbe, 0x48, 0x4c, 0x3d, 0x75, 0x15, 0x07, 0xbe, 0xc9, 0xd3, 0x9b, 0xbd,
  0x85, 0xbe, 0x4e, 0xbc, 0x38, 0x23, 0x10, 0xbe, 0xb8, 0xaf, 0x94, 0xbd,
  0xa4, 0x2a, 0x61, 0x3a, 0xc7, 0xf1, 0xbe, 0xbd, 0x9a, 0x87, 0x8b, 0xbe,
  0x03, 0x1f, 0x1f, 0xbd, 0xcb, 0xa0, 0xa7, 0xbd, 0xf6, 0x5d, 0x93, 0xbc,
  0xfa, 0x7b, 0xeb, 0x3d, 0x69, 0x41, 0x32, 0x3e, 0x89, 0xd2, 0x1f, 0x3e,
  0x19, 0x37, 0xb1, 0x3d, 0x63, 0xbb, 0x3d, 0xbe, 0x7c, 0xee, 0xb9, 0xbb,
  0x09, 0x4b, 0x63, 0x3d, 0x77, 0xf4, 0x33, 0xbe, 0x57, 0xb1, 0x61, 0xbc,
  0x90, 0x87, 0x3b, 0x3d, 0x08, 0xb2, 0x2c, 0x3c, 0x1a, 0xf1, 0xbe, 0xbd,
  0xd9, 0xf0, 0x8e, 0xbe, 0x5b, 0xae, 0x1a, 0x3c, 0x4d, 0xe4, 0x0e, 0xbe,
  0xd6, 0xb8, 0xfe, 0x3d, 0x21, 0x47, 0x39, 0xbd, 0x9f, 0x98, 0x03, 0x3e,
  0x51, 0x52, 0x04, 0x3c, 0xd0, 0x02, 0x89, 0xbe, 0x08, 0x1f, 0x45, 0xbe,
  0xe3, 0x33, 0xa2, 0x3d, 0x3e, 0xf9, 0xfa, 0xbc, 0x9d, 0xd9, 0x73, 0xbe,
  0xe8, 0xbd, 0x07, 0x3e, 0x50, 0x67, 0xed, 0x3d, 0x89, 0x62, 0x52, 0x3d,
  0xcb, 0xd2, 0xa4, 0xbd, 0x20, 0x09, 0x55, 0xbe, 0xfa, 0xf9, 0x54, 0xbd,
  0x41, 0xc3, 0xd8, 0x3c, 0xbb, 0xb9, 0x46, 0xbe, 0x13, 0x12, 0x5d, 0xbe,
  0xb5, 0x2f, 0x81, 0xbd, 0xb1, 0x97, 0x46, 0xbe, 0x79, 0xd2, 0x1d, 0xbe,
  0x03, 0x2a, 0x8e, 0xbd, 0x57, 0x2d, 0x5e, 0x3d, 0x13, 0x87, 0x40, 0xbe,
  0x0b, 0x2a, 0xa2, 0xbd, 0xc3, 0x1c, 0x48, 0x3d, 0xfe, 0x71, 0xc4, 0x3c,
  0xc5, 0xf9, 0xce, 0xbc, 0x62, 0x4f, 0x46, 0x3d, 0x5f, 0x52, 0x9e, 0xbb,
  0xaa, 0xe3, 0x23, 0xbe, 0x19, 0x39, 0x18, 0x3e, 0x13, 0x3f, 0x32, 0xbe,
  0xe3, 0xb8, 0x07, 0xbe, 0x03, 0x22, 0x30, 0xbe, 0xbc, 0xb9, 0x56, 0xbe,
  0x80, 0x39, 0x89, 0xbe, 0xf6, 0x26, 0x27, 0x3e, 0x88, 0x74, 0xac, 0xbd,
  0x67, 0x36, 0x23, 0xbe, 0x81, 0xa9, 0xe8, 0xbc, 0x8f, 0x49, 0x47, 0xbe,
  0xc1, 0x78, 0x84, 0x3d, 0x50, 0x13, 0x64, 0xbe, 0x1c, 0xd8, 0xc5, 0xbd,
  0x0d, 0xe1, 0xe9, 0xbd, 0xcb, 0xb1, 0x6e, 0xbe, 0x65, 0x0d, 0x7e, 0xbd,
  0xdc, 0x10, 0x4a, 0xbe, 0x70, 0x0d, 0x35, 0x3d, 0x05, 0x32, 0x78, 0xbd,
  0xdd, 0xd9, 0x4f, 0x3d, 0x30, 0x93, 0xa1, 0xbd, 0x20, 0x5a, 0xc5, 0x3d,
  0x0b, 0x36, 0x58, 0xbe, 0x37, 0x8e, 0x2b, 0xbd, 0x75, 0xc7, 0xb4, 0xbd,
  0x71, 0x3e, 0x50, 0x3c, 0x70, 0xda, 0x40, 0xbd, 0xac, 0x9b, 0xe4, 0xbd,
  0x20, 0xa2, 0x0a, 0xbe, 0x9e, 0x01, 0xaf, 0xbe, 0xc7, 0x3f, 0x8f, 0x3c,
  0x3c, 0xf9, 0x0f, 0x3d, 0x07, 0xec, 0x20, 0xbe, 0xe6, 0x00, 0x5c, 0xbc,
  0x39, 0xbf, 0x93, 0xbd, 0x8f, 0xfa, 0x9d, 0xbd, 0x04, 0x29, 0xe4, 0xbd,
  0xd1, 0x5a, 0x25, 0xbd, 0xa4, 0x36, 0x0d, 0xbd, 0x42, 0xb2, 0x95, 0x3d,
  0xb2, 0x43, 0x76, 0xbd, 0x42, 0x1f, 0x82, 0x3d, 0xa1, 0xca, 0x65, 0xbe,
  0xa7, 0x35, 0x65, 0xbd, 0x40, 0x6f, 0x5e, 0xbc, 0x9e, 0x50, 0xb1, 0xbe,
  0xb8, 0x57, 0x7b, 0xbd, 0xc6, 0x5d, 0x42, 0x3e, 0xfe, 0x29, 0xa0, 0xbe,
  0xd9, 0x98, 0x9d, 0x3c, 0x69, 0x4f, 0xd3, 0x3d, 0x40, 0xf3, 0x0f, 0x3e,
  0x0d, 0x34, 0x25, 0xbe, 0xe6, 0x9e, 0xc8, 0x3d, 0x32, 0xbc, 0x0c, 0x3c,
  0x16, 0x4a, 0x2a, 0xbd, 0xd1, 0xf5, 0x4f, 0xbe, 0x6a, 0x50, 0xc0, 0x3d,
  0xc3, 0x06, 0x91, 0xbd, 0xa2, 0x40, 0xe0, 0x3c, 0xac, 0x6b, 0x0d, 0x3e,
  0x66, 0x40, 0xf1, 0xbe, 0x98, 0x04, 0x14, 0x3d, 0x58, 0xf9, 0x40, 0xbe,
  0x66, 0x72, 0xe9, 0x3c, 0xbd, 0x5f, 0x1b, 0xbc, 0xc5, 0x52, 0x3e, 0xbd,
  0xc8, 0x92, 0x3a, 0xbe, 0x4f, 0xe3, 0x9b, 0xbd, 0x12, 0x6c, 0x4d, 0xbd,
  0x68, 0x78, 0x57, 0xbe, 0xc6, 0x84, 0x0d, 0xbe, 0xa6, 0x0e, 0x9c, 0x3b,
  0x4c, 0x89, 0x09, 0xbe, 0xec, 0x0c, 0x35, 0xbe, 0x71, 0xeb, 0x62, 0xbe,
  0xcd, 0x76, 0x09, 0xbe, 0x43, 0x3d, 0xa0, 0xbe, 0x5e, 0xc2, 0x30, 0xbc,
  0x72, 0xb1, 0x1a, 0x3e, 0x8a, 0x52, 0x6f, 0xbe, 0x10, 0xfa, 0x28, 0x3d,
  0xb1, 0x61, 0xdf, 0xbc, 0xdb, 0x93, 0x2b, 0xbe, 0xc5, 0xe8, 0xb9, 0x3d,
  0x17, 0xe3, 0x2a, 0x3e, 0xfe, 0xd1, 0xa3, 0xbc, 0x5e, 0x9c, 0x69, 0xbc,
  0x1b, 0x82, 0xe3, 0x3d, 0x90, 0x7a, 0x02, 0xbe, 0xdf, 0x87, 0x18, 0x3d,
  0xf0, 0x4d, 0x7a, 0xbd, 0x86, 0x1d, 0x40, 0xbd, 0xe7, 0xfe, 0xb9, 0xbe,
  0xf1, 0x5e, 0x13, 0x3e, 0x90, 0xbc, 0x71, 0xbe, 0x70, 0x2b, 0x74, 0xbe,
  0xfe, 0xb2, 0x36, 0x3c, 0x71, 0x5d, 0x2d, 0x3d, 0xa1, 0xdf, 0xf8, 0x3d,
  0x2b, 0x35, 0x76, 0x3d, 0xda, 0x2f, 0x51, 0x3e, 0x70, 0x4d, 0x89, 0x3d,
  0xaa, 0x3e, 0x1b, 0x3e, 0x05, 0xce, 0x30, 0x3e, 0x44, 0x73, 0xb4, 0x3b,
  0x46, 0x9d, 0x59, 0xbe, 0x8b, 0x41, 0x01, 0xbe, 0xe1, 0xef, 0x48, 0x3d,
  0xe1, 0xd1, 0x5b, 0xbe, 0x39, 0x72, 0x1a, 0x3d, 0x49, 0xf3, 0x8e, 0x3d,
  0xa3, 0x8e, 0xf7, 0xbc, 0xdf, 0x0e, 0x71, 0xbd, 0x56, 0x37, 0x09, 0x3e,
  0x0e, 0xcb, 0x9d, 0xbd, 0x13, 0xd5, 0x83, 0xbe, 0xd0, 0x5f, 0x8d, 0x3d,
  0x33, 0xa8, 0x81, 0xbd, 0x18, 0x68, 0x9d, 0x3d, 0x96, 0x00, 0x88, 0x3d,
  0x2a, 0x63, 0x2a, 0x3d, 0xbe, 0x67, 0xbf, 0x3d, 0x74, 0xd6, 0x49, 0xbe,
  0x98, 0x05, 0x5b, 0xbe, 0x15, 0xbb, 0x0f, 0x3d, 0x41, 0xe1, 0xa9, 0x3d,
  0xef, 0x5e, 0xf6, 0xbd, 0xf4, 0xe3, 0x25, 0x3e, 0x1a, 0x61, 0xfa, 0x3d,
  0x55, 0x7e, 0x04, 0x3e, 0x3d, 0x64, 0x28, 0xbe, 0xab, 0x72, 0x42, 0xbe,
  0xcc, 0x8e, 0x10, 0xbd, 0x76, 0x7c, 0x90, 0xbc, 0xbb, 0x1d, 0x0e, 0x3e,
  0x72, 0x6f, 0x05, 0x3e, 0xa3, 0x63, 0x48, 0x3c, 0x01, 0x51, 0x39, 0xbe,
  0x81, 0x10, 0x57, 0xbe, 0xb2, 0xf4, 0x21, 0x3e, 0xbf, 0xe9, 0x86, 0xbe,
  0x4a, 0x78, 0x0e, 0xbe, 0x8e, 0xf4, 0x4c, 0xbc, 0x96, 0x13, 0x8f, 0xbd,
  0xf8, 0x07, 0xb3, 0xbd, 0xda, 0x48, 0x83, 0x3e, 0x24, 0xfc, 0x45, 0xbe,
  0x66, 0xb6, 0xbc, 0xbd, 0x78, 0x4f, 0x57, 0xbe, 0xcf, 0x75, 0x08, 0x3e,
  0x80, 0x46, 0x17, 0xbe, 0x1a, 0x94, 0x5f, 0x3d, 0xbf, 0x9f, 0x5b, 0xbe,
  0x1e, 0x7c, 0x27, 0x3d, 0x43, 0x8a, 0x3d, 0xbc, 0xb1, 0x0a, 0x24, 0xbe,
  0x8c, 0x55, 0x55, 0xbe, 0x1b, 0xbb, 0x85, 0x3d, 0xcc, 0x44, 0x48, 0xbe,
  0x21, 0x50, 0x39, 0xbe, 0xdb, 0xd3, 0xeb, 0xbd, 0x0c, 0xae, 0xcc, 0x3c,
  0x43, 0x99, 0x67, 0xbe, 0xc4, 0x76, 0xe1, 0xbd, 0x02, 0x83, 0x0c, 0x3d,
  0xc9, 0x1c, 0xa6, 0x3c, 0x4a, 0xf1, 0x3d, 0x3e, 0x7a, 0x10, 0x02, 0x3e,
  0x01, 0x2b, 0xd6, 0xbd, 0xd3, 0x35, 0x4c, 0xbe, 0x8a, 0x70, 0xb1, 0x3d,
  0xa7, 0x51, 0xd5, 0x3d, 0xfd, 0x6b, 0x6f, 0xbe, 0xdb, 0x8f, 0x18, 0x3e,
  0x14, 0xc1, 0x00, 0x3e, 0xc4, 0xf2, 0x1c, 0xbe, 0xcf, 0x4b, 0x87, 0xbd,
  0xcf, 0x5c, 0xb8, 0x3d, 0x7c, 0x63, 0xdb, 0x3d, 0x19, 0x2c, 0x88, 0xbe,
  0x95, 0x0c, 0xc4, 0xbd, 0xc0, 0x29, 0x5f, 0xbe, 0x3b, 0xf5, 0x11, 0xbd,
  0xf0, 0x4a, 0x85, 0x3d, 0xcf, 0x01, 0xb7, 0x3c, 0x38, 0x34, 0x8e, 0xbe,
  0xd6, 0x21, 0x40, 0xbe, 0x53, 0x9d, 0xb3, 0x3c, 0x51, 0x5c, 0x8b, 0xbe,
  0x25, 0x50, 0x86, 0x3d, 0xba, 0x36, 0x2f, 0xbd, 0x01, 0x76, 0x4e, 0xbe,
  0x3e, 0x65, 0xf7, 0xbc, 0x40, 0x41, 0xa8, 0x3e, 0x00, 0x23, 0x9d, 0xbd,
  0xc8, 0xb2, 0x3b, 0x3d, 0x8b, 0xdf, 0x96, 0xbb, 0xfe, 0x8a, 0xfb, 0x3c,
  0x2d, 0xbb, 0x8d, 0xbc, 0x02, 0x55, 0x2c, 0xbe, 0x6d, 0x42, 0x42, 0xbe,
  0x2a, 0x86, 0x8f, 0x3d, 0x53, 0x8b, 0x0d, 0xbe, 0x57, 0xb1, 0x45, 0xbd,
  0x0b, 0xd4, 0x84, 0xbd, 0x7f, 0x38, 0x4f, 0xbe, 0x19, 0xad, 0x03, 0xbe,
  0x17, 0xaf, 0xa9, 0x3d, 0xc1, 0x88, 0x39, 0xbe, 0x50, 0x66, 0xf7, 0x3d,
  0xd0, 0x3f, 0xfe, 0xbd, 0x9e, 0x85, 0xe2, 0xbd, 0x5f, 0x25, 0x1c, 0xbe,
  0x10, 0x9c, 0xff, 0xbd, 0x3e, 0x28, 0xee, 0x3d, 0xca, 0x87, 0xbe, 0xbd,
  0x54, 0x87, 0x6b, 0xbc, 0xe9, 0x3d, 0x94, 0xbe, 0xe0, 0x14, 0x1a, 0xbe,
  0x75, 0xed, 0xf8, 0xbd, 0x7e, 0x3a, 0x5f, 0xbe, 0x69, 0x3c, 0xd3, 0xbd,
  0x0a, 0x81, 0x24, 0xbe, 0x1e, 0x33, 0x2f, 0xbe, 0xe9, 0x07, 0x39, 0xbe,
  0x1a, 0xe5, 0x15, 0xbe, 0xf1, 0xe2, 0x62, 0xba, 0xc9, 0x4a, 0x93, 0xbe,
  0xc4, 0xdb, 0xe6, 0x3d, 0x9e, 0x99, 0x52, 0x3d, 0x10, 0x05, 0x07, 0x3d,
  0xb7, 0x37, 0x3b, 0xbe, 0xa1, 0xcd, 0x5b, 0x3d, 0x5a, 0x08, 0x5c, 0xbe,
  0xc1, 0x0a, 0x0a, 0xbd, 0x05, 0xd8, 0x36, 0x3d, 0x52, 0x8b, 0xef, 0xbd,
  0x8f, 0x17, 0x2b, 0x3e, 0x06, 0x55, 0xba, 0x3d, 0x9e, 0x5e, 0xde, 0x3c,
  0x53, 0x5a, 0x4a, 0x3c, 0xf4, 0xc8, 0x5c, 0xbd, 0x98, 0x7d, 0x29, 0xbe,
  0xcb, 0x69, 0x98, 0xbe, 0xe6, 0x38, 0xe8, 0x3d, 0xb0, 0x23, 0x55, 0x3d,
  0xd6, 0xb9, 0x5f, 0xbe, 0x85, 0x09, 0x72, 0x3c, 0xa1, 0x6b, 0x0a, 0x3d,
  0xc0, 0x57, 0xeb, 0x3c, 0x3d, 0x3a, 0x44, 0xbe, 0x77, 0xd7, 0x0b, 0x3d,
  0x57, 0xca, 0x3e, 0xbe, 0x5a, 0x87, 0xb2, 0xbd, 0x74, 0x75, 0xb5, 0xbd,
  0x2e, 0x03, 0x91, 0xbc, 0x7b, 0x96, 0xb5, 0x3d, 0xbc, 0x3f, 0x07, 0xbd,
  0x63, 0xfb, 0x3f, 0xbd, 0x13, 0x76, 0x19, 0xbe, 0xe4, 0x3a, 0xe4, 0xba,
  0x0f, 0xd4, 0x57, 0xbe, 0xd1, 0x32, 0x13, 0x3e, 0x57, 0xd5, 0x26, 0xbe,
  0x17, 0x09, 0xb9, 0xbd, 0x50, 0x2d, 0x7b, 0xbd, 0x43, 0xcf, 0x29, 0xbe,
  0xe9, 0xbe, 0x58, 0xbc, 0x3c, 0xc4, 0xed, 0xbe, 0xf7, 0x64, 0x1c, 0x3e,
  0x23, 0x7b, 0xf8, 0xbd, 0x3f, 0xb0, 0x30, 0xbe, 0x7c, 0xe7, 0x3a, 0xbd,
  0xb0, 0xb5, 0x81, 0xbc, 0x26, 0x28, 0x10, 0xbd, 0x2e, 0x0d, 0x5c, 0x3c,
  0x17, 0xe1, 0x05, 0xbd, 0x06, 0xbd, 0x26, 0xbe, 0xc6, 0x82, 0xcb, 0xbb,
  0x83, 0x50, 0xfe, 0xbd, 0x11, 0x0f, 0xac, 0x3d, 0xff, 0x05, 0xa5, 0xbc,
  0x1a, 0xef, 0x39, 0xbe, 0xf7, 0x6e, 0xe2, 0xbd, 0x56, 0x3a, 0x0e, 0xbe,
  0x39, 0xfd, 0x9e, 0x3d, 0x97, 0x68, 0x67, 0xbd, 0xa8, 0x8e, 0x9f, 0x3d,
  0x82, 0x6a, 0x17, 0x3e, 0x01, 0xac, 0x49, 0x3d, 0x7e, 0x6d, 0xe7, 0x3d,
  0x5f, 0x1e, 0x73, 0xbe, 0x09, 0xe6, 0x4a, 0xbe, 0x0d, 0x35, 0x4b, 0xbd,
  0xf4, 0x73, 0x01, 0xbd, 0x3f, 0x7e, 0x21, 0xbe, 0xf3, 0xf4, 0xb5, 0xbd,
  0xb0, 0xc0, 0xc1, 0xbd, 0xa9, 0xa8, 0x3b, 0xbd, 0x5e, 0x43, 0x22, 0x3e,
  0x7f, 0x83, 0xb6, 0xbb, 0xc7, 0x4c, 0x24, 0xbe, 0x41, 0x51, 0x48, 0xbe,
  0x26, 0x4f, 0x70, 0xbe, 0x99, 0x55, 0x37, 0xbe, 0x57, 0xc8, 0x19, 0xbe,
  0x11, 0x19, 0x00, 0x3e, 0x36, 0x73, 0x8f, 0xbe, 0x87, 0x89, 0x3f, 0x3e,
  0x4c, 0xa9, 0x2c, 0xbe, 0xaf, 0x70, 0x6b, 0xbe, 0xd3, 0x4f, 0x1e, 0x3d,
  0x6d, 0xf9, 0x79, 0xbe, 0x31, 0x4f, 0xbe, 0x3d, 0xab, 0x0d, 0x0d, 0x3e,
  0xbe, 0x20, 0xd9, 0xbd, 0xa5, 0xd8, 0xbe, 0xbe, 0x7b, 0x20, 0xb8, 0xbc,
  0x9e, 0x56, 0x09, 0x3d, 0x5d, 0x4f, 0x41, 0xbe, 0xea, 0xd2, 0x53, 0xbd,
  0xb0, 0xc4, 0x0d, 0xbe, 0x29, 0x7e, 0xfd, 0xbd, 0xed, 0xff, 0x08, 0xbe,
  0x05, 0x9b, 0x15, 0x3e, 0xf0, 0x20, 0xce, 0xbc, 0x4a, 0xfe, 0xff, 0xff,
  0x10, 0x00, 0x00, 0x00, 0x05, 0x00, 0x00, 0x00, 0x14, 0x00, 0x00, 0x00,
  0x2c, 0x00, 0x00, 0x00, 0x02, 0x00, 0x00, 0x00, 0x10, 0x00, 0x00, 0x00,
  0x70, 0x00, 0x00, 0x00, 0x17, 0x00, 0x00, 0x00, 0x73, 0x65, 0x71, 0x75,
  0x65, 0x6e, 0x74, 0x69, 0x61, 0x6c, 0x2f, 0x64, 0x65, 0x6e, 0x73, 0x65,
  0x2f, 0x4d, 0x61, 0x74, 0x4d, 0x75, 0x6c, 0x00, 0x38, 0xfe, 0xff, 0xff,
  0x2e, 0xff, 0xff, 0xff, 0x04, 0x00, 0x00, 0x00, 0x08, 0x00, 0x00, 0x00,
  0xff, 0xff, 0xff, 0xff, 0x70, 0x00, 0x00, 0x00, 0x00, 0x00, 0x0e, 0x00,
  0x18, 0x00, 0x08, 0x00, 0x07, 0x00, 0x0c, 0x00, 0x10, 0x00, 0x14, 0x00,
  0x0e, 0x00, 0x00, 0x00, 0x00, 0x00, 0x00, 0x02, 0x10, 0x00, 0x00, 0x00,
  0x04, 0x00, 0x00, 0x00, 0x10, 0x00, 0x00, 0x00, 0x2c, 0x00, 0x00, 0x00,
  0x01, 0x00, 0x00, 0x00, 0x02, 0x00, 0x00, 0x00, 0x18, 0x00, 0x00, 0x00,
  0x73, 0x65, 0x71, 0x75, 0x65, 0x6e, 0x74, 0x69, 0x61, 0x6c, 0x2f, 0x66,
  0x6c, 0x61, 0x74, 0x74, 0x65, 0x6e, 0x2f, 0x43, 0x6f, 0x6e, 0x73, 0x74,
  0x00, 0x00, 0x00, 0x00, 0xa0, 0xfe, 0xff, 0xff, 0x96, 0xff, 0xff, 0xff,
  0x04, 0x00, 0x00, 0x00, 0x0c, 0x00, 0x00, 0x00, 0xef, 0xe7, 0x1f, 0xbf,
  0xbd, 0xff, 0xa3, 0x3f, 0x9e, 0x88, 0xc6, 0xbf, 0x0a, 0xff, 0xff, 0xff,
  0x10, 0x00, 0x00, 0x00, 0x03, 0x00, 0x00, 0x00, 0x10, 0x00, 0x00, 0x00,
  0x3c, 0x00, 0x00, 0x00, 0x01, 0x00, 0x00, 0x00, 0x03, 0x00, 0x00, 0x00,
  0x29, 0x00, 0x00, 0x00, 0x73, 0x65, 0x71, 0x75, 0x65, 0x6e, 0x74, 0x69,
  0x61, 0x6c, 0x2f, 0x64, 0x65, 0x6e, 0x73, 0x65, 0x5f, 0x31, 0x2f, 0x42,
  0x69, 0x61, 0x73, 0x41, 0x64, 0x64, 0x2f, 0x52, 0x65, 0x61, 0x64, 0x56,
  0x61, 0x72, 0x69, 0x61, 0x62, 0x6c, 0x65, 0x4f, 0x70, 0x00, 0x00, 0x00,
  0x60, 0xff, 0xff, 0xff, 0x00, 0x00, 0x06, 0x00, 0x08, 0x00, 0x04, 0x00,
  0x06, 0x00, 0x00, 0x00, 0x04, 0x00, 0x00, 0x00, 0x40, 0x00, 0x00, 0x00,
  0x59, 0xc3, 0xe6, 0xbd, 0xb3, 0xa0, 0x0c, 0xbe, 0xf2, 0x45, 0x02, 0xbe,
  0xfc, 0xb8, 0xed, 0xbe, 0xdd, 0x38, 0x2e, 0x40, 0x2d, 0xb0, 0x59, 0xbf,
  0xb9, 0xb2, 0x52, 0xbe, 0xc5, 0x9a, 0x31, 0xbf, 0xe4, 0x23, 0x96, 0x40,
  0x5b, 0x6c, 0x20, 0x40, 0xc3, 0x40, 0x5c, 0xbe, 0xaf, 0x9e, 0x58, 0xbe,
  0xb5, 0xbe, 0xc6, 0xbd, 0x1e, 0xec, 0x1f, 0xbe, 0xa1, 0x4e, 0x7e, 0xbd,
  0x40, 0x28, 0x18, 0xbe, 0xae, 0xff, 0xff, 0xff, 0x10, 0x00, 0x00, 0x00,
  0x02, 0x00, 0x00, 0x00, 0x10, 0x00, 0x00, 0x00, 0x3c, 0x00, 0x00, 0x00,
  0x01, 0x00, 0x00, 0x00, 0x10, 0x00, 0x00, 0x00, 0x27, 0x00, 0x00, 0x00,
  0x73, 0x65, 0x71, 0x75, 0x65, 0x6e, 0x74, 0x69, 0x61, 0x6c, 0x2f, 0x64,
  0x65, 0x6e, 0x73, 0x65, 0x2f, 0x42, 0x69, 0x61, 0x73, 0x41, 0x64, 0x64,
  0x2f, 0x52, 0x65, 0x61, 0x64, 0x56, 0x61, 0x72, 0x69, 0x61, 0x62, 0x6c,
  0x65, 0x4f, 0x70, 0x00, 0x04, 0x00, 0x06, 0x00, 0x04, 0x00, 0x00, 0x00,
  0x00, 0x00, 0x0e, 0x00, 0x14, 0x00, 0x04, 0x00, 0x00, 0x00, 0x08, 0x00,
  0x0c, 0x00, 0x10, 0x00, 0x0e, 0x00, 0x00, 0x00, 0x10, 0x00, 0x00, 0x00,
  0x01, 0x00, 0x00, 0x00, 0x1c, 0x00, 0x00, 0x00, 0x2c, 0x00, 0x00, 0x00,
  0x04, 0x00, 0x00, 0x00, 0x01, 0x00, 0x00, 0x00, 0x40, 0x00, 0x00, 0x00,
  0x03, 0x00, 0x00, 0x00, 0x01, 0x00, 0x00, 0x00, 0x0c, 0x00, 0x00, 0x00,
  0x63, 0x6f, 0x6e, 0x76, 0x32, 0x64, 0x5f, 0x69, 0x6e, 0x70, 0x75, 0x74,
  0x00, 0x00, 0x00, 0x00, 0xfc, 0xff, 0xff, 0xff, 0x04, 0x00, 0x04, 0x00,
  0x04, 0x00, 0x00, 0x00};

unsigned int model_tflite_len = 12316;// Fill the int in `src/model.cc` here