#include "magic_wand_model_data.h"

// We need to keep the data array aligned on some architectures.
#ifdef __has_attribute
#define HAVE_ATTRIBUTE(x) __has_attribute(x)
#else
#define HAVE_ATTRIBUTE(x) 0
#endif
#if HAVE_ATTRIBUTE(aligned) || (defined(__GNUC__) && !defined(__clang__))
#define DATA_ALIGN_ATTRIBUTE __attribute__((aligned(4)))
#else
#define DATA_ALIGN_ATTRIBUTE
#endif

const unsigned char g_magic_wand_model_data[] DATA_ALIGN_ATTRIBUTE = {
  0x08, 0x00, 0x00, 0x00, 0x54, 0x46, 0x4c, 0x33, 0x62, 0xff, 0xff, 0xff,
  0x03, 0x00, 0x00, 0x00, 0x10, 0x00, 0x00, 0x00, 0x24, 0x00, 0x00, 0x00,
  0x78, 0x00, 0x00, 0x00, 0x24, 0x00, 0x00, 0x00, 0x05, 0x00, 0x00, 0x00,
  0x78, 0x05, 0x00, 0x00, 0xb0, 0x04, 0x00, 0x00, 0xe0, 0x02, 0x00, 0x00,
  0x60, 0x02, 0x00, 0x00, 0x54, 0x01, 0x00, 0x00, 0x01, 0x00, 0x00, 0x00,
  0x78, 0x00, 0x00, 0x00, 0x13, 0x00, 0x00, 0x00, 0xd4, 0x2f, 0x00, 0x00,
  0xd0, 0x2f, 0x00, 0x00, 0xdc, 0x2e, 0x00, 0x00, 0x68, 0x2e, 0x00, 0x00,
  0xfc, 0x2d, 0x00, 0x00, 0xac, 0x11, 0x00, 0x00, 0x98, 0x10, 0x00, 0x00,
  0xbc, 0x0e, 0x00, 0x00, 0x60, 0x06, 0x00, 0x00, 0xfc, 0x05, 0x00, 0x00,
  0x78, 0x05, 0x00, 0x00, 0xa8, 0x2f, 0x00, 0x00, 0xa4, 0x2f, 0x00, 0x00,
  0xa0, 0x2f, 0x00, 0x00, 0x9c, 0x2f, 0x00, 0x00, 0x98, 0x2f, 0x00, 0x00,
  0x94, 0x2f, 0x00, 0x00, 0x90, 0x2f, 0x00, 0x00, 0x8c, 0x2f, 0x00, 0x00,
  0x0f, 0x00, 0x00, 0x00, 0x4d, 0x4c, 0x49, 0x52, 0x20, 0x43, 0x6f, 0x6e,
  0x76, 0x65, 0x72, 0x74, 0x65, 0x64, 0x2e, 0x00, 0x00, 0x00, 0x0e, 0x00,
  0x18, 0x00, 0x04, 0x00, 0x08, 0x00, 0x0c, 0x00, 0x10, 0x00, 0x14, 0x00,
  0x0e, 0x00, 0x00, 0x00, 0x14, 0x00, 0x00, 0x00, 0x5c, 0x00, 0x00, 0x00,
  0x60, 0x00, 0x00, 0x00, 0x64, 0x00, 0x00, 0x00, 0x84, 0x00, 0x00, 0x00,
  0x12, 0x00, 0x00, 0x00, 0x04, 0x2f, 0x00, 0x00, 0xa0, 0x2e, 0x00, 0x00,
  0xf8, 0x2d, 0x00, 0x00, 0x98, 0x2d, 0x00, 0x00, 0x30, 0x2d, 0x00, 0x00,
  0xdc, 0x10, 0x00, 0x00, 0xc0, 0x0f, 0x00, 0x00, 0xe4, 0x0d, 0x00, 0x00,
  0xa0, 0x05, 0x00, 0x00, 0x3c, 0x05, 0x00, 0x00, 0xb0, 0x04, 0x00, 0x00,
  0xe8, 0x03, 0x00, 0x00, 0x38, 0x03, 0x00, 0x00, 0xa4, 0x02, 0x00, 0x00,
  0x10, 0x02, 0x00, 0x00, 0x90, 0x01, 0x00, 0x00, 0xfc, 0x00, 0x00, 0x00,
  0x80, 0x00, 0x00, 0x00, 0x01, 0x00, 0x00, 0x00, 0x00, 0x00, 0x00, 0x00,
  0x01, 0x00, 0x00, 0x00, 0x11, 0x00, 0x00, 0x00, 0x08, 0x00, 0x00, 0x00,
  0x1c, 0x04, 0x00, 0x00, 0x58, 0x03, 0x00, 0x00, 0xc8, 0x02, 0x00, 0x00,
  0x24, 0x02, 0x00, 0x00, 0xac, 0x01, 0x00, 0x00, 0x10, 0x01, 0x00, 0x00,
  0x94, 0x00, 0x00, 0x00, 0x10, 0x00, 0x00, 0x00, 0x04, 0x00, 0x00, 0x00,
  0x6d, 0x61, 0x69, 0x6e, 0x00, 0x00, 0x00, 0x00, 0x8e, 0xff, 0xff, 0xff,
  0x00, 0x00, 0x00, 0x09, 0x04, 0x00, 0x00, 0x00, 0x1c, 0x00, 0x00, 0x00,
  0x10, 0x00, 0x00, 0x00, 0x04, 0x00, 0x00, 0x00, 0x4e, 0xd2, 0xff, 0xff,
  0x00, 0x00, 0x80, 0x3f, 0x01, 0x00, 0x00, 0x00, 0x11, 0x00, 0x00, 0x00,
  0x01, 0x00, 0x00, 0x00, 0x10, 0x00, 0x00, 0x00, 0xf6, 0xfb, 0xff, 0xff,
  0x00, 0x00, 0x00, 0x19, 0x01, 0x00, 0x00, 0x00, 0xce, 0xd1, 0xff, 0xff,
  0x10, 0x00, 0x00, 0x00, 0x12, 0x00, 0x00, 0x00, 0x14, 0x00, 0x00, 0x00,
  0x20, 0x00, 0x00, 0x00, 0x02, 0x00, 0x00, 0x00, 0x01, 0x00, 0x00, 0x00,
  0x03, 0x00, 0x00, 0x00, 0x08, 0x00, 0x00, 0x00, 0x49, 0x64, 0x65, 0x6e,
  0x74, 0x69, 0x74, 0x79, 0x00, 0x00, 0x00, 0x00, 0x08, 0xd2, 0xff, 0xff,
  0x00, 0x00, 0x0e, 0x00, 0x18, 0x00, 0x08, 0x00, 0x0c, 0x00, 0x10, 0x00,
  0x07, 0x00, 0x14, 0x00, 0x0e, 0x00, 0x00, 0x00, 0x00, 0x00, 0x00, 0x08,
  0x03, 0x00, 0x00, 0x00, 0x18, 0x00, 0x00, 0x00, 0x0c, 0x00, 0x00, 0x00,
  0x04, 0x00, 0x00, 0x00, 0xdc, 0xd1, 0xff, 0xff, 0x01, 0x00, 0x00, 0x00,
  0x10, 0x00, 0x00, 0x00, 0x03, 0x00, 0x00, 0x00, 0x0f, 0x00, 0x00, 0x00,
  0x05, 0x00, 0x00, 0x00, 0x02, 0x00, 0x00, 0x00, 0x46, 0xd2, 0xff, 0xff,
  0x10, 0x00, 0x00, 0x00, 0x11, 0x00, 0x00, 0x00, 0x14, 0x00, 0x00, 0x00,
  0x30, 0x00, 0x00, 0x00, 0x02, 0x00, 0x00, 0x00, 0x01, 0x00, 0x00, 0x00,
  0x03, 0x00, 0x00, 0x00, 0x1a, 0x00, 0x00, 0x00, 0x73, 0x65, 0x71, 0x75,
  0x65, 0x6e, 0x74, 0x69, 0x61, 0x6c, 0x2f, 0x64, 0x65, 0x6e, 0x73, 0x65,
  0x5f, 0x31, 0x2f, 0x42, 0x69, 0x61, 0x73, 0x41, 0x64, 0x64, 0x00, 0x00,
  0x38, 0xd2, 0xff, 0xff, 0xd6, 0xfd, 0xff, 0xff, 0x00, 0x00, 0x00, 0x08,
  0x03, 0x00, 0x00, 0x00, 0x24, 0x00, 0x00, 0x00, 0x18, 0x00, 0x00, 0x00,
  0x0c, 0x00, 0x00, 0x00, 0x00, 0x00, 0x06, 0x00, 0x08, 0x00, 0x07, 0x00,
  0x06, 0x00, 0x00, 0x00, 0x00, 0x00, 0x00, 0x01, 0x01, 0x00, 0x00, 0x00,
  0x0f, 0x00, 0x00, 0x00, 0x03, 0x00, 0x00, 0x00, 0x0e, 0x00, 0x00, 0x00,
  0x04, 0x00, 0x00, 0x00, 0x01, 0x00, 0x00, 0x00, 0xfe, 0xfc, 0xff, 0xff,
  0x00, 0x00, 0x00, 0x09, 0x01, 0x00, 0x00, 0x00, 0xd6, 0xd2, 0xff, 0xff,
  0x10, 0x00, 0x00, 0x00, 0x10, 0x00, 0x00, 0x00, 0x14, 0x00, 0x00, 0x00,
  0x2c, 0x00, 0x00, 0x00, 0x02, 0x00, 0x00, 0x00, 0x01, 0x00, 0x00, 0x00,
  0x10, 0x00, 0x00, 0x00, 0x15, 0x00, 0x00, 0x00, 0x73, 0x65, 0x71, 0x75,
  0x65, 0x6e, 0x74, 0x69, 0x61, 0x6c, 0x2f, 0x64, 0x65, 0x6e, 0x73, 0x65,
  0x2f, 0x52, 0x65, 0x6c, 0x75, 0x00, 0x00, 0x00, 0x1c, 0xd3, 0xff, 0xff,
  0x00, 0x00, 0x0a, 0x00, 0x10, 0x00, 0x04, 0x00, 0x08, 0x00, 0x0c, 0x00,
  0x0a, 0x00, 0x00, 0x00, 0x02, 0x00, 0x00, 0x00, 0x10, 0x00, 0x00, 0x00,
  0x04, 0x00, 0x00, 0x00, 0x01, 0x00, 0x00, 0x00, 0x0e, 0x00, 0x00, 0x00,
  0x02, 0x00, 0x00, 0x00, 0x0d, 0x00, 0x00, 0x00, 0x03, 0x00, 0x00, 0x00,
  0x7a, 0xfd, 0xff, 0xff, 0x00, 0x00, 0x00, 0x16, 0x01, 0x00, 0x00, 0x00,
  0x52, 0xd3, 0xff, 0xff, 0x10, 0x00, 0x00, 0x00, 0x0f, 0x00, 0x00, 0x00,
  0x14, 0x00, 0x00, 0x00, 0x30, 0x00, 0x00, 0x00, 0x02, 0x00, 0x00, 0x00,
  0x01, 0x00, 0x00, 0x00, 0x70, 0x00, 0x00, 0x00, 0x1a, 0x00, 0x00, 0x00,
  0x73, 0x65, 0x71, 0x75, 0x65, 0x6e, 0x74, 0x69, 0x61, 0x6c, 0x2f, 0x66,
  0x6c, 0x61, 0x74, 0x74, 0x65, 0x6e, 0x2f, 0x52, 0x65, 0x73, 0x68, 0x61,
  0x70, 0x65, 0x00, 0x00, 0x44, 0xd3, 0xff, 0xff, 0xe2, 0xfe, 0xff, 0xff,
  0x00, 0x00, 0x00, 0x05, 0x01, 0x00, 0x00, 0x00, 0x38, 0x00, 0x00, 0x00,
  0x2c, 0x00, 0x00, 0x00, 0x14, 0x00, 0x00, 0x00, 0x00, 0x00, 0x0e, 0x00,
  0x14, 0x00, 0x00, 0x00, 0x10, 0x00, 0x0c, 0x00, 0x08, 0x00, 0x04, 0x00,
  0x0e, 0x00, 0x00, 0x00, 0x03, 0x00, 0x00, 0x00, 0x01, 0x00, 0x00, 0x00,
  0x03, 0x00, 0x00, 0x00, 0x01, 0x00, 0x00, 0x00, 0x01, 0x00, 0x00, 0x00,
  0x0d, 0x00, 0x00, 0x00, 0x01, 0x00, 0x00, 0x00, 0x0c, 0x00, 0x00, 0x00,
  0xe2, 0xd3, 0xff, 0xff, 0x10, 0x00, 0x00, 0x00, 0x0e, 0x00, 0x00, 0x00,
  0x1c, 0x00, 0x00, 0x00, 0x40, 0x00, 0x00, 0x00, 0x04, 0x00, 0x00, 0x00,
  0x01, 0x00, 0x00, 0x00, 0x07, 0x00, 0x00, 0x00, 0x01, 0x00, 0x00, 0x00,
  0x10, 0x00, 0x00, 0x00, 0x22, 0x00, 0x00, 0x00, 0x73, 0x65, 0x71, 0x75,
  0x65, 0x6e, 0x74, 0x69, 0x61, 0x6c, 0x2f, 0x6d, 0x61, 0x78, 0x5f, 0x70,
  0x6f, 0x6f, 0x6c, 0x69, 0x6e, 0x67, 0x32, 0x64, 0x5f, 0x31, 0x2f, 0x4d,
  0x61, 0x78, 0x50, 0x6f, 0x6f, 0x6c, 0x00, 0x00, 0xe4, 0xd3, 0xff, 0xff,
  0xc2, 0xfe, 0xff, 0xff, 0x00, 0x00, 0x00, 0x01, 0x24, 0x00, 0x00, 0x00,
  0x18, 0x00, 0x00, 0x00, 0x04, 0x00, 0x00, 0x00, 0xb4, 0xfe, 0xff, 0xff,
  0x01, 0x00, 0x00, 0x00, 0x01, 0x00, 0x00, 0x00, 0x00, 0x00, 0x00, 0x01,
  0x01, 0x00, 0x00, 0x00, 0x0c, 0x00, 0x00, 0x00, 0x03, 0x00, 0x00, 0x00,
  0x0b, 0x00, 0x00, 0x00, 0x07, 0x00, 0x00, 0x00, 0x09, 0x00, 0x00, 0x00,
  0x72, 0xd4, 0xff, 0xff, 0x10, 0x00, 0x00, 0x00, 0x0d, 0x00, 0x00, 0x00,
  0x1c, 0x00, 0x00, 0x00, 0x2c, 0x00, 0x00, 0x00, 0x04, 0x00, 0x00, 0x00,
  0x01, 0x00, 0x00, 0x00, 0x15, 0x00, 0x00, 0x00, 0x01, 0x00, 0x00, 0x00,
  0x10, 0x00, 0x00, 0x00, 0x0c, 0x00, 0x00, 0x00, 0x74, 0x66, 0x6c, 0x2e,
  0x63, 0x6f, 0x6e, 0x76, 0x5f, 0x32, 0x64, 0x31, 0x00, 0x00, 0x00, 0x00,
  0xb8, 0xd4, 0xff, 0xff, 0x00, 0x00, 0x0e, 0x00, 0x1a, 0x00, 0x08, 0x00,
  0x0c, 0x00, 0x10, 0x00, 0x07, 0x00, 0x14, 0x00, 0x0e, 0x00, 0x00, 0x00,
  0x00, 0x00, 0x00, 0x05, 0x01, 0x00, 0x00, 0x00, 0x3c, 0x00, 0x00, 0x00,
  0x30, 0x00, 0x00, 0x00, 0x14, 0x00, 0x00, 0x00, 0x00, 0x00, 0x0e, 0x00,
  0x18, 0x00, 0x17, 0x00, 0x10, 0x00, 0x0c, 0x00, 0x08, 0x00, 0x04, 0x00,
  0x0e, 0x00, 0x00, 0x00, 0x03, 0x00, 0x00, 0x00, 0x03, 0x00, 0x00, 0x00,
  0x03, 0x00, 0x00, 0x00, 0x03, 0x00, 0x00, 0x00, 0x00, 0x00, 0x00, 0x01,
  0x01, 0x00, 0x00, 0x00, 0x0b, 0x00, 0x00, 0x00, 0x01, 0x00, 0x00, 0x00,
  0x0a, 0x00, 0x00, 0x00, 0x46, 0xff, 0xff, 0xff, 0x00, 0x00, 0x00, 0x11,
  0x01, 0x00, 0x00, 0x00, 0x1e, 0xd5, 0xff, 0xff, 0x10, 0x00, 0x00, 0x00,
  0x0c, 0x00, 0x00, 0x00, 0x1c, 0x00, 0x00, 0x00, 0x40, 0x00, 0x00, 0x00,
  0x04, 0x00, 0x00, 0x00, 0x01, 0x00, 0x00, 0x00, 0x15, 0x00, 0x00, 0x00,
  0x01, 0x00, 0x00, 0x00, 0x08, 0x00, 0x00, 0x00, 0x20, 0x00, 0x00, 0x00,
  0x73, 0x65, 0x71, 0x75, 0x65, 0x6e, 0x74, 0x69, 0x61, 0x6c, 0x2f, 0x6d,
  0x61, 0x78, 0x5f, 0x70, 0x6f, 0x6f, 0x6c, 0x69, 0x6e, 0x67, 0x32, 0x64,
  0x2f, 0x4d, 0x61, 0x78, 0x50, 0x6f, 0x6f, 0x6c, 0x00, 0x00, 0x00, 0x00,
  0x78, 0xd5, 0xff, 0xff, 0x00, 0x00, 0x0e, 0x00, 0x14, 0x00, 0x00, 0x00,
  0x08, 0x00, 0x0c, 0x00, 0x07, 0x00, 0x10, 0x00, 0x0e, 0x00, 0x00, 0x00,
  0x00, 0x00, 0x00, 0x01, 0x30, 0x00, 0x00, 0x00, 0x24, 0x00, 0x00, 0x00,
  0x10, 0x00, 0x00, 0x00, 0x0c, 0x00, 0x10, 0x00, 0x00, 0x00, 0x04, 0x00,
  0x08, 0x00, 0x0f, 0x00, 0x0c, 0x00, 0x00, 0x00, 0x01, 0x00, 0x00, 0x00,
  0x01, 0x00, 0x00, 0x00, 0x00, 0x00, 0x00, 0x01, 0x01, 0x00, 0x00, 0x00,
  0x0a, 0x00, 0x00, 0x00, 0x03, 0x00, 0x00, 0x00, 0x00, 0x00, 0x00, 0x00,
  0x06, 0x00, 0x00, 0x00, 0x08, 0x00, 0x00, 0x00, 0x00, 0x00, 0x0a, 0x00,
  0x0c, 0x00, 0x07, 0x00, 0x00, 0x00, 0x08, 0x00, 0x0a, 0x00, 0x00, 0x00,
  0x00, 0x00, 0x00, 0x03, 0x01, 0x00, 0x00, 0x00, 0xe2, 0xd5, 0xff, 0xff,
  0x10, 0x00, 0x00, 0x00, 0x0b, 0x00, 0x00, 0x00, 0x1c, 0x00, 0x00, 0x00,
  0x28, 0x00, 0x00, 0x00, 0x04, 0x00, 0x00, 0x00, 0x01, 0x00, 0x00, 0x00,
  0x40, 0x00, 0x00, 0x00, 0x03, 0x00, 0x00, 0x00, 0x08, 0x00, 0x00, 0x00,
  0x0b, 0x00, 0x00, 0x00, 0x74, 0x66, 0x6c, 0x2e, 0x63, 0x6f, 0x6e, 0x76,
  0x5f, 0x32, 0x64, 0x00, 0xcc, 0xd5, 0xff, 0xff, 0xc2, 0xd6, 0xff, 0xff,
  0x04, 0x00, 0x00, 0x00, 0x40, 0x00, 0x00, 0x00, 0xbf, 0x9e, 0xe5, 0xbc,
  0x06, 0x6d, 0x3b, 0xb9, 0x5d, 0x06, 0xf8, 0xbf, 0x55, 0x04, 0x0c, 0xbf,
  0x62, 0xf0, 0xba, 0x3f, 0xa3, 0xd1, 0xa0, 0x3f, 0x18, 0xff, 0x04, 0x3b,
  0xb4, 0xc6, 0xfe, 0xbf, 0xe7, 0x60, 0x08, 0xbf, 0xb9, 0x54, 0x02, 0xbe,
  0x01, 0xa1, 0x29, 0x40, 0xb1, 0xcc, 0x5e, 0xbf, 0x6c, 0x40, 0xe0, 0xbf,
  0x99, 0xa5, 0x49, 0x3f, 0x19, 0x63, 0x2c, 0xbf, 0x82, 0xaf, 0x6c, 0xbc,
  0x6a, 0xd6, 0xff, 0xff, 0x10, 0x00, 0x00, 0x00, 0x0a, 0x00, 0x00, 0x00,
  0x10, 0x00, 0x00, 0x00, 0x20, 0x00, 0x00, 0x00, 0x01, 0x00, 0x00, 0x00,
  0x10, 0x00, 0x00, 0x00, 0x0d, 0x00, 0x00, 0x00, 0x73, 0x74, 0x64, 0x2e,
  0x63, 0x6f, 0x6e, 0x73, 0x74, 0x61, 0x6e, 0x74, 0x31, 0x00, 0x00, 0x00,
  0x4c, 0xd6, 0xff, 0xff, 0x42, 0xd7, 0xff, 0xff, 0x04, 0x00, 0x00, 0x00,
  0x20, 0x00, 0x00, 0x00, 0x8e, 0x9c, 0xa7, 0xbc, 0xbb, 0x9a, 0xfb, 0xbf,
  0x25, 0x87, 0x14, 0xbe, 0x1e, 0x17, 0x31, 0xc0, 0x08, 0x17, 0x49, 0xc0,
  0x4f, 0xdd, 0x4f, 0xc0, 0x56, 0x88, 0x0d, 0xc0, 0x49, 0x91, 0x2a, 0xc0,
  0xca, 0xd6, 0xff, 0xff, 0x10, 0x00, 0x00, 0x00, 0x09, 0x00, 0x00, 0x00,
  0x10, 0x00, 0x00, 0x00, 0x20, 0x00, 0x00, 0x00, 0x01, 0x00, 0x00, 0x00,
  0x08, 0x00, 0x00, 0x00, 0x0c, 0x00, 0x00, 0x00, 0x73, 0x74, 0x64, 0x2e,
  0x63, 0x6f, 0x6e, 0x73, 0x74, 0x61, 0x6e, 0x74, 0x00, 0x00, 0x00, 0x00,
  0xac, 0xd6, 0xff, 0xff, 0xa2, 0xd7, 0xff, 0xff, 0x04, 0x00, 0x00, 0x00,
  0x00, 0x08, 0x00, 0x00, 0xe4, 0x58, 0xb7, 0xbe, 0x47, 0xd6, 0xad, 0x3a,
  0x21, 0xba, 0xe7, 0xbe, 0xaa, 0x66, 0x5a, 0xbc, 0xad, 0x33, 0xd6, 0xbd,
  0x08, 0xa1, 0x7a, 0xbe, 0x50, 0x3a, 0x9a, 0xbd, 0xaf, 0x91, 0xf7, 0x3b,
  0x09, 0xc1, 0x15, 0x3e, 0x89, 0xae, 0xab, 0xbc, 0x83, 0x61, 0x3c, 0x3e,
  0xdf, 0xab, 0x22, 0x3d, 0x52, 0xe3, 0x1b, 0xbe, 0x7d, 0x77, 0x59, 0xbe,
  0x2c, 0xbf, 0x87, 0x3d, 0xad, 0x5a, 0x6f, 0x3d, 0x7b, 0xf1, 0x0a, 0xbe,
  0x40, 0x7d, 0x14, 0x3d, 0x3e, 0x9c, 0xb7, 0x3e, 0x8b, 0x36, 0xd2, 0xbc,
  0xb8, 0x0a, 0x7a, 0xbe, 0xac, 0x0d, 0x1b, 0xbe, 0xc6, 0xf9, 0x1e, 0x3e,
  0x0f, 0x52, 0x26, 0x3d, 0x7a, 0x60, 0xe6, 0xbc, 0x0f, 0x9e, 0xb0, 0x3d,
  0xe0, 0xa7, 0xcb, 0xbd, 0x4d, 0xa3, 0xe6, 0xbc, 0x5c, 0xd2, 0xad, 0xbe,
  0x04, 0xa7, 0x05, 0xbe, 0x76, 0xd8, 0xb7, 0xbb, 0x01, 0xec, 0x87, 0xbd,
  0x9c, 0xd8, 0x0b, 0x3f, 0x8a, 0x91, 0x80, 0xbe, 0xc5, 0x6f, 0x9e, 0xbc,
  0x04, 0xab, 0xa7, 0x3e, 0x7a, 0xc3, 0xb4, 0xbd, 0xa2, 0x9e, 0x45, 0x3d,
  0xfd, 0x51, 0xf6, 0x3d, 0xfc, 0xcd, 0xa6, 0xbe, 0x77, 0xa7, 0x7d, 0xbe,
  0xab, 0x02, 0x53, 0xbe, 0x78, 0xca, 0xbe, 0xbd, 0xa6, 0x49, 0x7c, 0x3e,
  0xc0, 0xa3, 0x1b, 0xbe, 0xff, 0x52, 0x8b, 0x3d, 0xf9, 0x0b, 0xce, 0xbb,
  0xa4, 0x17, 0xd4, 0xbe, 0xe9, 0x73, 0x5d, 0x3e, 0xea, 0x18, 0x5c, 0xbe,
  0x28, 0x9f, 0x8f, 0xbd, 0x1c, 0x07, 0x03, 0x3e, 0x71, 0x23, 0x95, 0xbd,
  0xf6, 0xb0, 0xf6, 0x3d, 0x05, 0x1d, 0xe0, 0x3d, 0xeb, 0x8a, 0x6f, 0xbe,
  0xd4, 0xc5, 0x5d, 0xbd, 0x92, 0xd4, 0x05, 0xbe, 0x53, 0xf4, 0x1b, 0x3d,
  0x78, 0x2a, 0x80, 0x3b, 0x4d, 0xf3, 0xbc, 0xbd, 0x3f, 0x9a, 0xf6, 0x3c,
  0xbd, 0x4e, 0xfa, 0x3d, 0x7d, 0x72, 0xab, 0xbe, 0xd9, 0xb8, 0xd6, 0xbd,
  0x05, 0xbc, 0x0b, 0xbe, 0x96, 0x08, 0x81, 0xbd, 0xfb, 0x10, 0x18, 0xbd,
  0xcc, 0x6d, 0x88, 0xbe, 0xc5, 0x78, 0xbd, 0xbe, 0x53, 0xa1, 0x7b, 0xbd,
  0xac, 0x4b, 0x97, 0xbe, 0xc0, 0x18, 0x4c, 0xbe, 0xd6, 0x22, 0x1d, 0xbe,
  0xfe, 0x3b, 0xa9, 0xbd, 0x71, 0x1f, 0x5d, 0xbd, 0x46, 0x64, 0xda, 0xbe,
  0x30, 0x12, 0xb0, 0xbd, 0xde, 0xa3, 0x96, 0xbe, 0x16, 0x73, 0xb0, 0xbe,
  0x4e, 0x77, 0xf4, 0xbd, 0x19, 0xc4, 0x8b, 0x3e, 0x33, 0x4b, 0xe5, 0xbd,
  0x8a, 0x1b, 0x16, 0x3f, 0x3c, 0x81, 0x88, 0xbd, 0xbd, 0xea, 0x94, 0x3e,
  0x71, 0x2f, 0xef, 0xbd, 0xdc, 0xe6, 0x59, 0xbd, 0xd7, 0x4f, 0xe0, 0xbd,
  0xa3, 0xc0, 0x93, 0x3c, 0xa5, 0x0b, 0xf3, 0xbd, 0xe9, 0xfd, 0x3f, 0xbe,
  0xde, 0x96, 0xa7, 0x3e, 0xe7, 0xcc, 0x6e, 0x3e, 0x9b, 0x22, 0x12, 0x3e,
  0x4f, 0x11, 0x98, 0x3e, 0x64, 0xd6, 0x72, 0x3d, 0x13, 0x3f, 0xa8, 0xbb,
  0xff, 0x0d, 0x06, 0xbe, 0x26, 0x0e, 0xbc, 0xbd, 0x2b, 0x0a, 0xec, 0xbc,
  0xd1, 0xa5, 0xb3, 0x3e, 0xa0, 0xde, 0xa7, 0xbd, 0x70, 0x6c, 0xc2, 0x3b,
  0xbc, 0xae, 0x02, 0xbe, 0x7f, 0x5e, 0xff, 0xbc, 0x97, 0x1d, 0x0d, 0xbe,
  0xad, 0x4c, 0x06, 0xbd, 0xd8, 0x4d, 0x7d, 0xbd, 0xe5, 0xe5, 0x2a, 0x3e,
  0xe9, 0x00, 0x1d, 0x3f, 0xdd, 0xe4, 0x52, 0xbc, 0xdf, 0x69, 0xbb, 0xbd,
  0x67, 0x62, 0xd7, 0xbc, 0xcd, 0xbb, 0xed, 0xbe, 0xd4, 0x77, 0x71, 0x3e,
  0x5b, 0x3d, 0x8f, 0x3d, 0xe8, 0x99, 0x70, 0xbd, 0x25, 0xfa, 0x83, 0xbe,
  0xc6, 0xba, 0x0b, 0xbc, 0x94, 0x13, 0x3d, 0xbe, 0x98, 0x52, 0x58, 0x3e,
  0xac, 0xfd, 0xb6, 0xbe, 0x5c, 0xf3, 0x6b, 0x3e, 0xf2, 0x99, 0x74, 0xbd,
  0x1e, 0x10, 0x30, 0xbe, 0x58, 0xbf, 0x8a, 0xbe, 0x96, 0x86, 0x39, 0xbd,
  0x57, 0xc0, 0xae, 0x3c, 0x55, 0xe8, 0x5c, 0xbe, 0x6f, 0x82, 0xd1, 0x3d,
  0x19, 0xe1, 0x16, 0xbf, 0x7f, 0x17, 0xa9, 0xbc, 0x0b, 0x57, 0x2e, 0xbc,
  0x24, 0x78, 0x8e, 0x3d, 0x8c, 0xa7, 0xad, 0xbd, 0xc5, 0x13, 0xb6, 0x3e,
  0x2d, 0x1c, 0x44, 0xbe, 0x0f, 0xe9, 0x2f, 0xbe, 0x13, 0x3f, 0x06, 0xbe,
  0xa4, 0x4e, 0x21, 0xbc, 0x23, 0x7a, 0x18, 0x3d, 0x0e, 0x96, 0x3f, 0xbd,
  0x3b, 0xae, 0xcc, 0xbd, 0xf1, 0xef, 0x36, 0xbe, 0x2c, 0x7c, 0xeb, 0x3b,
  0x59, 0x22, 0x61, 0x3d, 0xf9, 0x52, 0x56, 0xbe, 0x0f, 0x11, 0x43, 0xbe,
  0x1e, 0x48, 0x92, 0xbe, 0x9c, 0xb1, 0xfd, 0xbd, 0x54, 0xb0, 0xa5, 0xbd,
  0x45, 0xdf, 0x41, 0x3c, 0x71, 0x5c, 0xb1, 0xbd, 0x10, 0xed, 0x68, 0x3d,
  0x0e, 0x53, 0x48, 0xbe, 0x60, 0x6f, 0xce, 0xbe, 0xba, 0xe3, 0xdb, 0xbe,
  0x8c, 0x0b, 0x07, 0xbe, 0x01, 0xbb, 0x14, 0xbe, 0xe0, 0x2e, 0x91, 0xbe,
  0xb8, 0x5d, 0x60, 0xbe, 0xa8, 0x84, 0x99, 0xbe, 0xeb, 0xff, 0xbd, 0xbe,
  0x2a, 0x26, 0xf4, 0xbd, 0x4c, 0x98, 0xd6, 0xbc, 0xaa, 0xf4, 0x80, 0xbe,
  0xd5, 0x64, 0x23, 0xbe, 0x5b, 0x4a, 0x8e, 0x3e, 0x24, 0xc3, 0xf7, 0xbd,
  0xc9, 0x54, 0x4d, 0x3d, 0x31, 0x60, 0x1c, 0xbf, 0x0f, 0x88, 0xa7, 0x3d,
  0x07, 0x54, 0x5b, 0xbc, 0xb1, 0x32, 0xf2, 0xbc, 0xf5, 0x40, 0xf0, 0xbd,
  0x19, 0x67, 0x01, 0xbe, 0x66, 0xf8, 0xd2, 0x3d, 0x5e, 0x2b, 0x82, 0xbd,
  0x17, 0x1f, 0x06, 0x3d, 0xbf, 0xf3, 0x0a, 0xbe, 0x70, 0x64, 0x95, 0xbc,
  0x51, 0x8d, 0xa2, 0x3d, 0x96, 0x45, 0x04, 0xbe, 0x70, 0xe7, 0x96, 0xbd,
  0x4a, 0xab, 0xb0, 0x3d, 0x97, 0x89, 0x3a, 0x3e, 0x67, 0xb3, 0x8c, 0xbd,
  0x01, 0x54, 0x89, 0xbd, 0xb3, 0xfb, 0x36, 0xbe, 0x1d, 0xe7, 0x2e, 0x3d,
  0x0c, 0x62, 0x30, 0xbd, 0xd2, 0x52, 0x21, 0x3d, 0x93, 0xed, 0x66, 0x3e,
  0x8e, 0x36, 0x28, 0x3e, 0x0b, 0x75, 0xb4, 0x3c, 0x09, 0x4c, 0xdd, 0x3b,
  0xb7, 0xb1, 0x6f, 0x3d, 0x2c, 0x22, 0x5b, 0x3e, 0x7d, 0x58, 0x9d, 0xbc,
  0xfb, 0x36, 0x9e, 0xba, 0x30, 0x84, 0xff, 0xbd, 0x75, 0xdd, 0x96, 0xbd,
  0x87, 0x8c, 0x1a, 0x3f, 0x8f, 0x4d, 0x2c, 0xbd, 0x2b, 0x17, 0x93, 0xbd,
  0xb6, 0x91, 0xac, 0xbc, 0xaa, 0x39, 0x40, 0xbd, 0x34, 0xb4, 0x0e, 0x3e,
  0xc7, 0x6c, 0xe9, 0x3a, 0xa6, 0x03, 0x7c, 0x3d, 0x15, 0x09, 0x00, 0x3d,
  0x27, 0xa3, 0x61, 0xbd, 0xcc, 0xc4, 0xbd, 0xbd, 0x93, 0x47, 0xd6, 0xbb,
  0xc7, 0x5b, 0x4f, 0xbd, 0x5e, 0x57, 0x3a, 0x3e, 0x7b, 0x9c, 0x8f, 0xbd,
  0xa4, 0x83, 0x80, 0xbd, 0x57, 0x6b, 0xd4, 0x3d, 0x22, 0xcb, 0x23, 0xbe,
  0x93, 0xd3, 0x87, 0xbd, 0x74, 0x8f, 0xe6, 0x3c, 0xd2, 0x35, 0x0a, 0xbe,
  0x8a, 0x97, 0xf9, 0xbc, 0x03, 0x62, 0xa9, 0xbe, 0x91, 0x4c, 0x38, 0xbe,
  0xb6, 0xc3, 0x43, 0xbe, 0x61, 0xe5, 0x9a, 0xbe, 0x2f, 0x99, 0xee, 0xbe,
  0x8e, 0xd8, 0xdc, 0x3c, 0x5e, 0xe5, 0x9f, 0xbe, 0xdd, 0x72, 0xf1, 0xbd,
  0x97, 0x10, 0x58, 0xbe, 0xc8, 0xc6, 0x21, 0xbe, 0x70, 0xe1, 0xdb, 0x3c,
  0x84, 0xee, 0x0f, 0xbf, 0x6c, 0x97, 0x91, 0xbd, 0xcf, 0xbe, 0x54, 0xbe,
  0x5c, 0x70, 0xfd, 0xbe, 0x10, 0xd8, 0xb1, 0x3c, 0x05, 0x13, 0xd1, 0x3e,
  0x3d, 0xe6, 0xff, 0xbc, 0x1c, 0xee, 0xa4, 0x3e, 0x3d, 0x5f, 0xc8, 0x3c,
  0x91, 0x2e, 0x18, 0x3f, 0xc4, 0x28, 0x26, 0xbe, 0x1d, 0xb5, 0x7f, 0xbd,
  0x6c, 0xf1, 0x2b, 0xbd, 0xba, 0x0d, 0x2a, 0xbc, 0xc7, 0xd1, 0x50, 0x3d,
  0x51, 0x5b, 0x39, 0x3e, 0x41, 0xe1, 0x6c, 0x3e, 0x86, 0x4e, 0xa9, 0xbd,
  0x04, 0x47, 0x6b, 0xbe, 0x98, 0x8d, 0xbb, 0x3e, 0xa9, 0x1d, 0xa2, 0xbe,
  0x4b, 0x4a, 0xa7, 0xbe, 0xed, 0x00, 0x25, 0xbc, 0xe7, 0xd3, 0x06, 0xbe,
  0xf7, 0xef, 0xdd, 0xbd, 0x57, 0xcb, 0x9f, 0xbe, 0x95, 0x0c, 0x1f, 0xbe,
  0x27, 0xcc, 0xcb, 0xbd, 0x2d, 0x1d, 0x4f, 0xbe, 0xc6, 0x68, 0x95, 0xbe,
  0x77, 0x4a, 0x26, 0x3c, 0x39, 0x2f, 0x93, 0xbc, 0x5e, 0xcd, 0x6b, 0xbe,
  0x78, 0xbe, 0xc6, 0xbe, 0x9a, 0x68, 0xf8, 0xbd, 0x9e, 0x22, 0x5f, 0xbe,
  0x41, 0x31, 0xd3, 0xbd, 0x56, 0x82, 0x87, 0xbd, 0xef, 0xef, 0x6b, 0x3d,
  0xdf, 0x72, 0xbd, 0x3e, 0xed, 0x63, 0x65, 0xbe, 0x00, 0x06, 0xf3, 0xbc,
  0xcc, 0x57, 0xe2, 0x3c, 0x67, 0x39, 0xb3, 0xbd, 0x39, 0xc2, 0x9a, 0x3d,
  0xd8, 0x01, 0x05, 0x3e, 0x81, 0xbf, 0x86, 0xbc, 0x25, 0x3a, 0xb5, 0x3e,
  0x58, 0xd0, 0x52, 0x3e, 0x1d, 0xdb, 0x0a, 0x3f, 0x8b, 0x51, 0xc8, 0xbd,
  0x49, 0xda, 0xd9, 0x3d, 0xa9, 0x7b, 0x48, 0x3b, 0x11, 0x27, 0xeb, 0xbd,
  0x7d, 0x30, 0xec, 0xbe, 0x24, 0xd3, 0x6b, 0x3d, 0xfa, 0x4d, 0x30, 0xbe,
  0x8b, 0x60, 0x95, 0xbe, 0x8c, 0xdf, 0xd3, 0xbe, 0xb8, 0x9f, 0x12, 0xbe,
  0xcd, 0x54, 0x15, 0xbe, 0xfd, 0x5a, 0x68, 0x3e, 0x14, 0xfc, 0xc8, 0xbe,
  0xa6, 0x72, 0x14, 0x3e, 0xc9, 0xff, 0x1a, 0x3e, 0x6c, 0x49, 0x1d, 0x3e,
  0x5c, 0xcf, 0x15, 0xbe, 0x6e, 0xab, 0xab, 0xbc, 0x35, 0xc5, 0x64, 0xbd,
  0x78, 0x7a, 0x0a, 0xbe, 0xa1, 0x99, 0x68, 0xbe, 0xf9, 0x95, 0x4a, 0x3e,
  0xe9, 0xd3, 0x03, 0x3e, 0x2e, 0x83, 0x05, 0x3e, 0xde, 0x37, 0x3b, 0xbe,
  0x28, 0xca, 0x25, 0x3e, 0x4c, 0x47, 0x16, 0xbe, 0xb8, 0x75, 0xaa, 0xbd,
  0xb8, 0xb9, 0x96, 0xbe, 0xd2, 0x12, 0x45, 0x3e, 0xbd, 0xdc, 0x54, 0x3e,
  0xf2, 0xc0, 0xdf, 0xb9, 0xc1, 0x05, 0x75, 0xbe, 0xb9, 0xd5, 0x69, 0x3e,
  0x21, 0xa3, 0xc9, 0xbd, 0x21, 0x6e, 0x44, 0xbe, 0x46, 0xdb, 0x80, 0xbe,
  0x16, 0x96, 0xd4, 0xbe, 0x0f, 0x19, 0x72, 0xbd, 0xbf, 0xbe, 0xb7, 0xbe,
  0x7c, 0xa4, 0x56, 0xbe, 0x32, 0xa5, 0x65, 0xbe, 0x8d, 0x9b, 0x24, 0x3d,
  0x34, 0xd5, 0x97, 0x3d, 0x1c, 0x43, 0x39, 0xbe, 0x8b, 0xcd, 0x77, 0x3d,
  0x30, 0xd4, 0x6b, 0x3e, 0xb5, 0x29, 0x38, 0xbe, 0xdd, 0x19, 0xc7, 0x3e,
  0x6d, 0x2c, 0x67, 0xbd, 0xc5, 0x3f, 0xb1, 0xbd, 0x7b, 0x9d, 0x24, 0xbd,
  0xb6, 0x84, 0xb4, 0xbb, 0x75, 0x64, 0xec, 0x3d, 0xee, 0x5f, 0x04, 0xbe,
  0xb4, 0x02, 0xb3, 0x3c, 0x20, 0xa7, 0x07, 0xbd, 0x2d, 0x53, 0xdd, 0xbd,
  0x06, 0x17, 0x67, 0xbd, 0x62, 0x14, 0x32, 0x3d, 0x9e, 0x6d, 0x3e, 0x3d,
  0x77, 0x00, 0x80, 0x3e, 0xf9, 0x86, 0x14, 0xbe, 0x85, 0x9b, 0x4b, 0xbd,
  0x27, 0x49, 0x86, 0xbd, 0x00, 0xcf, 0xd3, 0xbd, 0x8c, 0x85, 0x63, 0xbe,
  0x82, 0x9e, 0x50, 0xbe, 0xc8, 0x90, 0xe5, 0xbe, 0x24, 0xe2, 0xb2, 0xbe,
  0x1b, 0x95, 0x30, 0xbd, 0xc7, 0x87, 0x1b, 0xbd, 0xe0, 0x12, 0x50, 0x3e,
  0x72, 0xb2, 0xb9, 0xbd, 0x98, 0xc0, 0x21, 0xbe, 0x7b, 0x6e, 0xb3, 0x3c,
  0xa0, 0xe8, 0xf6, 0xbe, 0x36, 0x45, 0xb4, 0xbd, 0x8e, 0x63, 0x27, 0x3d,
  0xa9, 0x1c, 0x88, 0x3e, 0x97, 0x0b, 0xe5, 0x3e, 0x13, 0xe7, 0xab, 0xbc,
  0xb0, 0xa1, 0x54, 0xbe, 0x40, 0x28, 0xa4, 0xbc, 0x76, 0xe2, 0x8c, 0xbe,
  0xe5, 0x96, 0xa6, 0x3e, 0x26, 0xcc, 0xe4, 0xbd, 0x51, 0x83, 0xa1, 0xbd,
  0xf0, 0x8e, 0x4a, 0x3e, 0x57, 0x52, 0xc5, 0xbd, 0xa8, 0xc5, 0x2d, 0xbe,
  0x02, 0xef, 0xac, 0x3d, 0xad, 0x81, 0xa0, 0xbe, 0x1f, 0x2a, 0x79, 0x3e,
  0x9e, 0x14, 0xe0, 0x3d, 0x51, 0xc7, 0x4e, 0x3c, 0xa9, 0x1c, 0x29, 0xbe,
  0xd1, 0xaa, 0xc6, 0xbd, 0x4a, 0xd0, 0x16, 0xbd, 0xfd, 0x3c, 0x8d, 0x3e,
  0x11, 0x84, 0x4a, 0x3d, 0xcb, 0xdd, 0x98, 0x3e, 0xaf, 0x1d, 0xb2, 0x3e,
  0x96, 0xc3, 0x82, 0xbd, 0xa9, 0x1a, 0x73, 0x3e, 0x10, 0xd8, 0x9e, 0x3e,
  0x5d, 0x69, 0x1b, 0xbe, 0xff, 0xf4, 0xe6, 0xbe, 0xf3, 0x20, 0xa7, 0xbc,
  0x6d, 0x8a, 0x81, 0x3c, 0x7b, 0xe8, 0x56, 0x3c, 0x68, 0x9e, 0xd6, 0xbd,
  0x73, 0x1b, 0x52, 0xbd, 0xde, 0x26, 0xcf, 0xbd, 0x3d, 0x58, 0xcd, 0xbd,
  0x56, 0x42, 0x85, 0xbe, 0x30, 0x3a, 0x4c, 0xbd, 0xe0, 0x7d, 0x81, 0x3e,
  0xdf, 0xdb, 0x28, 0xbe, 0x47, 0xac, 0x07, 0xbe, 0x05, 0xc4, 0xa0, 0x3d,
  0xd1, 0xca, 0x38, 0xbe, 0x74, 0xb9, 0x76, 0xbd, 0x44, 0xa1, 0x85, 0xbe,
  0x89, 0xeb, 0x9e, 0x3b, 0x9d, 0xbc, 0x58, 0xbd, 0xd5, 0xcc, 0xa2, 0xbe,
  0x9f, 0x7d, 0xa1, 0xbe, 0x53, 0x3e, 0x8b, 0xbd, 0xa4, 0xd6, 0x96, 0xbe,
  0xf9, 0x65, 0xbf, 0xbd, 0x4e, 0x67, 0x21, 0xbe, 0xff, 0xc3, 0x93, 0xbe,
  0x82, 0xdd, 0xa8, 0x38, 0x01, 0x2e, 0xef, 0x3e, 0xe5, 0xa3, 0x6d, 0x3e,
  0x9f, 0x64, 0x91, 0x3e, 0x52, 0xa4, 0x0d, 0x3d, 0x4e, 0x12, 0x83, 0xbd,
  0x68, 0x0e, 0x17, 0xbe, 0x7d, 0xe3, 0x70, 0xbe, 0xa2, 0xab, 0xf0, 0x3c,
  0x46, 0xbb, 0x8d, 0xbb, 0xb2, 0xde, 0x03, 0xbe, 0xdb, 0xfd, 0x47, 0xbe,
  0x62, 0x9d, 0x8c, 0x3d, 0xa2, 0x32, 0xd7, 0xbb, 0xaa, 0x0e, 0xf6, 0x3c,
  0xb6, 0xfd, 0xca, 0xbd, 0xc7, 0x1a, 0xdb, 0x3e, 0x84, 0x3a, 0x68, 0xbd,
  0x96, 0x3c, 0xa0, 0xbe, 0xdf, 0x3d, 0x05, 0xbe, 0x17, 0x4f, 0x1e, 0x3d,
  0x7f, 0xe9, 0x56, 0xbd, 0x0e, 0x5a, 0x13, 0x3e, 0x2f, 0x38, 0x3f, 0x3e,
  0x2b, 0xba, 0x3c, 0x3e, 0x31, 0x56, 0x16, 0xbe, 0x1d, 0xb1, 0xab, 0xbe,
  0x69, 0x2a, 0x84, 0xbe, 0x5c, 0x58, 0xcf, 0xbd, 0x9d, 0xe6, 0x06, 0xbe,
  0x49, 0xdc, 0x28, 0xbe, 0xce, 0xfe, 0x0f, 0xbf, 0x81, 0x8e, 0x5b, 0x3e,
  0xc3, 0x06, 0xff, 0x3d, 0x13, 0x45, 0x26, 0x3e, 0x7f, 0xaf, 0x3e, 0x3e,
  0xb2, 0x75, 0x88, 0x3d, 0x5e, 0x17, 0x9c, 0xbd, 0xa6, 0xa4, 0xa5, 0xbd,
  0x9f, 0x4b, 0xbf, 0x3d, 0xc3, 0x58, 0x1d, 0x3f, 0x76, 0xc1, 0x21, 0xbd,
  0x2c, 0x22, 0x69, 0xbe, 0x92, 0x8b, 0x8f, 0xbd, 0x0f, 0xcc, 0xd9, 0xbc,
  0xe9, 0xfb, 0x0d, 0xbc, 0x92, 0x5d, 0x33, 0x3d, 0x00, 0x13, 0xcd, 0xbc,
  0xba, 0xfc, 0x73, 0xbe, 0xba, 0xc4, 0x00, 0xbf, 0x02, 0x56, 0xb0, 0xbe,
  0x79, 0x88, 0xf1, 0x3d, 0x55, 0xc0, 0xc1, 0xbe, 0x8d, 0x64, 0x99, 0x3d,
  0x3b, 0xf0, 0xce, 0x3d, 0xea, 0x3d, 0x15, 0xbd, 0x6e, 0xc8, 0xf5, 0xbd,
  0x43, 0x55, 0x0d, 0xbf, 0xbd, 0x16, 0x21, 0xbf, 0x62, 0xc7, 0x4a, 0x3e,
  0x3f, 0x0a, 0x6d, 0xbe, 0xba, 0x94, 0x0c, 0x3e, 0xcb, 0xdb, 0x28, 0x3d,
  0x64, 0x96, 0xdd, 0xbe, 0x0f, 0xc1, 0x46, 0xbf, 0x5b, 0xa7, 0x51, 0x3d,
  0x85, 0x93, 0x26, 0x3e, 0xfb, 0xfd, 0x54, 0xbe, 0xf2, 0x35, 0xe0, 0x3d,
  0xe6, 0x1e, 0xae, 0x3d, 0x0a, 0x85, 0x37, 0xba, 0x86, 0xca, 0xb8, 0xbe,
  0x31, 0xf7, 0x74, 0xbf, 0x48, 0x09, 0x20, 0x3e, 0x89, 0x89, 0x36, 0xb9,
  0xb8, 0xa1, 0x09, 0xbe, 0x75, 0xed, 0xe1, 0x3d, 0x13, 0xc9, 0xed, 0x3c,
  0x4b, 0x8b, 0x48, 0xbc, 0xc1, 0xef, 0x7c, 0xbf, 0x7c, 0x25, 0xc5, 0xbf,
  0xad, 0xa3, 0x04, 0x3d, 0x8f, 0xf5, 0x8d, 0x3d, 0xd3, 0x31, 0x77, 0xbc,
  0xe8, 0xed, 0xe4, 0x3d, 0x0c, 0x83, 0x73, 0xbe, 0x12, 0x1d, 0x07, 0x3e,
  0x7e, 0x46, 0x99, 0xbe, 0xaa, 0x99, 0x9f, 0xbe, 0x8b, 0xc1, 0x8b, 0xbe,
  0xaf, 0xcd, 0x77, 0xbe, 0x0b, 0xd7, 0xb8, 0xbe, 0xc7, 0x5a, 0x1b, 0xbe,
  0x0a, 0xdf, 0xff, 0xff, 0x10, 0x00, 0x00, 0x00, 0x08, 0x00, 0x00, 0x00,
  0x1c, 0x00, 0x00, 0x00, 0x38, 0x00, 0x00, 0x00, 0x04, 0x00, 0x00, 0x00,
  0x10, 0x00, 0x00, 0x00, 0x04, 0x00, 0x00, 0x00, 0x01, 0x00, 0x00, 0x00,
  0x08, 0x00, 0x00, 0x00, 0x1a, 0x00, 0x00, 0x00, 0x73, 0x65, 0x71, 0x75,
  0x65, 0x6e, 0x74, 0x69, 0x61, 0x6c, 0x2f, 0x63, 0x6f, 0x6e, 0x76, 0x32,
  0x64, 0x5f, 0x31, 0x2f, 0x43, 0x6f, 0x6e, 0x76, 0x32, 0x44, 0x00, 0x00,
  0x04, 0xdf, 0xff, 0xff, 0xfa, 0xdf, 0xff, 0xff, 0x04, 0x00, 0x00, 0x00,
  0x80, 0x01, 0x00, 0x00, 0x11, 0xf3, 0x25, 0x3d, 0x64, 0xdf, 0x08, 0x3e,
  0x48, 0x4c, 0xab, 0xbe, 0x96, 0xc0, 0xcb, 0x3e, 0x72, 0xef, 0xa7, 0xbd,
  0xfb, 0x2f, 0xa1, 0xbd, 0x43, 0x14, 0x72, 0x3e, 0xce, 0x7f, 0x24, 0xbe,
  0x1f, 0xba, 0xae, 0xbe, 0x7b, 0xcd, 0xee, 0x3c, 0x98, 0x42, 0x61, 0x3e,
  0xc7, 0x52, 0x73, 0x3e, 0x29, 0x85, 0x32, 0xbe, 0x49, 0x5c, 0x02, 0xbe,
  0xbb, 0x81, 0xa9, 0xbe, 0x80, 0xa6, 0x80, 0xbd, 0xd5, 0x07, 0x11, 0xbd,
  0x85, 0x2b, 0x07, 0x3e, 0x82, 0x98, 0x99, 0xbc, 0xc7, 0x9e, 0x0a, 0xbd,
  0x71, 0x90, 0x4e, 0x3e, 0xf6, 0x81, 0xc9, 0x3d, 0x79, 0xc8, 0x8b, 0xbd,
  0x62, 0xa8, 0x82, 0x3d, 0x8c, 0x64, 0x11, 0x3d, 0x9c, 0x83, 0x92, 0xbe,
  0xe1, 0x0d, 0xb9, 0xbd, 0x97, 0x19, 0x0f, 0xbe, 0x58, 0xd8, 0x9a, 0xbd,
  0x06, 0x3f, 0x12, 0x3e, 0xbc, 0x0b, 0x58, 0x3c, 0x6a, 0x47, 0x28, 0xbe,
  0xc4, 0x2c, 0x85, 0xbe, 0x27, 0x67, 0xe3, 0x3e, 0x42, 0x54, 0xae, 0x3e,
  0x08, 0x96, 0x29, 0xbd, 0x66, 0x5b, 0xf3, 0x3d, 0x17, 0xac, 0xc6, 0x3e,
  0xb9, 0xfa, 0xec, 0xbe, 0xf4, 0x54, 0x17, 0x3e, 0x1f, 0x44, 0x97, 0xbd,
  0xec, 0xcd, 0x09, 0xbe, 0x88, 0xe4, 0xa5, 0xbd, 0x54, 0xc8, 0xb1, 0xbe,
  0xab, 0x97, 0x63, 0x3e, 0xaa, 0x6f, 0x76, 0xbe, 0x35, 0xf8, 0xdd, 0x3c,
  0xe2, 0xef, 0x98, 0x3e, 0xfc, 0xde, 0x6a, 0x3d, 0x47, 0xd3, 0x46, 0x3d,
  0x80, 0x30, 0xe8, 0x3d, 0x69, 0x13, 0xce, 0x3d, 0xb1, 0xcf, 0xc3, 0x3b,
  0xa2, 0x84, 0xde, 0x3d, 0x7e, 0x20, 0x3d, 0xbd, 0x38, 0x5a, 0x5e, 0x3d,
  0x01, 0x36, 0x0d, 0x3e, 0xbc, 0x9f, 0xf6, 0x3c, 0x47, 0x9d, 0x28, 0xbc,
  0x60, 0x8c, 0x9a, 0xbd, 0x57, 0x56, 0x22, 0xbe, 0x58, 0x52, 0x96, 0xbc,
  0x18, 0xaf, 0x74, 0xbe, 0x15, 0x4b, 0x25, 0x3e, 0x67, 0xd3, 0x93, 0x3d,
  0x35, 0x1a, 0x10, 0xbd, 0xe7, 0xae, 0x16, 0x3e, 0xd9, 0xf1, 0x3a, 0x3d,
  0x0e, 0xeb, 0x38, 0x3d, 0x76, 0xd5, 0x18, 0xbd, 0x16, 0xe7, 0xb7, 0xba,
  0x19, 0xaa, 0xbd, 0x3e, 0x50, 0x10, 0x97, 0xbd, 0x66, 0xcc, 0x82, 0x3c,
  0x19, 0xde, 0x05, 0xbe, 0x91, 0x85, 0x34, 0x3e, 0xb5, 0xd0, 0xc0, 0x3d,
  0xdc, 0x6b, 0x7e, 0x3e, 0x20, 0xf2, 0xfe, 0x3e, 0x55, 0x00, 0xcd, 0x3c,
  0xaa, 0x07, 0x13, 0x3e, 0x51, 0x3c, 0x93, 0x3e, 0x8a, 0x36, 0x3c, 0xbe,
  0x7a, 0x40, 0x6d, 0xbe, 0xac, 0x94, 0xd6, 0x3c, 0x79, 0x26, 0x9c, 0x3d,
  0x39, 0x66, 0xe6, 0x3b, 0xf7, 0xfe, 0x25, 0x3d, 0x24, 0xfc, 0x90, 0x3d,
  0xc8, 0xdc, 0xba, 0x3c, 0x60, 0x0f, 0x52, 0x3d, 0x15, 0x03, 0x6e, 0x3d,
  0x61, 0x18, 0xd2, 0x3c, 0x66, 0xaa, 0x4f, 0x3d, 0x42, 0xab, 0x77, 0x3c,
  0x5c, 0x85, 0xb3, 0x3b, 0xe2, 0xe0, 0xff, 0xff, 0x10, 0x00, 0x00, 0x00,
  0x07, 0x00, 0x00, 0x00, 0x1c, 0x00, 0x00, 0x00, 0x38, 0x00, 0x00, 0x00,
  0x04, 0x00, 0x00, 0x00, 0x08, 0x00, 0x00, 0x00, 0x04, 0x00, 0x00, 0x00,
  0x03, 0x00, 0x00, 0x00, 0x01, 0x00, 0x00, 0x00, 0x18, 0x00, 0x00, 0x00,
  0x73, 0x65, 0x71, 0x75, 0x65, 0x6e, 0x74, 0x69, 0x61, 0x6c, 0x2f, 0x63,
  0x6f, 0x6e, 0x76, 0x32, 0x64, 0x2f, 0x43, 0x6f, 0x6e, 0x76, 0x32, 0x44,
  0x00, 0x00, 0x00, 0x00, 0xdc, 0xe0, 0xff, 0xff, 0xd2, 0xe1, 0xff, 0xff,
  0x04, 0x00, 0x00, 0x00, 0xc0, 0x00, 0x00, 0x00, 0x91, 0x23, 0x14, 0xbe,
  0x7f, 0xb9, 0x43, 0x3e, 0xc0, 0xda, 0xcd, 0x3e, 0x21, 0x6c, 0x81, 0x3e,
  0xa4, 0x74, 0x9f, 0xbe, 0x9d, 0xd8, 0x39, 0x3e, 0x5c, 0x7a, 0xc0, 0x3e,
  0x36, 0xd9, 0x0d, 0xbb, 0x37, 0xc1, 0x50, 0xbe, 0x2e, 0x0e, 0x9d, 0x3d,
  0x20, 0xef, 0xed, 0x3d, 0x5e, 0xa5, 0xc2, 0x3d, 0x9e, 0x17, 0x62, 0xbe,
  0x73, 0xfb, 0x24, 0x3e, 0xfa, 0xa4, 0xaf, 0xbe, 0xd7, 0xa0, 0x3b, 0x3e,
  0x9b, 0xac, 0x68, 0xbe, 0x16, 0x74, 0x6b, 0x3e, 0x53, 0x42, 0xd1, 0xbd,
  0x58, 0xe8, 0x5a, 0x3e, 0x45, 0xe9, 0xce, 0xbd, 0x04, 0x52, 0xbe, 0xbe,
  0xd6, 0x20, 0xaf, 0x3e, 0x14, 0x67, 0x96, 0xbd, 0xe2, 0x52, 0xf5, 0x3d,
  0xc5, 0x77, 0x81, 0xbd, 0x1c, 0x50, 0x27, 0x3e, 0x8d, 0x78, 0xcd, 0xbc,
  0xc3, 0xa8, 0xc3, 0x3e, 0xcc, 0x1b, 0x37, 0x3e, 0xa7, 0xbc, 0x9b, 0xbe,
  0x2e, 0x5c, 0x1b, 0x3e, 0xbc, 0xe7, 0x3e, 0xbe, 0xd0, 0x77, 0x2e, 0x3e,
  0xe6, 0x23, 0x31, 0xbd, 0xd1, 0x0a, 0x42, 0x3e, 0xbe, 0x1f, 0x31, 0xbe,
  0xab, 0xda, 0x78, 0xbe, 0x9c, 0x41, 0xaf, 0x3e, 0x0b, 0x6b, 0x4e, 0x3d,
  0xa1, 0x57, 0x37, 0xbe, 0x60, 0x2e, 0x3b, 0xbf, 0xa1, 0xac, 0xde, 0x3d,
  0xac, 0xde, 0xa1, 0x3d, 0xea, 0xcf, 0xb5, 0x3e, 0x55, 0x10, 0xbc, 0x3d,
  0x9c, 0x41, 0x84, 0xbe, 0x78, 0x71, 0x5f, 0x3e, 0xfa, 0xe1, 0xff, 0xff,
  0x10, 0x00, 0x00, 0x00, 0x06, 0x00, 0x00, 0x00, 0x14, 0x00, 0x00, 0x00,
  0x30, 0x00, 0x00, 0x00, 0x02, 0x00, 0x00, 0x00, 0x03, 0x00, 0x00, 0x00,
  0x10, 0x00, 0x00, 0x00, 0x19, 0x00, 0x00, 0x00, 0x73, 0x65, 0x71, 0x75,
  0x65, 0x6e, 0x74, 0x69, 0x61, 0x6c, 0x2f, 0x64, 0x65, 0x6e, 0x73, 0x65,
  0x5f, 0x31, 0x2f, 0x4d, 0x61, 0x74, 0x4d, 0x75, 0x6c, 0x00, 0x00, 0x00,
  0xec, 0xe1, 0xff, 0xff, 0xe2, 0xe2, 0xff, 0xff, 0x04, 0x00, 0x00, 0x00,
  0x00, 0x1c, 0x00, 0x00, 0x9a, 0x0c, 0x3d, 0xbd, 0x59, 0xcf, 0x2c, 0xbe,
  0x97, 0x9e, 0x0a, 0xbe, 0x46, 0x6c, 0x3f, 0xbe, 0xde, 0xa2, 0x68, 0x3d,
  0x88, 0xf6, 0x10, 0x3c, 0x09, 0x4a, 0x09, 0xbe, 0x17, 0x5d, 0x00, 0xbe,
  0xac, 0x7d, 0x88, 0xbe, 0x45, 0xf0, 0x3c, 0xbd, 0x50, 0xd5, 0x88, 0xbe,
  0x9f, 0x53, 0x4f, 0xbe, 0x78, 0xb0, 0x23, 0xbe, 0xa5, 0x51, 0xf7, 0xbd,
  0xdc, 0x74, 0x82, 0xbe, 0x47, 0xb2, 0x39, 0xbe, 0xee, 0x43, 0x8f, 0xbc,
  0xfd, 0xd6, 0xe0, 0x3d, 0x5f, 0x0b, 0x80, 0xbe, 0x70, 0x06, 0xbd, 0x3c,
  0x1b, 0xcd, 0x94, 0x3d, 0x2a, 0x16, 0xd2, 0xbd, 0x7f, 0x26, 0x5d, 0xbe,
  0x1a, 0x0b, 0xfe, 0x3c, 0xf3, 0x0a, 0xb8, 0xbd, 0xea, 0x47, 0x10, 0xbd,
  0xe4, 0x3b, 0x80, 0xbc, 0x3c, 0x45, 0x0f, 0xbe, 0xba, 0xf1, 0xa7, 0xbd,
  0xe8, 0x1c, 0x71, 0x3b, 0x15, 0xae, 0x80, 0x3e, 0xfa, 0x49, 0x65, 0xbe,
  0xd7, 0x64, 0xa6, 0x3d, 0xe7, 0xbd, 0x7b, 0x3d, 0x4f, 0x0a, 0x90, 0x3e,
  0x50, 0x84, 0xc3, 0xbd, 0xdb, 0x12, 0xb7, 0xbd, 0x91, 0x28, 0x8c, 0xbd,
  0x4e, 0xde, 0x1f, 0xbe, 0x66, 0x93, 0xd8, 0xbd, 0x6d, 0xc8, 0x04, 0x3e,
  0xfd, 0xab, 0x0e, 0xbe, 0x3c, 0x7f, 0x58, 0xbd, 0xaf, 0x67, 0x9d, 0xbc,
  0xc3, 0xf2, 0x2c, 0x3e, 0x83, 0xd9, 0xef, 0xbd, 0x2e, 0xc5, 0xc2, 0x3c,
  0xad, 0x94, 0x1c, 0xbe, 0xc4, 0x0a, 0x3b, 0xbe, 0xee, 0x0a, 0x29, 0xbe,
  0xd9, 0x16, 0x6d, 0x3e, 0x63, 0x55, 0xdc, 0x3d, 0xb2, 0x11, 0x69, 0xbe,
  0xdb, 0xa9, 0x3d, 0x3d, 0x88, 0x98, 0xa7, 0xbd, 0x13, 0x90, 0x13, 0x3e,
  0x55, 0x26, 0x08, 0x3e, 0xdb, 0x01, 0x00, 0x3b, 0xdc, 0xea, 0x09, 0xbe,
  0xe7, 0xee, 0xe5, 0xbd, 0x8e, 0x31, 0x14, 0x3e, 0x18, 0x1b, 0xda, 0x3c,
  0x1b, 0x98, 0x49, 0x3e, 0x81, 0xe0, 0xb6, 0xbe, 0xca, 0x0e, 0x38, 0xbe,
  0xde, 0xf0, 0x83, 0xbe, 0x05, 0xdf, 0xe8, 0x3d, 0xfe, 0xab, 0x2e, 0x3e,
  0x3c, 0x86, 0x1e, 0xbe, 0x06, 0x8e, 0xbb, 0x3d, 0xaa, 0x56, 0x79, 0xbd,
  0xe3, 0xb9, 0x30, 0xbd, 0xcd, 0x6e, 0xbf, 0x3d, 0x98, 0x46, 0xae, 0x3d,
  0x9f, 0x76, 0xfa, 0x3d, 0x09, 0xaf, 0xb6, 0xbd, 0x32, 0xad, 0x9e, 0x3e,
  0xa1, 0x50, 0x87, 0x3d, 0xf6, 0x49, 0x73, 0x3d, 0x86, 0x71, 0x5e, 0xbe,
  0x91, 0x60, 0xc3, 0x3d, 0x5c, 0x05, 0x0b, 0xbe, 0x4b, 0x22, 0x06, 0x3d,
  0x02, 0x05, 0x34, 0xbe, 0x24, 0x20, 0xb2, 0xbc, 0x39, 0xf4, 0x85, 0x3d,
  0xbb, 0x8d, 0x1f, 0x3e, 0x1b, 0xad, 0x85, 0x3e, 0x67, 0x83, 0x85, 0x3e,
  0xaa, 0x16, 0xa1, 0xbe, 0x04, 0x66, 0xe9, 0x3c, 0x0d, 0xdc, 0x41, 0xbe,
  0x5e, 0x71, 0x36, 0x3d, 0xe7, 0x62, 0x4c, 0xbd, 0xeb, 0xa5, 0x0e, 0x3d,
  0x38, 0x95, 0x8a, 0xbe, 0x26, 0xa1, 0x1a, 0xbe, 0x3f, 0x6a, 0xa0, 0xbd,
  0x62, 0x02, 0x88, 0x3e, 0x6c, 0xe2, 0xd3, 0xbd, 0x9a, 0x0a, 0xc5, 0xbd,
  0x35, 0x90, 0x3e, 0xbd, 0xaa, 0x25, 0x1d, 0x3e, 0x54, 0xf7, 0x87, 0x3e,
  0xc0, 0x5b, 0x13, 0x3e, 0xeb, 0xb1, 0xe1, 0x3c, 0xff, 0x96, 0x83, 0xbd,
  0x7f, 0xbb, 0x74, 0xbe, 0xb3, 0xab, 0x89, 0x3d, 0xf7, 0x7b, 0x35, 0xbe,
  0x67, 0x83, 0x48, 0xbc, 0xb9, 0xc1, 0x91, 0x3c, 0x1d, 0x39, 0x7d, 0xbe,
  0xa9, 0x58, 0x8c, 0xbd, 0xe2, 0xbe, 0xc7, 0xbe, 0x01, 0x9a, 0x8b, 0x3e,
  0x7f, 0xaf, 0x7f, 0xbc, 0x1d, 0x6f, 0xae, 0xbe, 0x44, 0x82, 0x5f, 0xbc,
  0xe9, 0x9f, 0xb4, 0xbe, 0xa5, 0xf0, 0x0d, 0xbe, 0xf4, 0x02, 0x39, 0x3d,
  0xb7, 0x5b, 0xf8, 0x3d, 0x57, 0x79, 0x61, 0x3e, 0x5d, 0xc8, 0x07, 0x3e,
  0xfa, 0x88, 0x54, 0x3e, 0x65, 0x65, 0x9a, 0xbe, 0x1c, 0xbb, 0x7a, 0xbe,
  0xab, 0x11, 0x72, 0x3d, 0x01, 0xeb, 0xe1, 0xbe, 0xa7, 0xbf, 0x67, 0xbe,
  0x66, 0x25, 0xbc, 0x3d, 0x21, 0xd1, 0x22, 0x3d, 0x23, 0x67, 0x40, 0x3d,
  0xd5, 0xf3, 0xb4, 0x3d, 0x65, 0x4f, 0x4e, 0xbe, 0x93, 0x64, 0x1b, 0xbd,
  0xd6, 0x03, 0x03, 0xbd, 0x7b, 0xc0, 0x5f, 0xbe, 0x00, 0x20, 0x0a, 0xbd,
  0xf4, 0x5b, 0x11, 0xbe, 0xdc, 0x8c, 0x5d, 0x3e, 0x2a, 0x0c, 0xbe, 0xbd,
  0xbe, 0x1e, 0xc1, 0x3c, 0xe5, 0xe1, 0xe5, 0xbc, 0x71, 0x76, 0x4c, 0xbe,
  0xcc, 0x09, 0xfe, 0xbd, 0x1c, 0x4d, 0x98, 0xbe, 0x2d, 0x18, 0x43, 0x3b,
  0xe5, 0x91, 0x95, 0x3e, 0x2f, 0x63, 0x82, 0xbd, 0x96, 0x50, 0x74, 0xbc,
  0xfa, 0x14, 0x80, 0xbd, 0x79, 0xee, 0xa2, 0xbd, 0x33, 0x4e, 0x03, 0xbf,
  0xb8, 0xe6, 0x16, 0xbf, 0xb4, 0xd3, 0x40, 0xbe, 0x3f, 0x56, 0x65, 0x3d,
  0xe9, 0x6a, 0x51, 0x3e, 0xc0, 0x57, 0x1e, 0xbd, 0xb4, 0x30, 0x82, 0xbd,
  0xd7, 0x7d, 0xba, 0xbe, 0xca, 0xc9, 0x2d, 0x3d, 0x60, 0x7e, 0xb2, 0xbd,
  0x60, 0xd6, 0x24, 0xbe, 0x56, 0xcd, 0xac, 0xbd, 0x3a, 0x3a, 0x1b, 0x3d,
  0x0f, 0x54, 0x5b, 0x3e, 0xb4, 0xe5, 0x43, 0xbe, 0xfe, 0xcd, 0x4b, 0xbd,
  0x95, 0x1f, 0xbf, 0xbe, 0x5e, 0xa8, 0x9b, 0xbe, 0x49, 0x35, 0xec, 0xbd,
  0x87, 0x7a, 0xf8, 0xbd, 0x5e, 0x9b, 0x78, 0xbc, 0xfc, 0x00, 0x5c, 0xbc,
  0x86, 0x36, 0x4f, 0x3d, 0xef, 0x65, 0x20, 0xbe, 0x3a, 0x0c, 0x17, 0x3d,
  0x83, 0x5d, 0x4e, 0xbe, 0x92, 0x27, 0xce, 0xbe, 0x8f, 0xc6, 0x64, 0x3e,
  0xac, 0xec, 0x6b, 0xbd, 0xa3, 0xf1, 0x1f, 0x3d, 0xe5, 0xde, 0xc5, 0xbd,
  0xc8, 0xe2, 0xbf, 0x3d, 0xaa, 0x8f, 0x66, 0xbd, 0x50, 0x70, 0xc9, 0xbe,
  0x78, 0xa0, 0xbc, 0xbc, 0x69, 0x94, 0xcc, 0xbd, 0x56, 0x3f, 0x28, 0xbd,
  0xb0, 0xf0, 0x03, 0xbd, 0xd3, 0xa3, 0x48, 0x3d, 0x93, 0xdb, 0xc0, 0xbe,
  0x2c, 0x02, 0xeb, 0xbc, 0xdc, 0xf8, 0x21, 0xbe, 0x01, 0x29, 0x51, 0xbe,
  0x90, 0x49, 0xb8, 0x3e, 0x93, 0xf5, 0x34, 0x3c, 0x04, 0xb6, 0xaf, 0x3d,
  0x05, 0x6e, 0x12, 0x3e, 0x39, 0xb1, 0xf2, 0xbc, 0xa3, 0x37, 0xbb, 0xbe,
  0x3b, 0x57, 0x00, 0xbe, 0xdd, 0x02, 0xbc, 0xbd, 0x39, 0xce, 0x9d, 0xbe,
  0x3a, 0x85, 0x80, 0xbe, 0x6f, 0xbd, 0x91, 0xbc, 0xe3, 0x85, 0x9f, 0x3c,
  0xd1, 0xfd, 0xb9, 0xbe, 0x64, 0xec, 0x8a, 0xbd, 0x7f, 0xcd, 0xca, 0xbd,
  0xc5, 0x56, 0x01, 0xbe, 0xf1, 0x88, 0x34, 0x3e, 0x2c, 0xc9, 0xde, 0xbd,
  0x1b, 0xaf, 0x81, 0xbe, 0x22, 0x77, 0x90, 0xbe, 0x22, 0x47, 0xd3, 0xbd,
  0xa6, 0xce, 0x80, 0xbd, 0x43, 0x82, 0xf9, 0xbd, 0x8f, 0x6f, 0x03, 0xbe,
  0x68, 0x43, 0x68, 0xbe, 0x33, 0x34, 0x1d, 0xbe, 0xaa, 0x62, 0x0f, 0xbd,
  0x29, 0xce, 0x68, 0xbd, 0x15, 0x9a, 0x5d, 0xbd, 0xbb, 0xbe, 0x7e, 0x3e,
  0xe4, 0xe6, 0x8e, 0xbe, 0x2a, 0xaa, 0x23, 0x3e, 0x4f, 0x7d, 0x6d, 0x3e,
  0x8b, 0xb5, 0x2b, 0xbe, 0x79, 0xab, 0xb0, 0x3d, 0xed, 0xd4, 0x1a, 0x3e,
  0xe3, 0xdb, 0x8d, 0xbe, 0x80, 0xd8, 0x18, 0xbd, 0x5f, 0x81, 0x2f, 0xbf,
  0xa7, 0x97, 0x49, 0xbe, 0x8d, 0xc9, 0x65, 0xbe, 0xd1, 0x0a, 0x48, 0xbd,
  0x7a, 0xb6, 0x8f, 0xbe, 0xce, 0x3b, 0x2e, 0xbe, 0x06, 0x19, 0x5b, 0xbe,
  0x2b, 0x84, 0x57, 0x3c, 0x3b, 0xac, 0xc9, 0x3d, 0x57, 0x6c, 0xbf, 0x3d,
  0x1e, 0xde, 0x22, 0x3f, 0xaf, 0x6f, 0x34, 0xbe, 0x5c, 0x89, 0x7a, 0x3e,
  0xe4, 0xc2, 0xb4, 0x3e, 0x99, 0x5b, 0x4e, 0xbd, 0x0d, 0x6a, 0xdd, 0x3e,
  0x8c, 0xca, 0x72, 0xbe, 0x2c, 0xc0, 0xd1, 0xbd, 0xdf, 0x3e, 0xf0, 0xbc,
  0x5f, 0x51, 0xcb, 0xbb, 0xc4, 0x20, 0xfb, 0xbd, 0xd1, 0x35, 0xe0, 0xbd,
  0xb6, 0x8c, 0x04, 0xbe, 0xfd, 0xbd, 0x70, 0x3d, 0x74, 0x50, 0x03, 0x3d,
  0x01, 0x95, 0x84, 0x3d, 0x89, 0x44, 0xfc, 0x3e, 0xba, 0x55, 0xe7, 0xbd,
  0x41, 0x06, 0x54, 0x3e, 0x0d, 0xdb, 0x58, 0x3e, 0xce, 0x4e, 0xcb, 0xbd,
  0xd7, 0x00, 0xae, 0x3e, 0x06, 0xea, 0xc9, 0xbe, 0x02, 0xe0, 0x27, 0xbe,
  0x81, 0x5e, 0x22, 0x3e, 0x13, 0x11, 0x84, 0x3d, 0xb3, 0x7b, 0x0b, 0xbe,
  0xec, 0x16, 0x06, 0xbe, 0x34, 0x4a, 0x3b, 0xbe, 0x2f, 0x2f, 0x0c, 0x3e,
  0x3a, 0x41, 0xc9, 0x3d, 0x4d, 0xe1, 0xcc, 0x3d, 0xa9, 0x65, 0x20, 0x3f,
  0xfc, 0x96, 0x16, 0xbe, 0x4f, 0xa4, 0xf9, 0x3d, 0x1c, 0xa8, 0x60, 0xbc,
  0x9d, 0x72, 0x95, 0xbe, 0x68, 0x8c, 0xab, 0x3e, 0xbc, 0xa4, 0xab, 0xbe,
  0xd4, 0x5b, 0x6e, 0xbd, 0x3e, 0xb1, 0xc0, 0x3e, 0x4e, 0x52, 0xb6, 0x3c,
  0x7e, 0x71, 0x8e, 0xbe, 0xeb, 0xa7, 0x79, 0xbd, 0xbf, 0xff, 0x89, 0xbe,
  0xbd, 0x84, 0x2b, 0xbd, 0x6f, 0x0e, 0x43, 0x3d, 0x87, 0xc4, 0xb5, 0x3c,
  0x03, 0xb1, 0xe1, 0x3e, 0xa3, 0x89, 0x0a, 0xbe, 0xa5, 0x82, 0x71, 0x3e,
  0x79, 0x8e, 0xe3, 0x3d, 0xb9, 0xf6, 0x42, 0x3d, 0xac, 0x36, 0xf1, 0x3e,
  0xca, 0xce, 0x21, 0xba, 0x74, 0x9c, 0xfc, 0x3d, 0xb6, 0x2d, 0x36, 0x3e,
  0xd7, 0x56, 0x01, 0x3d, 0xe2, 0xa4, 0x0f, 0xbe, 0x1d, 0x3a, 0xcc, 0xbd,
  0xf6, 0x74, 0x14, 0xbe, 0x88, 0x5a, 0x0e, 0x3e, 0x34, 0x68, 0x25, 0xbd,
  0x2a, 0x14, 0xae, 0x3d, 0x1f, 0x49, 0xd4, 0x3e, 0x9e, 0x60, 0x2a, 0xbe,
  0x67, 0x36, 0x06, 0x3e, 0xb9, 0xf9, 0x23, 0x3e, 0x2d, 0xb8, 0xae, 0xbc,
  0x4b, 0xee, 0xee, 0x3e, 0xea, 0xca, 0xb1, 0xbe, 0xc2, 0x39, 0xef, 0xbd,
  0xb1, 0x68, 0x1a, 0xbe, 0x40, 0xd9, 0x0e, 0xbe, 0x76, 0xd2, 0x05, 0xbe,
  0xe3, 0x5b, 0x41, 0x3b, 0x00, 0x33, 0x36, 0xbe, 0x36, 0x67, 0xc2, 0x3d,
  0x88, 0x21, 0xbe, 0xbd, 0xbe, 0x4b, 0x56, 0xbd, 0x7e, 0x6d, 0x2e, 0x3f,
  0x0a, 0xcb, 0x9d, 0xbd, 0x58, 0xee, 0x42, 0x3d, 0xa0, 0x5a, 0x84, 0x3e,
  0x6a, 0xa0, 0x9a, 0x3d, 0xf7, 0x4f, 0x3f, 0x3d, 0x94, 0x93, 0x66, 0xbd,
  0x01, 0x81, 0x0a, 0xbe, 0x3e, 0x05, 0x19, 0xbe, 0x4b, 0xa4, 0xe1, 0xbd,
  0x0a, 0xfe, 0x28, 0x3d, 0xa7, 0x1a, 0xac, 0x3d, 0x0d, 0x31, 0x11, 0x3e,
  0x00, 0xb3, 0x09, 0xbf, 0x6c, 0xf1, 0x61, 0xbe, 0x2a, 0x29, 0x3c, 0xbd,
  0x23, 0x67, 0x86, 0xbd, 0xd2, 0xc0, 0x94, 0xbe, 0xe9, 0x14, 0xf7, 0xbe,
  0x75, 0x6e, 0xbf, 0xbe, 0x26, 0x21, 0x8f, 0xbe, 0x67, 0x85, 0xf9, 0xbc,
  0x1b, 0xf7, 0xa0, 0xbe, 0x3e, 0x9f, 0x72, 0xbe, 0x08, 0xc9, 0x8d, 0xbd,
  0x32, 0xb8, 0xa3, 0x3c, 0x64, 0x89, 0x59, 0xbe, 0x7f, 0x84, 0x41, 0x3d,
  0xa1, 0x9e, 0x64, 0x3d, 0xde, 0x50, 0xe4, 0xbd, 0xb5, 0x0e, 0x9f, 0x3b,
  0xde, 0x0a, 0xf0, 0xbd, 0x92, 0x18, 0x76, 0xbd, 0x34, 0x9c, 0xd1, 0xbd,
  0xcc, 0xeb, 0xf2, 0xbd, 0x11, 0x97, 0xc1, 0xbe, 0xe5, 0xad, 0x1d, 0x3d,
  0x3b, 0x65, 0xb7, 0x3d, 0x5f, 0x07, 0xbd, 0xbd, 0x2a, 0x2d, 0xf1, 0xbd,
  0xba, 0x1e, 0xcd, 0xbe, 0x0a, 0x7c, 0x45, 0xbd, 0x9e, 0x91, 0x93, 0xbe,
  0xb7, 0xb4, 0xea, 0x3d, 0x70, 0x49, 0xf0, 0x3d, 0xe8, 0x90, 0x54, 0x3e,
  0x99, 0x2a, 0xaf, 0x3d, 0x2f, 0x33, 0x05, 0xbe, 0xf4, 0xf4, 0xad, 0xbd,
  0x6c, 0x1d, 0x8e, 0xbd, 0xec, 0xdb, 0x01, 0x3d, 0x1c, 0x71, 0xe1, 0xbd,
  0xba, 0x05, 0x94, 0xbd, 0xbe, 0xb3, 0x0d, 0x3d, 0x9c, 0xc4, 0xa9, 0xbd,
  0x6c, 0x6f, 0x4f, 0xbd, 0xf3, 0x2d, 0xc9, 0xbd, 0xc9, 0x94, 0xd1, 0xbd,
  0xfd, 0xec, 0xdd, 0xbd, 0x01, 0x2f, 0x97, 0xbc, 0xb3, 0x91, 0x9d, 0xbd,
  0xd1, 0x74, 0x81, 0x3d, 0x8f, 0x1d, 0x1a, 0xbe, 0xbe, 0x40, 0xe2, 0x3d,
  0xbe, 0xca, 0xf3, 0xbd, 0xd3, 0xe8, 0xa6, 0xbd, 0xa3, 0x03, 0x39, 0x3e,
  0x00, 0x63, 0xa1, 0xbb, 0x4b, 0xb2, 0x1f, 0x3e, 0xbf, 0xb7, 0x8a, 0xbd,
  0x08, 0x31, 0xaa, 0x3b, 0xc0, 0x4c, 0x19, 0xbd, 0xfc, 0x1d, 0x54, 0xbd,
  0x4d, 0xbe, 0x22, 0xbd, 0x7e, 0x53, 0xa2, 0xbe, 0x01, 0x97, 0x18, 0x3e,
  0x65, 0x00, 0x23, 0xbe, 0x14, 0x4b, 0x8f, 0x3e, 0x6d, 0x9e, 0x59, 0x3e,
  0xcc, 0xa9, 0xd1, 0xbd, 0xc0, 0x0d, 0x78, 0xbc, 0xa8, 0x59, 0x09, 0x3d,
  0xb4, 0x6a, 0x99, 0x3e, 0xf3, 0x1d, 0x7f, 0x3e, 0xe2, 0xd5, 0xeb, 0x3d,
  0x78, 0xbc, 0x5e, 0x3e, 0x56, 0x0d, 0x2d, 0xbd, 0xa4, 0x83, 0x82, 0xbc,
  0xd6, 0x44, 0xfe, 0x3d, 0x0d, 0x37, 0x20, 0x3e, 0xf6, 0x37, 0xcf, 0xbe,
  0xdb, 0x42, 0xca, 0xbd, 0x7c, 0x4d, 0x6a, 0xbe, 0x1a, 0x85, 0xea, 0x3e,
  0x7e, 0xf4, 0xc8, 0xbd, 0x14, 0x57, 0x06, 0xbe, 0xa4, 0x22, 0x81, 0x3e,
  0xf3, 0xd7, 0x33, 0xbc, 0x74, 0x6d, 0xd7, 0x3e, 0x68, 0x5d, 0xa1, 0x3e,
  0xaf, 0x82, 0xa3, 0xbd, 0xd0, 0xfb, 0x6d, 0x3c, 0xfa, 0xf3, 0x39, 0xbd,
  0x1f, 0x26, 0x9e, 0x3e, 0x36, 0x70, 0x3a, 0xbd, 0x6b, 0xf6, 0x86, 0x3e,
  0xdb, 0x40, 0x8a, 0xbe, 0x42, 0xf1, 0xa9, 0xbd, 0x58, 0xd0, 0xd6, 0xbd,
  0x24, 0x2c, 0x99, 0x3e, 0x08, 0xa3, 0x12, 0xbd, 0xdb, 0xba, 0x9d, 0x3d,
  0x7d, 0xe3, 0xba, 0x3d, 0xc5, 0xc1, 0x58, 0x3d, 0x32, 0x87, 0xbb, 0x3e,
  0x30, 0x2f, 0x59, 0x3e, 0xa8, 0x1f, 0xf3, 0xbc, 0x15, 0xa7, 0xb6, 0xbd,
  0xca, 0x14, 0xa4, 0xbc, 0xbc, 0xbc, 0x9c, 0x3d, 0x08, 0x9e, 0xb3, 0x3b,
  0x22, 0x27, 0xff, 0x3d, 0x3f, 0xfa, 0x5a, 0xbe, 0x62, 0xdd, 0xe9, 0xbd,
  0x8c, 0xcb, 0x2d, 0x3e, 0x4e, 0xc2, 0xcc, 0xbd, 0xe8, 0xd5, 0x01, 0xbd,
  0x59, 0xf5, 0x30, 0xbe, 0xdb, 0x5b, 0x06, 0xbe, 0x25, 0x56, 0x22, 0xbd,
  0xaa, 0x3b, 0x3b, 0xbe, 0x66, 0x46, 0x83, 0xbd, 0x16, 0xa1, 0x2c, 0xbc,
  0x18, 0x83, 0xe8, 0x3d, 0xd7, 0xaf, 0x2a, 0x3e, 0xd3, 0xe5, 0xc0, 0x3c,
  0x7f, 0xce, 0x81, 0xbc, 0xb4, 0x8b, 0xed, 0xbc, 0xd4, 0xb4, 0xf7, 0x3d,
  0x54, 0x06, 0x7c, 0x3d, 0xe6, 0x70, 0x2d, 0xbe, 0x21, 0x66, 0xeb, 0xbc,
  0x1a, 0x6a, 0x48, 0xbd, 0x17, 0x9c, 0xf5, 0x3d, 0xd1, 0xa4, 0x3e, 0x3d,
  0x4e, 0x09, 0x04, 0xbd, 0x72, 0x79, 0xde, 0xbc, 0x4a, 0x04, 0x13, 0x3b,
  0x1f, 0x47, 0xd2, 0x3d, 0xed, 0x1e, 0xfe, 0x3d, 0xa8, 0x21, 0xeb, 0x3d,
  0x7d, 0x6e, 0x03, 0x3e, 0xec, 0x3d, 0x74, 0xbd, 0xd4, 0xf4, 0x12, 0x3d,
  0x5e, 0xaf, 0xfd, 0x3d, 0x76, 0x66, 0x34, 0xbe, 0xfb, 0x6f, 0x53, 0xbe,
  0x05, 0x8f, 0xfe, 0xbd, 0x62, 0x1a, 0xd8, 0xbd, 0x47, 0x9b, 0xc2, 0x3b,
  0x54, 0x0a, 0x01, 0x3d, 0x4d, 0x54, 0x04, 0xbd, 0x5e, 0x63, 0x90, 0xbd,
  0x83, 0x2c, 0x69, 0xbc, 0xae, 0xe3, 0x1c, 0xbd, 0x3e, 0xa7, 0x10, 0xbe,
  0x6d, 0xe2, 0x0e, 0x3d, 0xff, 0x09, 0x81, 0xbd, 0x5f, 0x52, 0xe1, 0x3d,
  0x1b, 0x1c, 0x60, 0xbe, 0xad, 0x02, 0x93, 0x3d, 0x83, 0xca, 0x6f, 0xbe,
  0xd0, 0xa8, 0xc7, 0x3d, 0x9e, 0x0a, 0xe2, 0xbd, 0x4a, 0x98, 0xd3, 0x3d,
  0x60, 0x60, 0x94, 0xbd, 0xa2, 0x0b, 0x4f, 0xbe, 0x10, 0xde, 0x9c, 0xbe,
  0x64, 0x0e, 0x8c, 0xbe, 0xa6, 0x15, 0xb3, 0xbd, 0x49, 0x9f, 0xb0, 0xbd,
  0x4b, 0x19, 0x22, 0xbe, 0xed, 0xce, 0x21, 0xbd, 0xaa, 0xb7, 0x5d, 0x3e,
  0x2c, 0x7a, 0x8c, 0xbe, 0x93, 0x5b, 0x34, 0xbe, 0x1b, 0xb7, 0xb0, 0x3d,
  0xcb, 0x8f, 0xc8, 0xbd, 0xd1, 0xb9, 0x46, 0x3d, 0xae, 0xec, 0x4a, 0x3d,
  0x15, 0x02, 0x71, 0x3e, 0xa5, 0x22, 0xcc, 0xbd, 0xee, 0x47, 0xde, 0x3d,
  0x8b, 0x74, 0x36, 0xbe, 0x7f, 0x6b, 0xa2, 0xbd, 0x2b, 0x75, 0xd0, 0xbd,
  0xa6, 0x6d, 0x70, 0xbd, 0x27, 0x16, 0x0f, 0xbe, 0x9e, 0x68, 0x28, 0x3e,
  0xa2, 0x4b, 0x0f, 0x3e, 0x9e, 0xec, 0xbe, 0x3b, 0x78, 0xb3, 0xec, 0xbd,
  0xf4, 0x5c, 0x78, 0xba, 0x3c, 0x1a, 0x1a, 0xbe, 0x18, 0x5f, 0x17, 0xbe,
  0x70, 0xf7, 0x2c, 0xbe, 0x5e, 0xed, 0x2a, 0x3e, 0xca, 0x6e, 0x25, 0x3d,
  0x3f, 0x14, 0xdd, 0xbd, 0xbf, 0xc3, 0x44, 0x3c, 0x85, 0xc6, 0x2c, 0xbe,
  0x9d, 0x2e, 0x08, 0x3c, 0x09, 0x3c, 0x2e, 0x3d, 0x8a, 0xfa, 0xdd, 0xbd,
  0xa5, 0x43, 0x44, 0xbd, 0xb0, 0x07, 0xde, 0x3d, 0x53, 0xfc, 0xae, 0x3d,
  0x9e, 0x88, 0xe3, 0x3d, 0xb7, 0x5d, 0x8e, 0xbe, 0x9c, 0xc6, 0x00, 0x3e,
  0x37, 0x9c, 0x8d, 0xbe, 0x3b, 0x56, 0x17, 0xbc, 0xb2, 0x73, 0x4d, 0xbe,
  0xb3, 0x14, 0xd9, 0xbe, 0x95, 0x15, 0xad, 0xbd, 0xa6, 0x59, 0x02, 0xbd,
  0xe7, 0x59, 0xe6, 0xbc, 0x72, 0x21, 0xb1, 0xbd, 0xa9, 0x55, 0x8a, 0xbd,
  0xdd, 0xb9, 0xea, 0xbd, 0x3f, 0xd0, 0x95, 0xbe, 0x65, 0x26, 0xf0, 0xbd,
  0xa8, 0xd0, 0xfb, 0x3d, 0xd3, 0x0a, 0x91, 0xbd, 0xa9, 0x2e, 0x84, 0xbe,
  0x1c, 0x9e, 0xfd, 0xbd, 0x02, 0xee, 0x2b, 0xbe, 0x0c, 0xfa, 0x51, 0xbe,
  0x15, 0xe2, 0xec, 0x3c, 0xea, 0x1a, 0xb0, 0x3d, 0x02, 0xb2, 0x6d, 0xbd,
  0x07, 0x83, 0x7c, 0xbe, 0x6f, 0x6a, 0xc4, 0xbd, 0x03, 0x57, 0xef, 0xbc,
  0x88, 0x91, 0xf1, 0xbd, 0x96, 0xac, 0x89, 0xbe, 0xac, 0x12, 0x5b, 0xbe,
  0x36, 0xd1, 0xf9, 0xbd, 0xdf, 0xff, 0x55, 0xbe, 0x11, 0xcc, 0x3c, 0x3c,
  0x69, 0xaf, 0xc9, 0x3b, 0xc5, 0xac, 0x66, 0x3c, 0x6a, 0xae, 0x2a, 0xbe,
  0x82, 0x0e, 0x2e, 0x3e, 0xd8, 0x3e, 0x8c, 0x3d, 0x1f, 0xb3, 0x4c, 0xbe,
  0x9c, 0xe6, 0x10, 0x3e, 0x8b, 0x04, 0x70, 0xbe, 0x69, 0x86, 0x59, 0xbd,
  0x3e, 0xc0, 0x88, 0xbd, 0xe8, 0xa0, 0x48, 0xbe, 0xea, 0x76, 0x0e, 0xbe,
  0x87, 0xfc, 0x64, 0xbe, 0x46, 0xfd, 0x6b, 0xbd, 0x3e, 0x01, 0x77, 0xbe,
  0xb5, 0xb1, 0x2c, 0xbe, 0xcb, 0xbe, 0x19, 0xbd, 0x56, 0x71, 0x6d, 0x3d,
  0xdd, 0xfc, 0x12, 0xbd, 0x71, 0xb1, 0xb7, 0x3d, 0x9a, 0x60, 0x23, 0xbe,
  0xca, 0x27, 0xf0, 0x3d, 0x01, 0x3c, 0x3a, 0xbe, 0xd9, 0x38, 0x15, 0xbe,
  0x75, 0xcc, 0x95, 0x3d, 0x91, 0xba, 0x88, 0xbc, 0xc7, 0x3c, 0xb7, 0xbd,
  0x48, 0x56, 0x02, 0xbe, 0xba, 0xf3, 0x5f, 0xbd, 0x1d, 0x0f, 0xbf, 0x3d,
  0x0a, 0xdd, 0xa3, 0xbd, 0xb5, 0x5f, 0x43, 0xbe, 0x1e, 0x9a, 0x3d, 0x3d,
  0x61, 0x14, 0xf2, 0xbd, 0x1e, 0xd8, 0xc8, 0xbd, 0xf0, 0xeb, 0xe5, 0xbc,
  0x8a, 0xa9, 0x40, 0x3d, 0xde, 0xda, 0xce, 0x39, 0xad, 0x0f, 0x22, 0x3e,
  0x74, 0xcb, 0x5b, 0x3c, 0x31, 0x76, 0x15, 0x3e, 0xa0, 0x96, 0x1d, 0xbe,
  0xe1, 0x21, 0xdf, 0x3d, 0x6f, 0x20, 0x64, 0xbe, 0x17, 0x13, 0xc8, 0xbb,
  0xf5, 0xb5, 0x60, 0xbe, 0xf0, 0xd1, 0x18, 0x3b, 0x3d, 0x0f, 0x2f, 0xbe,
  0xd8, 0xfe, 0x69, 0x3d, 0x0c, 0xee, 0x53, 0xbc, 0x89, 0x6b, 0x80, 0x3d,
  0xe1, 0x64, 0x14, 0xbe, 0x7e, 0xa5, 0xb0, 0xbd, 0x6d, 0x8a, 0x8c, 0x3d,
  0xa9, 0xfe, 0x81, 0xbd, 0x53, 0xd8, 0x03, 0xbe, 0xde, 0xa1, 0x99, 0x3d,
  0x7b, 0xca, 0x82, 0xbd, 0xdc, 0x00, 0xfc, 0x3c, 0x4d, 0x12, 0xe5, 0xbd,
  0x87, 0xf7, 0xc9, 0xbd, 0x1f, 0xe0, 0x38, 0x3e, 0x79, 0x27, 0xa5, 0xbe,
  0xc5, 0x7a, 0x84, 0xbd, 0x4f, 0x16, 0x1c, 0xbe, 0x32, 0x4d, 0x47, 0xbe,
  0x53, 0xca, 0xa8, 0x3d, 0xcf, 0xce, 0x7b, 0x3b, 0x4d, 0xdb, 0x24, 0xbe,
  0xbd, 0xd1, 0x23, 0xbe, 0xca, 0xad, 0x2d, 0x3e, 0x52, 0x8f, 0x46, 0xbc,
  0x64, 0x81, 0x7f, 0x3c, 0xb9, 0x61, 0x5d, 0xbe, 0x63, 0x1c, 0x76, 0x3d,
  0x7c, 0x64, 0xfd, 0x3a, 0x50, 0x30, 0x76, 0xbe, 0xe2, 0xb0, 0x1a, 0x3e,
  0xf1, 0x38, 0xb5, 0xbd, 0x33, 0x86, 0x2a, 0xbe, 0x85, 0x96, 0x06, 0xbe,
  0x68, 0x57, 0x82, 0xbe, 0x75, 0x57, 0xa9, 0xbb, 0x1f, 0xe3, 0xe5, 0x3d,
  0xd2, 0xb5, 0xf4, 0xbd, 0xd5, 0x9e, 0x6b, 0xbe, 0xf5, 0x38, 0x44, 0xbe,
  0x3b, 0x46, 0x70, 0xbe, 0xfc, 0xf7, 0x95, 0xbd, 0x8d, 0xf2, 0x19, 0xbe,
  0x61, 0x09, 0x21, 0xbe, 0x8f, 0x6c, 0x16, 0xbe, 0xb8, 0xf7, 0x0a, 0xbe,
  0xb6, 0xa1, 0x4e, 0xbe, 0xf7, 0xf1, 0x2d, 0xbe, 0x6f, 0xa1, 0x43, 0xbd,
  0x97, 0xea, 0x28, 0xbd, 0xf6, 0xf8, 0x32, 0xbe, 0x3d, 0xcf, 0x07, 0xbf,
  0x54, 0xd3, 0x43, 0x3e, 0x2b, 0x94, 0x8e, 0xbd, 0x5b, 0x99, 0x1f, 0xbf,
  0xee, 0xa0, 0x3a, 0xbe, 0xd9, 0xde, 0xa5, 0x3d, 0x67, 0x17, 0xc2, 0x3e,
  0xc7, 0x55, 0x27, 0x3e, 0x0f, 0xc3, 0x8a, 0x39, 0xfb, 0x7e, 0xe1, 0xbe,
  0xe3, 0xa9, 0x85, 0xbe, 0x06, 0x6e, 0x4f, 0x3e, 0x09, 0xf5, 0xed, 0xbc,
  0x0a, 0xa3, 0x5f, 0x3c, 0x0d, 0xb6, 0x9b, 0xbe, 0x67, 0x42, 0x1e, 0xbe,
  0x9a, 0x7f, 0xac, 0xbd, 0xd4, 0x36, 0x89, 0x3e, 0x74, 0x6c, 0xcf, 0xbd,
  0x7b, 0xb3, 0xc2, 0xbd, 0x12, 0x90, 0x4b, 0xbd, 0x7c, 0x28, 0xe9, 0x3d,
  0x93, 0xa6, 0x6f, 0x3e, 0x6a, 0x0b, 0x90, 0x3e, 0x75, 0xd4, 0x87, 0xbd,
  0x62, 0xb0, 0xd9, 0xbc, 0x1d, 0xe5, 0x02, 0xbc, 0x39, 0x99, 0xc7, 0x3e,
  0x2c, 0x57, 0x01, 0xbe, 0xa6, 0x03, 0x6f, 0x3e, 0xe2, 0x3f, 0x1b, 0xbb,
  0xca, 0xc8, 0x11, 0xbe, 0x03, 0xfa, 0x7e, 0xbd, 0x4f, 0x08, 0x4f, 0x3d,
  0x07, 0x51, 0x84, 0x3d, 0x08, 0xa0, 0x47, 0x3e, 0xa1, 0xcc, 0x9e, 0x3d,
  0x93, 0x62, 0xdb, 0xbb, 0x36, 0xca, 0xbd, 0x3e, 0x0b, 0x92, 0x79, 0x3e,
  0x1d, 0xcf, 0x02, 0xbe, 0x07, 0x0a, 0x25, 0x3e, 0xb3, 0xbb, 0xab, 0xbc,
  0xcd, 0xbe, 0x3e, 0x3e, 0xdf, 0x14, 0xc3, 0x3d, 0xe5, 0x67, 0xd2, 0x3d,
  0x59, 0xd7, 0x1a, 0xbe, 0x21, 0x57, 0xfd, 0xbc, 0x57, 0x83, 0xec, 0xbd,
  0xba, 0xca, 0x59, 0x3e, 0x87, 0x2e, 0x29, 0xbd, 0x48, 0x3e, 0xc7, 0x3d,
  0x19, 0x4e, 0x70, 0x3d, 0xe6, 0xb7, 0x88, 0xbd, 0x9f, 0xfe, 0xb2, 0x3e,
  0x4d, 0x7c, 0x48, 0xbb, 0x79, 0xd4, 0x41, 0xbe, 0x43, 0xf4, 0x33, 0x3e,
  0x4e, 0x22, 0xcb, 0x3c, 0xa6, 0xd9, 0x9d, 0xbe, 0x39, 0xef, 0x8d, 0xbc,
  0x98, 0x96, 0x81, 0xbe, 0x10, 0x6a, 0x52, 0xbd, 0x21, 0x52, 0xad, 0x3c,
  0xeb, 0xa3, 0x7c, 0xbc, 0xe7, 0xe9, 0xd0, 0x3d, 0xef, 0xed, 0x51, 0xbe,
  0x86, 0x77, 0x0c, 0x3e, 0x20, 0x8f, 0x45, 0x3d, 0x2c, 0x7c, 0x0c, 0xbe,
  0xf9, 0x91, 0x1c, 0xbd, 0x36, 0x0c, 0x0c, 0xbf, 0xa9, 0x1e, 0x1e, 0xbe,
  0x7f, 0xe1, 0x8d, 0xbb, 0x53, 0xa6, 0xa4, 0x3d, 0x81, 0x3c, 0xe7, 0xbe,
  0x83, 0xc9, 0x16, 0xbe, 0xe2, 0xc1, 0x0c, 0xbe, 0xff, 0xc0, 0x00, 0xbe,
  0xff, 0x95, 0xde, 0xbd, 0xe5, 0x0f, 0x3c, 0x3d, 0x01, 0x8e, 0x99, 0x3d,
  0xb5, 0x0a, 0x9f, 0xbe, 0x97, 0x2a, 0xec, 0x3d, 0x38, 0x3f, 0xe9, 0x3c,
  0xb6, 0xf0, 0xec, 0xbd, 0x3c, 0x93, 0x80, 0xbe, 0xb4, 0x9b, 0xba, 0xbe,
  0x83, 0xe1, 0x45, 0xbe, 0x36, 0xc9, 0x54, 0xbd, 0xe8, 0x11, 0xba, 0xbd,
  0xc3, 0x6f, 0x1c, 0xbe, 0x53, 0x90, 0xa8, 0xbe, 0x14, 0x38, 0xfb, 0xbc,
  0xf2, 0x54, 0x0f, 0xbd, 0x78, 0x68, 0x43, 0xbe, 0xba, 0xad, 0xe5, 0xbc,
  0x1e, 0xc4, 0xff, 0xbd, 0xc0, 0x05, 0x1a, 0xbe, 0xeb, 0xfd, 0xfc, 0x3d,
  0x83, 0x73, 0x5f, 0xbd, 0xeb, 0x58, 0x97, 0xbd, 0xb6, 0x5e, 0xaf, 0xbe,
  0x78, 0x83, 0x02, 0xbe, 0x87, 0x23, 0xf2, 0xbd, 0xb7, 0xc1, 0xc8, 0xbd,
  0x79, 0x84, 0xd5, 0x3d, 0xbe, 0x34, 0x93, 0xbe, 0x20, 0xe9, 0x2e, 0xbd,
  0xf2, 0x21, 0xa1, 0xbd, 0xa0, 0xfa, 0xaf, 0xbd, 0xf6, 0x27, 0x57, 0x3e,
  0x1d, 0xea, 0x90, 0x3d, 0x88, 0x5c, 0xea, 0xbd, 0x4b, 0xe5, 0xaf, 0xbe,
  0x2d, 0xc0, 0x9c, 0x3e, 0x53, 0x6c, 0xba, 0x3e, 0x08, 0xa3, 0xd8, 0xba,
  0xa5, 0xf7, 0xb6, 0xbd, 0x72, 0xfb, 0x2d, 0x3e, 0x27, 0x6e, 0x27, 0xbf,
  0x31, 0x4c, 0x8c, 0x3d, 0x94, 0x00, 0xa7, 0xbe, 0xf8, 0xd0, 0x01, 0xbf,
  0x59, 0x76, 0xcd, 0xbe, 0x5a, 0xe8, 0x4a, 0x3e, 0x24, 0x9a, 0x25, 0xbe,
  0xc9, 0xdb, 0x0d, 0x3e, 0xcd, 0x24, 0x20, 0x3e, 0x06, 0x77, 0xed, 0xbd,
  0xaf, 0x7f, 0xab, 0x3d, 0x27, 0x59, 0xbb, 0x3d, 0x9d, 0x92, 0x1e, 0x3e,
  0x6c, 0x0b, 0x3d, 0x3d, 0x46, 0x37, 0xb6, 0xbc, 0x29, 0x56, 0xf1, 0x3c,
  0x44, 0x7f, 0x7f, 0xbe, 0x98, 0x88, 0x3e, 0x3e, 0xfc, 0xa0, 0xf8, 0xbe,
  0x9b, 0xdc, 0xcf, 0xbe, 0x57, 0x29, 0x16, 0xbf, 0xc0, 0xfc, 0xba, 0xbe,
  0x7d, 0x92, 0x8c, 0xbd, 0xe0, 0x6c, 0xc0, 0xbc, 0xdb, 0x75, 0x09, 0x3e,
  0xa9, 0x9d, 0x57, 0xbc, 0x1f, 0xf3, 0x0d, 0x3e, 0x61, 0x1c, 0x43, 0xbd,
  0x4b, 0x00, 0xfa, 0xbd, 0xa1, 0x0f, 0xd8, 0x3c, 0xe9, 0xf7, 0x48, 0xbe,
  0xe2, 0x82, 0x10, 0xbe, 0x7d, 0xdf, 0x58, 0xbc, 0x3b, 0x09, 0x01, 0xbe,
  0xac, 0x29, 0x45, 0xbe, 0xaa, 0x5c, 0x13, 0x3e, 0xbf, 0xec, 0xed, 0xbc,
  0xe4, 0xa1, 0x48, 0xbe, 0x0b, 0xe1, 0x88, 0xbe, 0x4c, 0x25, 0x1f, 0xbd,
  0x53, 0x07, 0x1c, 0xbd, 0xd0, 0x7f, 0x90, 0xbd, 0x0a, 0x0b, 0x4a, 0xbe,
  0x2d, 0x9d, 0x1e, 0x3d, 0xe6, 0x14, 0xb6, 0x3e, 0xa1, 0xe3, 0x07, 0x3d,
  0xa6, 0x52, 0x47, 0xbd, 0x16, 0xd2, 0xd7, 0xbd, 0xd7, 0xd4, 0x32, 0xbe,
  0x65, 0x6b, 0xb9, 0xbd, 0x5d, 0xdb, 0xc1, 0xbe, 0xd4, 0xd3, 0x0c, 0x3e,
  0x1c, 0xfa, 0x8a, 0x3d, 0xb6, 0xe1, 0x8a, 0x3d, 0xe3, 0x23, 0x3a, 0xbe,
  0xb0, 0x25, 0x86, 0x3d, 0x46, 0x1f, 0x36, 0x3d, 0x44, 0x80, 0x36, 0xbe,
  0xaa, 0xa0, 0x03, 0x3d, 0xc0, 0xb3, 0x5f, 0x3d, 0x0f, 0xe6, 0xbf, 0x3d,
  0x05, 0x53, 0x0c, 0x3d, 0x05, 0xc7, 0x83, 0xbe, 0x7f, 0x10, 0xd1, 0x3d,
  0xf4, 0x22, 0x18, 0xbe, 0xe4, 0xe6, 0x4a, 0xbc, 0x44, 0x90, 0xbb, 0xbd,
  0x83, 0xee, 0xc0, 0x3b, 0x7e, 0x93, 0xbc, 0xbd, 0x4d, 0x0f, 0xc8, 0xbc,
  0x92, 0x04, 0x28, 0xbe, 0xdc, 0x3e, 0xab, 0xbb, 0x34, 0x43, 0xc5, 0x3d,
  0xec, 0x65, 0x73, 0xbe, 0xc2, 0x1c, 0x89, 0xbe, 0x18, 0x09, 0x32, 0xbc,
  0xfe, 0xfc, 0xec, 0xbd, 0x6c, 0x95, 0x84, 0x3d, 0x38, 0x83, 0x47, 0xbe,
  0xc2, 0x5e, 0x77, 0x3d, 0xba, 0x70, 0x11, 0xbf, 0x27, 0x6f, 0x08, 0xbe,
  0x09, 0x71, 0x5d, 0xbe, 0x1e, 0xf3, 0x0b, 0xbd, 0x78, 0xc7, 0xe4, 0xbd,
  0xa4, 0x29, 0xbc, 0x3e, 0x8a, 0x1f, 0x8d, 0xbe, 0x68, 0xaf, 0x0c, 0x3e,
  0x7c, 0xd7, 0x76, 0x3d, 0xa6, 0xc9, 0xe1, 0xbe, 0xaa, 0x2b, 0xbd, 0x3c,
  0xd6, 0x66, 0x12, 0xbd, 0xdb, 0x82, 0x98, 0x3d, 0x0b, 0x74, 0x17, 0x3d,
  0x52, 0x60, 0x20, 0xbe, 0xab, 0xe6, 0xbb, 0xbd, 0xf5, 0xd5, 0x03, 0x3d,
  0xf2, 0x5c, 0x9e, 0xbd, 0x81, 0x91, 0xa0, 0xbd, 0x10, 0xf8, 0x0a, 0xbd,
  0xd6, 0x46, 0x3c, 0xbe, 0x55, 0xf8, 0x4a, 0xbd, 0x79, 0x33, 0x57, 0xbe,
  0xdc, 0x4c, 0x5c, 0xbd, 0x7c, 0xbd, 0x58, 0xbe, 0xcb, 0xa4, 0x8e, 0xbd,
  0x50, 0xf5, 0xba, 0xbd, 0x0f, 0x12, 0xc2, 0xbd, 0x9d, 0x06, 0x85, 0x3d,
  0xba, 0xb8, 0xbc, 0xbd, 0x0e, 0xc8, 0xaf, 0xbd, 0xe5, 0x62, 0xb8, 0xbc,
  0xb2, 0x01, 0x52, 0xbe, 0x5b, 0x61, 0x50, 0x3e, 0x71, 0x75, 0xa8, 0x3c,
  0x2d, 0x45, 0xbe, 0x3c, 0xb3, 0x27, 0x0b, 0x3e, 0xb3, 0xa2, 0xd5, 0xbd,
  0x0a, 0x2e, 0x5b, 0xbe, 0x2b, 0x92, 0x4e, 0x3e, 0x08, 0xa5, 0x60, 0xbe,
  0xb9, 0x1c, 0xda, 0x3d, 0x03, 0x4e, 0x15, 0x3e, 0x92, 0xf6, 0x69, 0xbe,
  0xa1, 0x5b, 0xc6, 0x3d, 0x4c, 0xb2, 0x1f, 0xbe, 0xdc, 0x72, 0x00, 0xbd,
  0x31, 0x8d, 0xea, 0xbd, 0x48, 0x0b, 0x73, 0xbe, 0xe1, 0x56, 0x9c, 0xbc,
  0xc5, 0x46, 0x22, 0xbd, 0x2e, 0xe1, 0x62, 0xbe, 0xfc, 0xa8, 0xce, 0x3a,
  0x22, 0x53, 0x6b, 0x3e, 0x99, 0x2d, 0xb4, 0xbd, 0x55, 0x55, 0x45, 0xbd,
  0x1d, 0x9e, 0x9b, 0xbe, 0xa6, 0x39, 0x11, 0xbe, 0x03, 0x2b, 0x03, 0x3e,
  0x65, 0xa8, 0xc1, 0x3d, 0x8e, 0x80, 0xe0, 0xbd, 0x80, 0x40, 0x64, 0x3c,
  0x59, 0x7a, 0x32, 0xbe, 0x26, 0xed, 0x69, 0xbe, 0x64, 0x11, 0x2f, 0xbe,
  0x6f, 0x08, 0xa0, 0xbd, 0x34, 0x2c, 0xb6, 0xbd, 0xbc, 0xd3, 0x95, 0x3d,
  0x82, 0x77, 0xed, 0xbd, 0xd6, 0x7a, 0x86, 0xbd, 0xfe, 0x21, 0x25, 0xbe,
  0xd4, 0xcb, 0x85, 0xbe, 0xf1, 0x70, 0x0e, 0xbe, 0x68, 0x57, 0xa2, 0xbd,
  0xd2, 0x63, 0xdc, 0x3c, 0x2b, 0x51, 0x42, 0x3d, 0xaf, 0xa2, 0x20, 0x3e,
  0x78, 0xd5, 0x9c, 0xbe, 0x97, 0xe1, 0x9c, 0xbd, 0x8d, 0x4e, 0xb9, 0xbd,
  0x74, 0x62, 0xc9, 0x3d, 0x4c, 0xf7, 0x4b, 0xbe, 0x7b, 0xea, 0x58, 0xbb,
  0x29, 0x06, 0x37, 0x3b, 0x5d, 0x02, 0xcb, 0xbd, 0x6e, 0x27, 0x10, 0x3e,
  0xed, 0x72, 0x2d, 0xbe, 0xab, 0x57, 0x4b, 0xbe, 0x3a, 0xa7, 0x43, 0xbd,
  0x9c, 0x51, 0x3e, 0xbe, 0xc5, 0xaf, 0x5a, 0xbe, 0xe9, 0xfc, 0xf0, 0xbd,
  0x2e, 0xbd, 0x85, 0xbd, 0x4a, 0x8e, 0xb8, 0xbd, 0xc9, 0x8c, 0xf5, 0xbd,
  0x45, 0x58, 0x6c, 0xbc, 0x90, 0x6e, 0x02, 0x3e, 0xec, 0x8d, 0x83, 0xbd,
  0xf5, 0x08, 0x4b, 0xbd, 0xc5, 0xa1, 0x30, 0x3e, 0xd3, 0xce, 0xe2, 0x3d,
  0x42, 0x5f, 0x2a, 0xbe, 0xcd, 0x20, 0x37, 0xbb, 0x68, 0x19, 0x55, 0xbe,
  0x05, 0x95, 0x2a, 0xbe, 0x12, 0x4c, 0x19, 0x3d, 0xfc, 0x65, 0x52, 0xbd,
  0x33, 0x6f, 0xb2, 0x3d, 0xda, 0x70, 0x21, 0x3e, 0x29, 0x76, 0x15, 0xbe,
  0x57, 0x90, 0x63, 0xbd, 0x49, 0x7f, 0x4b, 0xbd, 0x65, 0x5b, 0xbd, 0xbc,
  0xb6, 0x16, 0x78, 0xbe, 0xf6, 0x6f, 0x90, 0xba, 0xe9, 0xfd, 0xe9, 0x3d,
  0xdc, 0x1a, 0x2b, 0xbe, 0xc1, 0x2a, 0x4c, 0xbe, 0x83, 0x09, 0x10, 0xbe,
  0x97, 0x7c, 0xe0, 0xbd, 0x3f, 0x6b, 0xa2, 0x3b, 0x0e, 0xd1, 0x16, 0xbd,
  0x7f, 0xbb, 0xef, 0xbd, 0x97, 0x72, 0xb8, 0xbd, 0xcd, 0x25, 0xe4, 0x3d,
  0x6d, 0x08, 0x62, 0xbe, 0x6e, 0xad, 0x6d, 0xbe, 0x29, 0xe7, 0x9a, 0xbc,
  0x5c, 0xa9, 0xf9, 0xbd, 0xa8, 0x22, 0xae, 0xbd, 0xa2, 0x88, 0xdd, 0xbc,
  0xde, 0xf4, 0x48, 0xbd, 0x55, 0x5d, 0x86, 0xbd, 0x5a, 0x1d, 0x96, 0xbe,
  0x77, 0x65, 0x96, 0xbc, 0x7d, 0xdd, 0x4d, 0x3c, 0x1f, 0xc4, 0x96, 0xbc,
  0xf4, 0x98, 0xe7, 0x3d, 0x1c, 0x29, 0xe2, 0x3c, 0x2d, 0xb0, 0x80, 0x3e,
  0xe6, 0xd6, 0xb7, 0x3e, 0xe2, 0x63, 0x49, 0xbe, 0xf0, 0x39, 0x6c, 0xbd,
  0x93, 0xf7, 0x5e, 0xbc, 0xb6, 0x61, 0xed, 0xbd, 0x06, 0x2e, 0x82, 0x3c,
  0xa8, 0xcb, 0x82, 0xbe, 0x28, 0x87, 0x42, 0xbe, 0x31, 0xf1, 0x15, 0x3e,
  0x7c, 0xc6, 0x01, 0xbc, 0xc6, 0x06, 0xb6, 0xbd, 0x46, 0x7c, 0x11, 0x3d,
  0x34, 0x4b, 0x0c, 0xbe, 0x65, 0x7b, 0xe6, 0xbc, 0xf4, 0xbc, 0xbd, 0x3b,
  0x38, 0xca, 0xaf, 0x3e, 0xd9, 0xbc, 0xb1, 0x3e, 0x41, 0x82, 0x0e, 0xbe,
  0x94, 0x79, 0x64, 0x3d, 0x48, 0x42, 0xc1, 0x3d, 0x89, 0xf1, 0x63, 0xbd,
  0xf9, 0x49, 0xb8, 0x3e, 0xaf, 0x2d, 0x48, 0xbc, 0xd1, 0x15, 0x73, 0xbd,
  0x44, 0xe3, 0x38, 0xbc, 0x8c, 0x8e, 0xc0, 0x3d, 0x72, 0xad, 0x2c, 0x3e,
  0xb6, 0xe8, 0x76, 0xbd, 0x68, 0xac, 0x4a, 0xbe, 0xee, 0x17, 0xa2, 0xbd,
  0x6d, 0xed, 0x38, 0xbe, 0x3e, 0xe0, 0x0a, 0x3e, 0x25, 0xcc, 0xc1, 0x3e,
  0x79, 0xdf, 0xd5, 0xbc, 0x79, 0xd3, 0x02, 0xbe, 0xd3, 0x14, 0x3c, 0xbe,
  0x6b, 0x43, 0xa3, 0xbd, 0x86, 0x66, 0xff, 0x3d, 0x68, 0xa0, 0x93, 0x3c,
  0x7e, 0xf6, 0xf6, 0x3d, 0xf0, 0xa3, 0x4a, 0x3d, 0x9f, 0x64, 0x79, 0xbd,
  0x54, 0x6e, 0x45, 0xbb, 0xa7, 0x87, 0x1a, 0xbe, 0xca, 0x09, 0x07, 0xbe,
  0xba, 0x0d, 0xb3, 0x3d, 0x1b, 0x8c, 0xa4, 0x3c, 0x04, 0x12, 0x9e, 0x3e,
  0x28, 0x8d, 0x97, 0x3e, 0xe1, 0x4b, 0x54, 0xbe, 0x63, 0xdd, 0x1f, 0xbe,
  0x13, 0x9b, 0x46, 0xbd, 0xaf, 0xd9, 0xac, 0xbd, 0x55, 0x94, 0xad, 0x3e,
  0x28, 0x75, 0x63, 0xbd, 0x28, 0xf3, 0x8f, 0x3c, 0x11, 0xdc, 0x86, 0x3c,
  0x76, 0x4c, 0x5b, 0x3d, 0xd7, 0x07, 0x0d, 0x3d, 0xc4, 0x8b, 0x4c, 0x3e,
  0x74, 0x96, 0x1c, 0xbe, 0x81, 0x81, 0x68, 0x3d, 0x75, 0xda, 0x3e, 0xbe,
  0xee, 0xba, 0x5a, 0x3c, 0xfe, 0xfa, 0x93, 0x3e, 0x90, 0x37, 0x6a, 0xbe,
  0x79, 0x89, 0x17, 0xbe, 0x17, 0x53, 0x06, 0x3e, 0x0a, 0xf2, 0x00, 0x3d,
  0xac, 0xd0, 0xa0, 0x3e, 0x41, 0x7f, 0xd9, 0xbd, 0xa2, 0x71, 0x90, 0x3d,
  0x7b, 0x0e, 0x51, 0x3e, 0x5e, 0xe1, 0xe0, 0xbd, 0x91, 0x66, 0x13, 0xbe,
  0x42, 0x2f, 0x80, 0x3d, 0xb9, 0x1b, 0x34, 0xbe, 0xcc, 0x59, 0xc2, 0x3d,
  0xe5, 0x02, 0x5c, 0xbe, 0x2e, 0x5c, 0x78, 0x3e, 0x6d, 0x72, 0x4a, 0x3e,
  0x0f, 0xd2, 0x00, 0xbd, 0xe3, 0xc3, 0xd2, 0xbd, 0x21, 0xd5, 0x35, 0xbe,
  0x55, 0x13, 0x39, 0x3d, 0xc3, 0xd4, 0x89, 0x3e, 0x10, 0xc7, 0x92, 0x3d,
  0xa5, 0x7f, 0x93, 0xbd, 0xb3, 0x38, 0xdb, 0x3d, 0x36, 0x71, 0xd9, 0xbd,
  0x26, 0x71, 0x0a, 0xbd, 0x12, 0xc7, 0xcd, 0xbc, 0x6a, 0xdf, 0x46, 0x3d,
  0x7c, 0x91, 0xc5, 0x3d, 0x07, 0xf5, 0x77, 0xbe, 0x76, 0xd8, 0x1e, 0xbe,
  0xde, 0xd4, 0x9c, 0x3e, 0xb8, 0xac, 0x9b, 0xbe, 0xf8, 0x2a, 0x5c, 0xbd,
  0xf3, 0x70, 0x1d, 0xbe, 0x67, 0xba, 0xae, 0x3d, 0xd0, 0x20, 0x5a, 0xbd,
  0x5e, 0xfb, 0x85, 0xbd, 0x02, 0x8b, 0x92, 0xbe, 0x08, 0xfe, 0xfa, 0xbd,
  0x6a, 0xda, 0x3d, 0xbe, 0xf2, 0x3c, 0x0d, 0x3c, 0x34, 0x05, 0xf2, 0xbe,
  0x16, 0xe9, 0x92, 0xbe, 0x14, 0x88, 0x86, 0xbe, 0x90, 0xcc, 0x21, 0x3e,
  0x2d, 0x81, 0xb2, 0xbe, 0x1e, 0x4c, 0x25, 0xbf, 0xf1, 0x67, 0x56, 0xbd,
  0x4b, 0x60, 0x30, 0xbe, 0x60, 0xbc, 0x4d, 0xbe, 0xf8, 0x75, 0xc3, 0x3d,
  0xaa, 0x9e, 0xea, 0x3d, 0x84, 0xe0, 0x5d, 0x3d, 0xdb, 0x98, 0xbd, 0x3d,
  0x33, 0xa9, 0x22, 0x3e, 0x3d, 0x5e, 0xb3, 0xbe, 0x31, 0xb0, 0x51, 0x3d,
  0xbb, 0x57, 0x75, 0x3e, 0x99, 0x74, 0x81, 0xbe, 0xdf, 0x82, 0x82, 0xbe,
  0x76, 0x2c, 0x5d, 0x3d, 0x05, 0x65, 0x49, 0xbc, 0x5f, 0x61, 0xff, 0xbd,
  0xe0, 0xb4, 0x4b, 0x3d, 0x65, 0x57, 0x5e, 0x3d, 0x18, 0xff, 0x0a, 0xbe,
  0x80, 0xc0, 0x26, 0xbe, 0x27, 0x43, 0x92, 0xbe, 0x0e, 0xc8, 0x49, 0x3d,
  0x37, 0xd0, 0xe3, 0xbd, 0x2e, 0x36, 0x22, 0x3e, 0xeb, 0xd4, 0xd1, 0x3d,
  0xc9, 0x24, 0x05, 0xbb, 0x3e, 0xbb, 0x95, 0x3d, 0xb0, 0x2d, 0xd7, 0xbd,
  0x0d, 0xf5, 0x3e, 0x3d, 0x65, 0x8c, 0xa6, 0xbd, 0x9f, 0x78, 0xe9, 0x3d,
  0xf4, 0xb2, 0x8d, 0x3e, 0x64, 0x34, 0xb9, 0xbc, 0x3e, 0xc3, 0x23, 0xbd,
  0xe0, 0xa1, 0x5f, 0xbd, 0x37, 0x03, 0xe8, 0xbc, 0x4f, 0x72, 0xf1, 0xbd,
  0x4b, 0x26, 0x00, 0x3d, 0x91, 0x41, 0x9f, 0xbd, 0xbc, 0x8a, 0x2c, 0xbe,
  0x65, 0x99, 0x92, 0xbc, 0xac, 0x53, 0x02, 0x3d, 0x90, 0x05, 0xab, 0x3b,
  0xb6, 0x2e, 0x66, 0xbe, 0xf8, 0x2d, 0x1e, 0x3c, 0xe9, 0xe9, 0x2f, 0xbd,
  0xb0, 0x65, 0x12, 0x3e, 0x2d, 0x9d, 0x6c, 0x3e, 0x70, 0x55, 0x93, 0xbd,
  0x3c, 0x19, 0x18, 0x3e, 0x66, 0xf8, 0xaf, 0xbe, 0x25, 0x81, 0x8d, 0xbd,
  0x18, 0xb7, 0x24, 0xbd, 0xd6, 0x97, 0x32, 0x3c, 0x11, 0xad, 0x4e, 0xbd,
  0x33, 0xee, 0xa2, 0xbe, 0xa5, 0x43, 0x95, 0x3c, 0x01, 0xd0, 0x06, 0x3d,
  0xc0, 0x80, 0x23, 0x3d, 0xa9, 0x4f, 0x10, 0xbe, 0x5d, 0x34, 0xad, 0xbd,
  0xf5, 0x16, 0x30, 0x3c, 0x97, 0x85, 0x17, 0x3e, 0xe9, 0x5e, 0x4c, 0x3e,
  0x92, 0x96, 0xa3, 0xbd, 0x5e, 0x9f, 0xd7, 0xbd, 0xd6, 0x34, 0xe7, 0xbd,
  0xfd, 0x60, 0x6f, 0x3b, 0xe5, 0xb8, 0x13, 0x3d, 0x2e, 0x44, 0x39, 0x3d,
  0x96, 0xe4, 0xad, 0xbe, 0x0c, 0x04, 0x6a, 0xbe, 0xf9, 0xdc, 0x49, 0xbe,
  0x2b, 0x82, 0xa0, 0x3d, 0x41, 0x7d, 0x09, 0xbd, 0x59, 0xea, 0x95, 0xbe,
  0x29, 0x40, 0x0b, 0xbe, 0x80, 0xeb, 0x90, 0x3e, 0x00, 0x9e, 0x12, 0x3e,
  0x9b, 0xc6, 0xc1, 0x3d, 0xed, 0x0c, 0x74, 0x3d, 0xa9, 0xf2, 0x6c, 0xbe,
  0xf8, 0xff, 0xf9, 0xbe, 0x89, 0x0b, 0x47, 0xbd, 0x1f, 0x44, 0xd1, 0x3d,
  0x74, 0xe5, 0x2e, 0x3e, 0x86, 0x4a, 0x49, 0xbe, 0x5f, 0x70, 0x76, 0x3e,
  0x27, 0xa6, 0x93, 0xbe, 0x00, 0x0a, 0x1b, 0xbe, 0x26, 0xe9, 0x76, 0x3d,
  0x4f, 0xe7, 0x5d, 0xbe, 0x04, 0x4b, 0xfa, 0xbd, 0x13, 0x5a, 0x13, 0xbe,
  0xa2, 0x3e, 0xa3, 0xbe, 0x3b, 0x82, 0xc7, 0x3d, 0xd8, 0xb6, 0x7b, 0x3d,
  0x72, 0x7c, 0x55, 0xbe, 0xa7, 0xda, 0x1f, 0xbf, 0xe5, 0xd3, 0xee, 0xbe,
  0xb5, 0xe4, 0xb5, 0xbe, 0x37, 0xff, 0xd5, 0xbd, 0x4f, 0xa8, 0x37, 0xbd,
  0x8f, 0xda, 0x8e, 0x3d, 0x6e, 0xde, 0xd1, 0x3e, 0x09, 0x9a, 0xe5, 0xbe,
  0xdc, 0x97, 0x0a, 0x3c, 0x3c, 0x86, 0xe3, 0x3c, 0x33, 0x07, 0x5f, 0x3e,
  0xb5, 0xe0, 0x3f, 0xbe, 0xd9, 0x0d, 0x06, 0xbe, 0x22, 0xbc, 0x01, 0x3b,
  0x79, 0xf3, 0x19, 0xbc, 0x0a, 0x23, 0x04, 0x3e, 0xcf, 0xaa, 0x6b, 0x3e,
  0xd7, 0x19, 0xbc, 0xbc, 0x08, 0x3b, 0x53, 0xbd, 0xf9, 0xfc, 0xdd, 0xbd,
  0xb5, 0xdb, 0x0c, 0xbd, 0x9a, 0xea, 0xba, 0xbd, 0xaf, 0xd9, 0x5c, 0x3e,
  0x37, 0x80, 0x0c, 0x3d, 0x3b, 0x65, 0xe7, 0xbe, 0xf2, 0x32, 0xd1, 0x3c,
  0x3f, 0xf5, 0x6a, 0x3e, 0x87, 0x1f, 0x09, 0xbe, 0x2f, 0xc6, 0xbc, 0xbd,
  0xf8, 0x82, 0x22, 0x3f, 0xff, 0xd6, 0xc5, 0x3c, 0xbe, 0x81, 0x84, 0x3e,
  0xd5, 0x21, 0x89, 0x3d, 0x08, 0x2b, 0x80, 0x3d, 0x06, 0x3b, 0xaf, 0x3e,
  0x12, 0x81, 0x0e, 0xbe, 0x5f, 0xba, 0x99, 0x3e, 0xac, 0x8a, 0xef, 0xbc,
  0x7c, 0xac, 0xb9, 0x3d, 0x44, 0x3c, 0x5e, 0x3d, 0x8b, 0xca, 0x0a, 0xbe,
  0xe0, 0x31, 0x73, 0xbc, 0x7d, 0x8f, 0x0a, 0x3e, 0xe0, 0xea, 0xcc, 0x3d,
  0xcc, 0xac, 0x7c, 0xbd, 0x01, 0xca, 0xd5, 0x3e, 0xa9, 0x8a, 0xee, 0x3c,
  0x59, 0xd0, 0x5f, 0x3e, 0x3a, 0x63, 0x21, 0x3e, 0x07, 0x33, 0xac, 0x3c,
  0x61, 0xb5, 0x3e, 0x3d, 0xae, 0xbe, 0x03, 0xbe, 0xa8, 0xfd, 0x18, 0x3e,
  0x8b, 0xe9, 0x1d, 0x3d, 0xfd, 0x61, 0xbb, 0x3d, 0x1c, 0x84, 0x83, 0x3b,
  0xbf, 0xa5, 0x74, 0xbd, 0x4f, 0x2d, 0x27, 0xbd, 0xa1, 0x4a, 0x60, 0x3e,
  0x43, 0xda, 0xbf, 0x3d, 0x40, 0xe6, 0x82, 0xbd, 0x48, 0xde, 0x54, 0x3e,
  0xda, 0xe2, 0x01, 0xba, 0x1c, 0x58, 0x8a, 0x3e, 0xa0, 0xc2, 0xa3, 0x3e,
  0xea, 0xcd, 0x24, 0x3d, 0xc7, 0x4c, 0x5a, 0x3e, 0x2e, 0x4d, 0x53, 0xbc,
  0xf0, 0x81, 0x33, 0x3d, 0x8e, 0x56, 0xc6, 0x3d, 0x98, 0x81, 0x3b, 0x3c,
  0x32, 0x7e, 0x30, 0x3d, 0x52, 0x0e, 0x3b, 0x3d, 0xfd, 0x3f, 0x95, 0xbd,
  0x35, 0xbd, 0xa8, 0x3d, 0x24, 0x3f, 0xc1, 0x3d, 0x03, 0xf2, 0x0e, 0x3c,
  0xa6, 0x33, 0xd2, 0x3d, 0xaa, 0x93, 0x92, 0x3d, 0x8d, 0x46, 0x5c, 0x3e,
  0xa6, 0xe6, 0x0f, 0x3e, 0x15, 0xd3, 0xdc, 0x3c, 0xbe, 0x5e, 0xb5, 0x3d,
  0x46, 0x92, 0x54, 0xbc, 0x85, 0xef, 0x86, 0xbd, 0x08, 0x15, 0x05, 0x3c,
  0xcb, 0xa3, 0x89, 0xbd, 0x53, 0x9a, 0x52, 0x3c, 0x94, 0xe5, 0xe8, 0xbb,
  0x3d, 0xe0, 0xb9, 0xbc, 0x9e, 0x86, 0xa5, 0x3e, 0x26, 0xa9, 0xab, 0xbd,
  0x4a, 0x71, 0x7b, 0x3b, 0x10, 0xbe, 0x25, 0x3f, 0x25, 0x60, 0xde, 0xbb,
  0x50, 0xb9, 0xad, 0x3e, 0x9e, 0x53, 0x21, 0x3e, 0xee, 0x32, 0x27, 0x3d,
  0xae, 0xa3, 0xeb, 0x3d, 0x11, 0x40, 0xd3, 0xbd, 0xc9, 0x73, 0x29, 0x3d,
  0x8d, 0xa5, 0x7f, 0xbc, 0x0f, 0x39, 0xa2, 0xbc, 0x14, 0x61, 0x12, 0x3d,
  0x18, 0x8e, 0x9a, 0xbe, 0xf5, 0x4a, 0xb9, 0x3c, 0x32, 0x09, 0x63, 0xbd,
  0x30, 0x70, 0x0e, 0x3c, 0x8d, 0xd1, 0xb8, 0x3d, 0xb0, 0x5d, 0x23, 0x3f,
  0x0f, 0x07, 0x02, 0xbe, 0x66, 0x02, 0xfc, 0x3d, 0x6c, 0x3e, 0x80, 0xbd,
  0x11, 0xf9, 0x1c, 0x3d, 0x70, 0x6a, 0x13, 0xbc, 0xaa, 0x50, 0x26, 0xbd,
  0x13, 0x3a, 0x50, 0xbc, 0xc3, 0xec, 0x56, 0xbd, 0x18, 0x0f, 0x7b, 0xbe,
  0x01, 0xec, 0x6e, 0x3d, 0x28, 0xee, 0x84, 0xbe, 0x7b, 0x4b, 0x91, 0xbd,
  0x35, 0x0e, 0x0e, 0xbe, 0xed, 0xdd, 0x05, 0xbe, 0xd2, 0x22, 0x05, 0xbe,
  0x6b, 0xb8, 0x1c, 0xbd, 0xad, 0x3c, 0xaa, 0xbd, 0x85, 0xbb, 0xd6, 0xbd,
  0xd9, 0xf7, 0xc6, 0x3d, 0x90, 0x42, 0x87, 0xbe, 0x76, 0xf5, 0x14, 0x3c,
  0x1f, 0x1c, 0xe2, 0x3c, 0xf7, 0x3e, 0x6d, 0xbd, 0x8f, 0x26, 0x9d, 0xbc,
  0xef, 0x55, 0x70, 0xbe, 0xb4, 0x73, 0x59, 0xbe, 0x4a, 0x0a, 0x25, 0xbd,
  0x17, 0xec, 0xe5, 0x3d, 0x88, 0xcd, 0x6e, 0x3d, 0xa6, 0x7b, 0x85, 0x3c,
  0xff, 0x46, 0x00, 0xbd, 0x90, 0xdc, 0x61, 0xbd, 0x0c, 0x03, 0xba, 0xbe,
  0x2f, 0xf6, 0x86, 0xbd, 0xa2, 0x59, 0x4b, 0xbe, 0xa6, 0x28, 0x9f, 0x3b,
  0x4b, 0xeb, 0x64, 0xbe, 0xcb, 0x27, 0x64, 0xbc, 0x6d, 0x27, 0x81, 0xbe,
  0x98, 0x84, 0x9d, 0xbe, 0x42, 0x58, 0xcd, 0x3d, 0xf4, 0x43, 0xba, 0x3d,
  0xf6, 0xee, 0x25, 0x3d, 0xce, 0xab, 0x6f, 0xbe, 0x1e, 0x37, 0x71, 0xbd,
  0xf0, 0x6e, 0x29, 0xbd, 0xe8, 0xdc, 0x59, 0xbc, 0x55, 0xbc, 0xd5, 0xbd,
  0x77, 0xd0, 0x70, 0xbe, 0x7a, 0x76, 0x1d, 0x3e, 0x1c, 0x1b, 0x80, 0xbe,
  0xaa, 0xf4, 0x35, 0xbe, 0x12, 0xd5, 0x0f, 0xbe, 0xd6, 0xfb, 0x69, 0xbe,
  0x67, 0x8c, 0x92, 0xbc, 0x76, 0x5f, 0x0b, 0xbd, 0xcd, 0x33, 0x0c, 0x3e,
  0x17, 0xab, 0x56, 0xbe, 0x2c, 0xf2, 0x01, 0xbe, 0x0d, 0xd6, 0x4a, 0x3e,
  0x26, 0xa0, 0x94, 0xbd, 0xd6, 0xab, 0xa8, 0x3c, 0xa3, 0x47, 0x98, 0xbd,
  0xb4, 0x0f, 0x26, 0xbd, 0x8b, 0x62, 0x96, 0xbe, 0xe6, 0x15, 0x05, 0xbe,
  0xbe, 0xac, 0xfc, 0xbd, 0x80, 0xce, 0xf2, 0x3c, 0x95, 0x3d, 0x20, 0xbe,
  0x4e, 0x01, 0x34, 0xbe, 0x51, 0x93, 0x3a, 0xbb, 0xbf, 0x87, 0x1f, 0xbe,
  0x5e, 0x05, 0x09, 0xbe, 0xa0, 0x86, 0x32, 0xbe, 0xd3, 0x3d, 0x27, 0xbe,
  0x9f, 0x83, 0x19, 0xbd, 0x6f, 0xf5, 0x05, 0x3e, 0xe1, 0x55, 0xbf, 0xbd,
  0x13, 0x28, 0xe8, 0xbb, 0xd0, 0x30, 0x36, 0xbe, 0x81, 0xd1, 0x35, 0xbe,
  0xe4, 0x27, 0x59, 0x3c, 0x96, 0x16, 0x2b, 0xbd, 0xe0, 0x95, 0xe2, 0xbd,
  0x38, 0x13, 0x86, 0xbe, 0x3f, 0x7d, 0xdb, 0xbc, 0xc7, 0x6b, 0x3f, 0xbd,
  0x8e, 0x72, 0x71, 0xbe, 0xd3, 0x82, 0x3b, 0xbe, 0x65, 0x22, 0x70, 0xbd,
  0xb3, 0x20, 0xcb, 0xbd, 0xef, 0xed, 0xe4, 0x3c, 0x96, 0xa0, 0x2e, 0x3d,
  0x35, 0xe1, 0x56, 0xbd, 0x36, 0x38, 0x6f, 0xbd, 0x6b, 0x05, 0x84, 0xbc,
  0x55, 0xd9, 0xf1, 0xbc, 0x33, 0xab, 0xe7, 0xbd, 0x26, 0xa3, 0xd7, 0xbc,
  0x14, 0x9a, 0x37, 0x3d, 0x15, 0x52, 0x20, 0xbe, 0x83, 0x36, 0xbb, 0xbd,
  0xbe, 0x9f, 0x1f, 0xbd, 0xb9, 0xc0, 0x57, 0xbe, 0x3f, 0x6d, 0xe7, 0x3d,
  0xad, 0x3a, 0x73, 0xbe, 0x55, 0xa2, 0x1c, 0x3d, 0x4b, 0x73, 0xae, 0xbe,
  0x4a, 0x1f, 0x9f, 0x3d, 0x03, 0x3e, 0x64, 0xbe, 0xa5, 0xfd, 0x88, 0xbe,
  0x86, 0xec, 0x84, 0xbe, 0xf0, 0xc4, 0x2f, 0xbe, 0x2f, 0xb8, 0xbe, 0x3d,
  0x3b, 0x03, 0x6a, 0xbe, 0x80, 0x8c, 0x8e, 0xbd, 0x46, 0x50, 0x7a, 0xbe,
  0x43, 0xd3, 0x31, 0x3c, 0xf6, 0xf4, 0x40, 0xbe, 0xaf, 0xba, 0x52, 0xbe,
  0xce, 0x37, 0x24, 0xbe, 0xe8, 0xb2, 0xb3, 0x3d, 0x69, 0xe5, 0x96, 0xbe,
  0xbb, 0x5c, 0x19, 0xbe, 0x27, 0xea, 0xd5, 0x3e, 0x5d, 0x1b, 0xae, 0x3c,
  0xf9, 0x29, 0xa8, 0xbe, 0xe9, 0x61, 0xc6, 0xbe, 0x56, 0xe8, 0x34, 0x3c,
  0x6b, 0x8d, 0x06, 0x3d, 0xb8, 0x78, 0xf2, 0x3d, 0xa2, 0x0a, 0xdd, 0xbc,
  0xd2, 0x2b, 0xe8, 0xbc, 0xa8, 0x0e, 0x70, 0x3b, 0xa2, 0x83, 0x72, 0x3c,
  0x34, 0x80, 0x14, 0x3e, 0xb0, 0x43, 0x45, 0xbe, 0x4d, 0x20, 0xae, 0xbd,
  0xa9, 0xd2, 0x82, 0x3c, 0x68, 0xff, 0x1b, 0xbd, 0xf9, 0x4f, 0x89, 0x3e,
  0xa7, 0x27, 0xeb, 0x3d, 0x08, 0x27, 0xe1, 0xbd, 0xe0, 0x32, 0x18, 0x3e,
  0xc7, 0xad, 0xca, 0xbd, 0x2e, 0xc4, 0x75, 0x3e, 0x0c, 0xec, 0x56, 0x3d,
  0x5f, 0x8a, 0xce, 0xbd, 0x40, 0xce, 0x70, 0xbd, 0xd5, 0x5d, 0xaf, 0x3d,
  0xfc, 0x72, 0x58, 0x3e, 0x0f, 0x45, 0x6e, 0x3e, 0xa6, 0xe8, 0x9a, 0x3e,
  0x04, 0x1a, 0xd0, 0xbc, 0xc6, 0x01, 0x04, 0xbc, 0x9f, 0xbb, 0x20, 0xbe,
  0xcc, 0x3b, 0xed, 0x3d, 0x83, 0xb7, 0x51, 0x3c, 0x06, 0xc7, 0xe4, 0xba,
  0x53, 0x16, 0x15, 0xbd, 0x62, 0x7a, 0xc1, 0xbd, 0xf6, 0xea, 0xad, 0x3e,
  0x5f, 0x2b, 0xb5, 0x3d, 0x7f, 0x1b, 0x0c, 0xbe, 0xf2, 0x6e, 0xbf, 0xbd,
  0x9e, 0x06, 0xb4, 0x3d, 0x89, 0x59, 0x87, 0x3b, 0x82, 0x8f, 0x4b, 0xbc,
  0xb1, 0xb4, 0x0f, 0x3e, 0x4c, 0xda, 0x6a, 0x3d, 0xb2, 0x71, 0x37, 0x3d,
  0x27, 0xb1, 0x5e, 0xbe, 0xac, 0x2d, 0x86, 0x3e, 0x8e, 0xa5, 0x89, 0x3c,
  0x26, 0x52, 0x7e, 0x3e, 0xb0, 0xe8, 0x08, 0x3d, 0x1f, 0xa9, 0x3f, 0xbe,
  0x51, 0xf6, 0x3b, 0xbd, 0x12, 0x6b, 0x4f, 0x3e, 0x8c, 0x86, 0xbc, 0xbc,
  0xa8, 0x53, 0xc7, 0xba, 0x60, 0x3f, 0x20, 0x3c, 0xab, 0xab, 0x18, 0xbe,
  0xed, 0xd7, 0xc2, 0xbd, 0x5e, 0xd8, 0xa8, 0xbd, 0x2e, 0x34, 0x8f, 0x3d,
  0x1e, 0x52, 0xc2, 0xbb, 0x6a, 0xbc, 0xba, 0xbe, 0xce, 0x08, 0xec, 0xbc,
  0xc6, 0xc5, 0xe9, 0x3b, 0xef, 0x1f, 0x41, 0x3b, 0xf2, 0x30, 0x4d, 0xbb,
  0x3f, 0x53, 0x33, 0xbe, 0x4e, 0xf5, 0xf6, 0x3d, 0x6a, 0xfb, 0x9f, 0x3c,
  0x83, 0x36, 0x69, 0xbc, 0x44, 0x71, 0x2f, 0x3d, 0x62, 0xa5, 0x1a, 0x3d,
  0xf2, 0x13, 0xde, 0x3d, 0xf5, 0x62, 0xaf, 0xbc, 0xae, 0x5f, 0x95, 0x3d,
  0x2a, 0x7e, 0x87, 0x3d, 0x55, 0x02, 0x3b, 0xbd, 0x66, 0x11, 0x81, 0xbe,
  0xae, 0x9f, 0xcd, 0x3d, 0x07, 0xd2, 0x9f, 0x3d, 0xc8, 0x0d, 0x05, 0x3e,
  0x83, 0xdb, 0xc0, 0xbd, 0xaa, 0xe7, 0x36, 0xbd, 0x9f, 0xa1, 0x10, 0x3e,
  0x4a, 0x06, 0xcd, 0x3d, 0x2f, 0xca, 0xaa, 0xbd, 0x3c, 0xaf, 0x98, 0x3c,
  0xbf, 0xe2, 0x83, 0x3d, 0xab, 0x60, 0x55, 0x3d, 0x26, 0xc8, 0x37, 0x3d,
  0x80, 0x7e, 0x84, 0xbe, 0xc5, 0x36, 0x68, 0xbd, 0x74, 0x58, 0xf5, 0x3c,
  0xf2, 0xad, 0x22, 0xbe, 0x46, 0x35, 0xa7, 0x3e, 0x4a, 0x66, 0xc2, 0xbc,
  0x3a, 0x52, 0x30, 0xbe, 0x61, 0x74, 0x17, 0x3d, 0x79, 0x83, 0xb5, 0x3e,
  0x85, 0x67, 0x82, 0x3d, 0x28, 0x60, 0xf7, 0x3d, 0x6c, 0xe6, 0x50, 0xbe,
  0xe0, 0x70, 0x66, 0xbd, 0xab, 0xcc, 0xc4, 0xba, 0xf3, 0xaa, 0xee, 0x3c,
  0x90, 0x3a, 0x30, 0x3d, 0x9a, 0xe0, 0x5c, 0x3e, 0x23, 0xe9, 0x9e, 0xbe,
  0xca, 0xa0, 0xd6, 0xbd, 0x1e, 0xb2, 0x1f, 0x3d, 0x72, 0x18, 0xc1, 0xbd,
  0x87, 0xea, 0x79, 0xbe, 0x67, 0x98, 0x65, 0xbe, 0x9f, 0x93, 0x04, 0xbd,
  0xdf, 0x07, 0xd1, 0xbc, 0xde, 0xb1, 0xf0, 0xbd, 0x5d, 0x51, 0x47, 0xbe,
  0x4e, 0xbe, 0xe6, 0x3d, 0x06, 0xc3, 0xb5, 0xbe, 0x54, 0x1e, 0x33, 0xbe,
  0x14, 0x3b, 0xc2, 0x3c, 0x82, 0xc2, 0xce, 0x3c, 0x4d, 0xc6, 0x56, 0xbd,
  0x66, 0x90, 0x12, 0x3e, 0xa7, 0xa9, 0x28, 0xbd, 0xfd, 0x23, 0x17, 0xbd,
  0xb9, 0x4b, 0x28, 0x3e, 0x21, 0x30, 0xd7, 0x3d, 0x47, 0xd0, 0x52, 0xbe,
  0x02, 0xe6, 0xe2, 0xbd, 0x42, 0xfa, 0xb3, 0xbe, 0x7d, 0x44, 0x31, 0xbc,
  0x70, 0x4e, 0x85, 0x3d, 0xd2, 0x97, 0x0e, 0x3e, 0xef, 0xc7, 0x5b, 0x3b,
  0xd3, 0x8e, 0xe4, 0xbd, 0x28, 0xbf, 0xa0, 0xbe, 0x72, 0x44, 0xda, 0x3d,
  0xb0, 0x9c, 0xa0, 0x3d, 0xcd, 0xbf, 0x88, 0xbd, 0x56, 0x6e, 0x07, 0x3e,
  0x79, 0x29, 0x24, 0x3d, 0x66, 0x1a, 0xb4, 0x3d, 0xc2, 0x17, 0x3c, 0x3d,
  0xf5, 0x21, 0x1c, 0x3c, 0x02, 0x5a, 0x80, 0xbe, 0x8c, 0xfe, 0x55, 0xbe,
  0xa8, 0xb3, 0x19, 0x3e, 0xeb, 0xb5, 0x65, 0xbc, 0x56, 0xed, 0x49, 0x3e,
  0x8f, 0xfe, 0x7c, 0xbe, 0x5e, 0x56, 0x4e, 0x3d, 0x45, 0xd2, 0x97, 0xbd,
  0x15, 0xe7, 0x22, 0x3e, 0x66, 0xc7, 0xf5, 0xbd, 0x2d, 0x29, 0x2d, 0x3d,
  0x7d, 0x17, 0xa8, 0xbe, 0x03, 0x71, 0xa3, 0xbd, 0xb3, 0xeb, 0xf2, 0x3d,
  0x26, 0x8b, 0x08, 0x3e, 0xa3, 0xa5, 0x96, 0x3d, 0x20, 0x9d, 0x6d, 0xbe,
  0xc4, 0x30, 0xb0, 0xbe, 0x7e, 0x46, 0x83, 0x3e, 0x55, 0x90, 0x12, 0xbd,
  0x9f, 0x9f, 0xc8, 0x3d, 0x5c, 0x85, 0x08, 0x3e, 0xf5, 0x08, 0xcf, 0xbc,
  0x55, 0x78, 0x96, 0x3c, 0x0e, 0x50, 0x54, 0x3e, 0x29, 0x97, 0x31, 0xbd,
  0x0a, 0x76, 0x37, 0xbd, 0xa1, 0x22, 0x7d, 0xbe, 0xb1, 0x36, 0xb9, 0xbc,
  0x75, 0x8b, 0xf5, 0x3d, 0x25, 0x92, 0x36, 0x3e, 0x77, 0x16, 0x0b, 0x3d,
  0x7d, 0x55, 0x42, 0xbe, 0x9e, 0x11, 0x30, 0xbe, 0xde, 0x04, 0xb2, 0x3d,
  0xb6, 0xc9, 0x33, 0xbe, 0x8c, 0xf7, 0x3e, 0x3e, 0x83, 0x7c, 0x0c, 0xbd,
  0x96, 0xc2, 0xb5, 0xbe, 0x29, 0x88, 0x4b, 0x3c, 0x7d, 0x30, 0xaf, 0x3d,
  0x19, 0xc3, 0x47, 0xbe, 0x81, 0xf8, 0xee, 0x3c, 0x43, 0x14, 0x42, 0xbe,
  0xee, 0xa0, 0xe6, 0xbd, 0x24, 0x9d, 0xcd, 0xbd, 0x6d, 0xac, 0xc0, 0x3d,
  0xae, 0x9a, 0xef, 0x3d, 0xeb, 0x6e, 0x87, 0xbd, 0x1a, 0x79, 0xac, 0xbe,
  0x0d, 0xa2, 0xa7, 0x3d, 0x2e, 0x60, 0xbc, 0xbd, 0x2f, 0x1d, 0x42, 0x3e,
  0xab, 0x2d, 0x95, 0xbd, 0x13, 0xe0, 0x32, 0xbe, 0xae, 0x2a, 0x70, 0xbd,
  0x6e, 0xbf, 0xef, 0xbc, 0x90, 0xa2, 0x1c, 0xbe, 0x3b, 0x8f, 0xda, 0x3d,
  0xd7, 0xb6, 0x07, 0xbf, 0x48, 0x91, 0xcf, 0x39, 0xa2, 0x3f, 0xc4, 0x3d,
  0xd0, 0xe1, 0x3a, 0xbd, 0x35, 0x93, 0x43, 0xbe, 0x60, 0xc5, 0x57, 0x3e,
  0x0f, 0xa2, 0x60, 0xbf, 0x77, 0x28, 0x5b, 0x3d, 0x40, 0xa9, 0x73, 0xbe,
  0x02, 0x6d, 0x80, 0x3d, 0x5d, 0xb8, 0x7a, 0x3a, 0x54, 0xb1, 0x7f, 0x3c,
  0x4a, 0xcc, 0xd2, 0xbd, 0x0a, 0xd3, 0x97, 0xbd, 0x33, 0x0f, 0xf4, 0xbe,
  0xe7, 0x8c, 0x7b, 0x3d, 0x4c, 0xa1, 0xb5, 0x3e, 0x6d, 0x61, 0xf5, 0x3d,
  0x1f, 0x16, 0xc9, 0xbe, 0x5d, 0xfa, 0xce, 0xbd, 0xae, 0x41, 0x01, 0x3f,
  0x3a, 0xca, 0x08, 0x3f, 0xb1, 0xb4, 0xdf, 0xbb, 0x6e, 0xb8, 0x64, 0xbe,
  0x08, 0xb2, 0xac, 0x3d, 0x5f, 0xab, 0x1e, 0xbf, 0x44, 0x87, 0x22, 0x3e,
  0x03, 0x9a, 0x05, 0xbb, 0x8e, 0xf0, 0x33, 0xbe, 0x56, 0x39, 0xe8, 0xbe,
  0xea, 0x4e, 0x4c, 0x3e, 0x59, 0x30, 0x02, 0xbd, 0x15, 0x09, 0xaa, 0x3b,
  0xba, 0xeb, 0x1e, 0x3e, 0xa9, 0xf4, 0x88, 0x3d, 0x6b, 0xdb, 0x26, 0x3d,
  0xe1, 0x48, 0x6e, 0x3e, 0x70, 0x22, 0xad, 0xbd, 0xd2, 0xc7, 0x8a, 0xbc,
  0xae, 0xeb, 0xae, 0x3d, 0x48, 0x14, 0x82, 0x3d, 0x15, 0xb5, 0x3e, 0x3d,
  0x39, 0xd5, 0x21, 0x3e, 0x2c, 0x27, 0xa8, 0x3d, 0xdf, 0xbf, 0x84, 0xbe,
  0x56, 0x22, 0xcc, 0xbe, 0x71, 0x1e, 0xa7, 0xbe, 0xd4, 0x05, 0xbe, 0xbd,
  0x0c, 0x3f, 0xa0, 0xbd, 0xcf, 0x58, 0xa2, 0x3b, 0x17, 0x9d, 0x79, 0xbe,
  0x03, 0x83, 0x85, 0x3d, 0x91, 0x99, 0xf7, 0xbb, 0x10, 0x24, 0xb8, 0xbd,
  0x1d, 0x99, 0x23, 0x3e, 0x0d, 0xf1, 0xa3, 0xbc, 0xc7, 0xc9, 0xaa, 0xbc,
  0x23, 0x3f, 0x2d, 0xbd, 0x94, 0x7c, 0x77, 0xbd, 0xaa, 0x9b, 0xd3, 0x3d,
  0x57, 0x4f, 0x9b, 0x3e, 0x32, 0x56, 0x78, 0xbe, 0x73, 0xc8, 0x38, 0x3e,
  0xad, 0xab, 0x5a, 0xbe, 0x4a, 0x02, 0x70, 0xbd, 0x58, 0x21, 0x1a, 0x3e,
  0x55, 0xea, 0x5b, 0xbe, 0x94, 0x04, 0x4f, 0x3d, 0x00, 0xec, 0x26, 0xbe,
  0x93, 0x5f, 0x85, 0x3d, 0x9e, 0x3e, 0x1e, 0x3e, 0x8d, 0xc7, 0x06, 0xbe,
  0x83, 0x76, 0xa6, 0x3c, 0x88, 0x83, 0x6e, 0xbe, 0xe6, 0xe6, 0x12, 0xbe,
  0x06, 0x74, 0xd7, 0xbd, 0xa2, 0x90, 0xfb, 0xbd, 0x58, 0x88, 0xfe, 0xba,
  0x12, 0xf7, 0xa7, 0x3c, 0x86, 0x71, 0x4b, 0xbe, 0x50, 0xec, 0x0f, 0xbd,
  0x2f, 0x09, 0x97, 0x3d, 0x0e, 0x54, 0x82, 0xbe, 0x16, 0x6c, 0xf7, 0x3d,
  0x67, 0xb5, 0x87, 0xbd, 0x16, 0x19, 0x81, 0xbd, 0x05, 0x58, 0x18, 0x3d,
  0x71, 0xf7, 0x80, 0xbd, 0x6d, 0xd8, 0xfb, 0xbc, 0xd5, 0x12, 0xb7, 0xbe,
  0x32, 0xcd, 0xd4, 0x3b, 0x33, 0xaf, 0x33, 0xbe, 0x74, 0x6a, 0x79, 0xbe,
  0xd9, 0xf2, 0xbd, 0x3c, 0x1e, 0xcd, 0x6d, 0x3e, 0x64, 0x13, 0xff, 0xbe,
  0xab, 0x41, 0x86, 0xbd, 0xee, 0xd4, 0xf7, 0x3d, 0x86, 0x29, 0x57, 0xbd,
  0xbe, 0x72, 0x9b, 0xbe, 0xc9, 0x4d, 0xa6, 0xbd, 0x83, 0xd4, 0x1f, 0xbe,
  0x0c, 0x21, 0x38, 0x3d, 0x5e, 0xe2, 0x38, 0xbe, 0xde, 0x73, 0x8d, 0x3d,
  0x78, 0xf2, 0xcd, 0xbe, 0xcf, 0x81, 0xe2, 0xbd, 0x1d, 0xb6, 0x5d, 0xbe,
  0x4a, 0xd7, 0x86, 0xbd, 0x16, 0x59, 0x91, 0xbe, 0xac, 0x6f, 0xaa, 0x3e,
  0x69, 0x4d, 0x01, 0xbf, 0x1a, 0xd5, 0x48, 0x3e, 0x9c, 0x20, 0x13, 0x3e,
  0x08, 0x74, 0x92, 0xbe, 0x87, 0xc9, 0x65, 0xbd, 0x79, 0x08, 0x48, 0x3e,
  0x3f, 0x7d, 0x9f, 0x3e, 0x65, 0x8a, 0xda, 0x3c, 0xa0, 0x71, 0x61, 0xbd,
  0xca, 0xa3, 0x69, 0x3d, 0x71, 0x3d, 0xe5, 0xbd, 0x43, 0x2a, 0x8d, 0xbd,
  0xb9, 0xcc, 0x22, 0xbe, 0x3e, 0xf4, 0x99, 0xbd, 0x8e, 0xc2, 0x9c, 0xbe,
  0xa2, 0x87, 0xe7, 0xbd, 0x81, 0x88, 0x2f, 0xbe, 0x4a, 0xfe, 0xff, 0xff,
  0x10, 0x00, 0x00, 0x00, 0x05, 0x00, 0x00, 0x00, 0x14, 0x00, 0x00, 0x00,
  0x2c, 0x00, 0x00, 0x00, 0x02, 0x00, 0x00, 0x00, 0x10, 0x00, 0x00, 0x00,
  0x70, 0x00, 0x00, 0x00, 0x17, 0x00, 0x00, 0x00, 0x73, 0x65, 0x71, 0x75,
  0x65, 0x6e, 0x74, 0x69, 0x61, 0x6c, 0x2f, 0x64, 0x65, 0x6e, 0x73, 0x65,
  0x2f, 0x4d, 0x61, 0x74, 0x4d, 0x75, 0x6c, 0x00, 0x38, 0xfe, 0xff, 0xff,
  0x2e, 0xff, 0xff, 0xff, 0x04, 0x00, 0x00, 0x00, 0x08, 0x00, 0x00, 0x00,
  0xff, 0xff, 0xff, 0xff, 0x70, 0x00, 0x00, 0x00, 0x00, 0x00, 0x0e, 0x00,
  0x18, 0x00, 0x08, 0x00, 0x07, 0x00, 0x0c, 0x00, 0x10, 0x00, 0x14, 0x00,
  0x0e, 0x00, 0x00, 0x00, 0x00, 0x00, 0x00, 0x02, 0x10, 0x00, 0x00, 0x00,
  0x04, 0x00, 0x00, 0x00, 0x10, 0x00, 0x00, 0x00, 0x2c, 0x00, 0x00, 0x00,
  0x01, 0x00, 0x00, 0x00, 0x02, 0x00, 0x00, 0x00, 0x18, 0x00, 0x00, 0x00,
  0x73, 0x65, 0x71, 0x75, 0x65, 0x6e, 0x74, 0x69, 0x61, 0x6c, 0x2f, 0x66,
  0x6c, 0x61, 0x74, 0x74, 0x65, 0x6e, 0x2f, 0x43, 0x6f, 0x6e, 0x73, 0x74,
  0x00, 0x00, 0x00, 0x00, 0xa0, 0xfe, 0xff, 0xff, 0x96, 0xff, 0xff, 0xff,
  0x04, 0x00, 0x00, 0x00, 0x0c, 0x00, 0x00, 0x00, 0x94, 0x25, 0x23, 0xc0,
  0x04, 0x8a, 0xce, 0xbe, 0x34, 0xa0, 0xa1, 0x3f, 0x0a, 0xff, 0xff, 0xff,
  0x10, 0x00, 0x00, 0x00, 0x03, 0x00, 0x00, 0x00, 0x10, 0x00, 0x00, 0x00,
  0x3c, 0x00, 0x00, 0x00, 0x01, 0x00, 0x00, 0x00, 0x03, 0x00, 0x00, 0x00,
  0x29, 0x00, 0x00, 0x00, 0x73, 0x65, 0x71, 0x75, 0x65, 0x6e, 0x74, 0x69,
  0x61, 0x6c, 0x2f, 0x64, 0x65, 0x6e, 0x73, 0x65, 0x5f, 0x31, 0x2f, 0x42,
  0x69, 0x61, 0x73, 0x41, 0x64, 0x64, 0x2f, 0x52, 0x65, 0x61, 0x64, 0x56,
  0x61, 0x72, 0x69, 0x61, 0x62, 0x6c, 0x65, 0x4f, 0x70, 0x00, 0x00, 0x00,
  0x60, 0xff, 0xff, 0xff, 0x00, 0x00, 0x06, 0x00, 0x08, 0x00, 0x04, 0x00,
  0x06, 0x00, 0x00, 0x00, 0x04, 0x00, 0x00, 0x00, 0x40, 0x00, 0x00, 0x00,
  0x82, 0x39, 0xbe, 0xbe, 0x6d, 0x50, 0xf2, 0xbe, 0x0e, 0x49, 0x61, 0x40,
  0xc7, 0x89, 0x58, 0xbf, 0xa4, 0xe0, 0x8b, 0xbe, 0xb5, 0xf1, 0x72, 0xbe,
  0x03, 0x98, 0x72, 0xbf, 0x09, 0x26, 0x4f, 0x3f, 0x2d, 0x8f, 0x9b, 0xbe,
  0x79, 0xd3, 0xa5, 0xbb, 0x04, 0xad, 0xbf, 0xbf, 0x07, 0xb6, 0x19, 0x40,
  0x9f, 0x69, 0x9b, 0xbe, 0x5a, 0x63, 0x85, 0xbf, 0xa6, 0x2b, 0xc9, 0x3e,
  0x77, 0x32, 0x8a, 0x3b, 0xae, 0xff, 0xff, 0xff, 0x10, 0x00, 0x00, 0x00,
  0x02, 0x00, 0x00, 0x00, 0x10, 0x00, 0x00, 0x00, 0x3c, 0x00, 0x00, 0x00,
  0x01, 0x00, 0x00, 0x00, 0x10, 0x00, 0x00, 0x00, 0x27, 0x00, 0x00, 0x00,
  0x73, 0x65, 0x71, 0x75, 0x65, 0x6e, 0x74, 0x69, 0x61, 0x6c, 0x2f, 0x64,
  0x65, 0x6e, 0x73, 0x65, 0x2f, 0x42, 0x69, 0x61, 0x73, 0x41, 0x64, 0x64,
  0x2f, 0x52, 0x65, 0x61, 0x64, 0x56, 0x61, 0x72, 0x69, 0x61, 0x62, 0x6c,
  0x65, 0x4f, 0x70, 0x00, 0x04, 0x00, 0x06, 0x00, 0x04, 0x00, 0x00, 0x00,
  0x00, 0x00, 0x0e, 0x00, 0x14, 0x00, 0x04, 0x00, 0x00, 0x00, 0x08, 0x00,
  0x0c, 0x00, 0x10, 0x00, 0x0e, 0x00, 0x00, 0x00, 0x10, 0x00, 0x00, 0x00,
  0x01, 0x00, 0x00, 0x00, 0x1c, 0x00, 0x00, 0x00, 0x2c, 0x00, 0x00, 0x00,
  0x04, 0x00, 0x00, 0x00, 0x01, 0x00, 0x00, 0x00, 0x40, 0x00, 0x00, 0x00,
  0x03, 0x00, 0x00, 0x00, 0x01, 0x00, 0x00, 0x00, 0x0c, 0x00, 0x00, 0x00,
  0x63, 0x6f, 0x6e, 0x76, 0x32, 0x64, 0x5f, 0x69, 0x6e, 0x70, 0x75, 0x74,
  0x00, 0x00, 0x00, 0x00, 0xfc, 0xff, 0xff, 0xff, 0x04, 0x00, 0x04, 0x00,
  0x04, 0x00, 0x00, 0x00};

unsigned int model_tflite_len = 12316;// Fill the int in `src/model.cc` here