unsigned char _content_ee2405_midterm_model_model_tflite[] = {
  0x08, 0x00, 0x00, 0x00, 0x54, 0x46, 0x4c, 0x33, 0x62, 0xff, 0xff, 0xff,
  0x03, 0x00, 0x00, 0x00, 0x10, 0x00, 0x00, 0x00, 0x24, 0x00, 0x00, 0x00,
  0x78, 0x00, 0x00, 0x00, 0x24, 0x00, 0x00, 0x00, 0x05, 0x00, 0x00, 0x00,
  0x78, 0x05, 0x00, 0x00, 0xb0, 0x04, 0x00, 0x00, 0xe0, 0x02, 0x00, 0x00,
  0x60, 0x02, 0x00, 0x00, 0x54, 0x01, 0x00, 0x00, 0x01, 0x00, 0x00, 0x00,
  0x78, 0x00, 0x00, 0x00, 0x13, 0x00, 0x00, 0x00, 0xd4, 0x2f, 0x00, 0x00,
  0xd0, 0x2f, 0x00, 0x00, 0xdc, 0x2e, 0x00, 0x00, 0x68, 0x2e, 0x00, 0x00,
  0xfc, 0x2d, 0x00, 0x00, 0xac, 0x11, 0x00, 0x00, 0x98, 0x10, 0x00, 0x00,
  0xbc, 0x0e, 0x00, 0x00, 0x60, 0x06, 0x00, 0x00, 0xfc, 0x05, 0x00, 0x00,
  0x78, 0x05, 0x00, 0x00, 0xa8, 0x2f, 0x00, 0x00, 0xa4, 0x2f, 0x00, 0x00,
  0xa0, 0x2f, 0x00, 0x00, 0x9c, 0x2f, 0x00, 0x00, 0x98, 0x2f, 0x00, 0x00,
  0x94, 0x2f, 0x00, 0x00, 0x90, 0x2f, 0x00, 0x00, 0x8c, 0x2f, 0x00, 0x00,
  0x0f, 0x00, 0x00, 0x00, 0x4d, 0x4c, 0x49, 0x52, 0x20, 0x43, 0x6f, 0x6e,
  0x76, 0x65, 0x72, 0x74, 0x65, 0x64, 0x2e, 0x00, 0x00, 0x00, 0x0e, 0x00,
  0x18, 0x00, 0x04, 0x00, 0x08, 0x00, 0x0c, 0x00, 0x10, 0x00, 0x14, 0x00,
  0x0e, 0x00, 0x00, 0x00, 0x14, 0x00, 0x00, 0x00, 0x5c, 0x00, 0x00, 0x00,
  0x60, 0x00, 0x00, 0x00, 0x64, 0x00, 0x00, 0x00, 0x84, 0x00, 0x00, 0x00,
  0x12, 0x00, 0x00, 0x00, 0x04, 0x2f, 0x00, 0x00, 0xa0, 0x2e, 0x00, 0x00,
  0xf8, 0x2d, 0x00, 0x00, 0x98, 0x2d, 0x00, 0x00, 0x30, 0x2d, 0x00, 0x00,
  0xdc, 0x10, 0x00, 0x00, 0xc0, 0x0f, 0x00, 0x00, 0xe4, 0x0d, 0x00, 0x00,
  0xa0, 0x05, 0x00, 0x00, 0x3c, 0x05, 0x00, 0x00, 0xb0, 0x04, 0x00, 0x00,
  0xe8, 0x03, 0x00, 0x00, 0x38, 0x03, 0x00, 0x00, 0xa4, 0x02, 0x00, 0x00,
  0x10, 0x02, 0x00, 0x00, 0x90, 0x01, 0x00, 0x00, 0xfc, 0x00, 0x00, 0x00,
  0x80, 0x00, 0x00, 0x00, 0x01, 0x00, 0x00, 0x00, 0x00, 0x00, 0x00, 0x00,
  0x01, 0x00, 0x00, 0x00, 0x11, 0x00, 0x00, 0x00, 0x08, 0x00, 0x00, 0x00,
  0x1c, 0x04, 0x00, 0x00, 0x58, 0x03, 0x00, 0x00, 0xc8, 0x02, 0x00, 0x00,
  0x24, 0x02, 0x00, 0x00, 0xac, 0x01, 0x00, 0x00, 0x10, 0x01, 0x00, 0x00,
  0x94, 0x00, 0x00, 0x00, 0x10, 0x00, 0x00, 0x00, 0x04, 0x00, 0x00, 0x00,
  0x6d, 0x61, 0x69, 0x6e, 0x00, 0x00, 0x00, 0x00, 0x8e, 0xff, 0xff, 0xff,
  0x00, 0x00, 0x00, 0x09, 0x04, 0x00, 0x00, 0x00, 0x1c, 0x00, 0x00, 0x00,
  0x10, 0x00, 0x00, 0x00, 0x04, 0x00, 0x00, 0x00, 0x4e, 0xd2, 0xff, 0xff,
  0x00, 0x00, 0x80, 0x3f, 0x01, 0x00, 0x00, 0x00, 0x11, 0x00, 0x00, 0x00,
  0x01, 0x00, 0x00, 0x00, 0x10, 0x00, 0x00, 0x00, 0xf6, 0xfb, 0xff, 0xff,
  0x00, 0x00, 0x00, 0x19, 0x01, 0x00, 0x00, 0x00, 0xce, 0xd1, 0xff, 0xff,
  0x10, 0x00, 0x00, 0x00, 0x12, 0x00, 0x00, 0x00, 0x14, 0x00, 0x00, 0x00,
  0x20, 0x00, 0x00, 0x00, 0x02, 0x00, 0x00, 0x00, 0x01, 0x00, 0x00, 0x00,
  0x03, 0x00, 0x00, 0x00, 0x08, 0x00, 0x00, 0x00, 0x49, 0x64, 0x65, 0x6e,
  0x74, 0x69, 0x74, 0x79, 0x00, 0x00, 0x00, 0x00, 0x08, 0xd2, 0xff, 0xff,
  0x00, 0x00, 0x0e, 0x00, 0x18, 0x00, 0x08, 0x00, 0x0c, 0x00, 0x10, 0x00,
  0x07, 0x00, 0x14, 0x00, 0x0e, 0x00, 0x00, 0x00, 0x00, 0x00, 0x00, 0x08,
  0x03, 0x00, 0x00, 0x00, 0x18, 0x00, 0x00, 0x00, 0x0c, 0x00, 0x00, 0x00,
  0x04, 0x00, 0x00, 0x00, 0xdc, 0xd1, 0xff, 0xff, 0x01, 0x00, 0x00, 0x00,
  0x10, 0x00, 0x00, 0x00, 0x03, 0x00, 0x00, 0x00, 0x0f, 0x00, 0x00, 0x00,
  0x05, 0x00, 0x00, 0x00, 0x02, 0x00, 0x00, 0x00, 0x46, 0xd2, 0xff, 0xff,
  0x10, 0x00, 0x00, 0x00, 0x11, 0x00, 0x00, 0x00, 0x14, 0x00, 0x00, 0x00,
  0x30, 0x00, 0x00, 0x00, 0x02, 0x00, 0x00, 0x00, 0x01, 0x00, 0x00, 0x00,
  0x03, 0x00, 0x00, 0x00, 0x1a, 0x00, 0x00, 0x00, 0x73, 0x65, 0x71, 0x75,
  0x65, 0x6e, 0x74, 0x69, 0x61, 0x6c, 0x2f, 0x64, 0x65, 0x6e, 0x73, 0x65,
  0x5f, 0x31, 0x2f, 0x42, 0x69, 0x61, 0x73, 0x41, 0x64, 0x64, 0x00, 0x00,
  0x38, 0xd2, 0xff, 0xff, 0xd6, 0xfd, 0xff, 0xff, 0x00, 0x00, 0x00, 0x08,
  0x03, 0x00, 0x00, 0x00, 0x24, 0x00, 0x00, 0x00, 0x18, 0x00, 0x00, 0x00,
  0x0c, 0x00, 0x00, 0x00, 0x00, 0x00, 0x06, 0x00, 0x08, 0x00, 0x07, 0x00,
  0x06, 0x00, 0x00, 0x00, 0x00, 0x00, 0x00, 0x01, 0x01, 0x00, 0x00, 0x00,
  0x0f, 0x00, 0x00, 0x00, 0x03, 0x00, 0x00, 0x00, 0x0e, 0x00, 0x00, 0x00,
  0x04, 0x00, 0x00, 0x00, 0x01, 0x00, 0x00, 0x00, 0xfe, 0xfc, 0xff, 0xff,
  0x00, 0x00, 0x00, 0x09, 0x01, 0x00, 0x00, 0x00, 0xd6, 0xd2, 0xff, 0xff,
  0x10, 0x00, 0x00, 0x00, 0x10, 0x00, 0x00, 0x00, 0x14, 0x00, 0x00, 0x00,
  0x2c, 0x00, 0x00, 0x00, 0x02, 0x00, 0x00, 0x00, 0x01, 0x00, 0x00, 0x00,
  0x10, 0x00, 0x00, 0x00, 0x15, 0x00, 0x00, 0x00, 0x73, 0x65, 0x71, 0x75,
  0x65, 0x6e, 0x74, 0x69, 0x61, 0x6c, 0x2f, 0x64, 0x65, 0x6e, 0x73, 0x65,
  0x2f, 0x52, 0x65, 0x6c, 0x75, 0x00, 0x00, 0x00, 0x1c, 0xd3, 0xff, 0xff,
  0x00, 0x00, 0x0a, 0x00, 0x10, 0x00, 0x04, 0x00, 0x08, 0x00, 0x0c, 0x00,
  0x0a, 0x00, 0x00, 0x00, 0x02, 0x00, 0x00, 0x00, 0x10, 0x00, 0x00, 0x00,
  0x04, 0x00, 0x00, 0x00, 0x01, 0x00, 0x00, 0x00, 0x0e, 0x00, 0x00, 0x00,
  0x02, 0x00, 0x00, 0x00, 0x0d, 0x00, 0x00, 0x00, 0x03, 0x00, 0x00, 0x00,
  0x7a, 0xfd, 0xff, 0xff, 0x00, 0x00, 0x00, 0x16, 0x01, 0x00, 0x00, 0x00,
  0x52, 0xd3, 0xff, 0xff, 0x10, 0x00, 0x00, 0x00, 0x0f, 0x00, 0x00, 0x00,
  0x14, 0x00, 0x00, 0x00, 0x30, 0x00, 0x00, 0x00, 0x02, 0x00, 0x00, 0x00,
  0x01, 0x00, 0x00, 0x00, 0x70, 0x00, 0x00, 0x00, 0x1a, 0x00, 0x00, 0x00,
  0x73, 0x65, 0x71, 0x75, 0x65, 0x6e, 0x74, 0x69, 0x61, 0x6c, 0x2f, 0x66,
  0x6c, 0x61, 0x74, 0x74, 0x65, 0x6e, 0x2f, 0x52, 0x65, 0x73, 0x68, 0x61,
  0x70, 0x65, 0x00, 0x00, 0x44, 0xd3, 0xff, 0xff, 0xe2, 0xfe, 0xff, 0xff,
  0x00, 0x00, 0x00, 0x05, 0x01, 0x00, 0x00, 0x00, 0x38, 0x00, 0x00, 0x00,
  0x2c, 0x00, 0x00, 0x00, 0x14, 0x00, 0x00, 0x00, 0x00, 0x00, 0x0e, 0x00,
  0x14, 0x00, 0x00, 0x00, 0x10, 0x00, 0x0c, 0x00, 0x08, 0x00, 0x04, 0x00,
  0x0e, 0x00, 0x00, 0x00, 0x03, 0x00, 0x00, 0x00, 0x01, 0x00, 0x00, 0x00,
  0x03, 0x00, 0x00, 0x00, 0x01, 0x00, 0x00, 0x00, 0x01, 0x00, 0x00, 0x00,
  0x0d, 0x00, 0x00, 0x00, 0x01, 0x00, 0x00, 0x00, 0x0c, 0x00, 0x00, 0x00,
  0xe2, 0xd3, 0xff, 0xff, 0x10, 0x00, 0x00, 0x00, 0x0e, 0x00, 0x00, 0x00,
  0x1c, 0x00, 0x00, 0x00, 0x40, 0x00, 0x00, 0x00, 0x04, 0x00, 0x00, 0x00,
  0x01, 0x00, 0x00, 0x00, 0x07, 0x00, 0x00, 0x00, 0x01, 0x00, 0x00, 0x00,
  0x10, 0x00, 0x00, 0x00, 0x22, 0x00, 0x00, 0x00, 0x73, 0x65, 0x71, 0x75,
  0x65, 0x6e, 0x74, 0x69, 0x61, 0x6c, 0x2f, 0x6d, 0x61, 0x78, 0x5f, 0x70,
  0x6f, 0x6f, 0x6c, 0x69, 0x6e, 0x67, 0x32, 0x64, 0x5f, 0x31, 0x2f, 0x4d,
  0x61, 0x78, 0x50, 0x6f, 0x6f, 0x6c, 0x00, 0x00, 0xe4, 0xd3, 0xff, 0xff,
  0xc2, 0xfe, 0xff, 0xff, 0x00, 0x00, 0x00, 0x01, 0x24, 0x00, 0x00, 0x00,
  0x18, 0x00, 0x00, 0x00, 0x04, 0x00, 0x00, 0x00, 0xb4, 0xfe, 0xff, 0xff,
  0x01, 0x00, 0x00, 0x00, 0x01, 0x00, 0x00, 0x00, 0x00, 0x00, 0x00, 0x01,
  0x01, 0x00, 0x00, 0x00, 0x0c, 0x00, 0x00, 0x00, 0x03, 0x00, 0x00, 0x00,
  0x0b, 0x00, 0x00, 0x00, 0x07, 0x00, 0x00, 0x00, 0x09, 0x00, 0x00, 0x00,
  0x72, 0xd4, 0xff, 0xff, 0x10, 0x00, 0x00, 0x00, 0x0d, 0x00, 0x00, 0x00,
  0x1c, 0x00, 0x00, 0x00, 0x2c, 0x00, 0x00, 0x00, 0x04, 0x00, 0x00, 0x00,
  0x01, 0x00, 0x00, 0x00, 0x15, 0x00, 0x00, 0x00, 0x01, 0x00, 0x00, 0x00,
  0x10, 0x00, 0x00, 0x00, 0x0c, 0x00, 0x00, 0x00, 0x74, 0x66, 0x6c, 0x2e,
  0x63, 0x6f, 0x6e, 0x76, 0x5f, 0x32, 0x64, 0x31, 0x00, 0x00, 0x00, 0x00,
  0xb8, 0xd4, 0xff, 0xff, 0x00, 0x00, 0x0e, 0x00, 0x1a, 0x00, 0x08, 0x00,
  0x0c, 0x00, 0x10, 0x00, 0x07, 0x00, 0x14, 0x00, 0x0e, 0x00, 0x00, 0x00,
  0x00, 0x00, 0x00, 0x05, 0x01, 0x00, 0x00, 0x00, 0x3c, 0x00, 0x00, 0x00,
  0x30, 0x00, 0x00, 0x00, 0x14, 0x00, 0x00, 0x00, 0x00, 0x00, 0x0e, 0x00,
  0x18, 0x00, 0x17, 0x00, 0x10, 0x00, 0x0c, 0x00, 0x08, 0x00, 0x04, 0x00,
  0x0e, 0x00, 0x00, 0x00, 0x03, 0x00, 0x00, 0x00, 0x03, 0x00, 0x00, 0x00,
  0x03, 0x00, 0x00, 0x00, 0x03, 0x00, 0x00, 0x00, 0x00, 0x00, 0x00, 0x01,
  0x01, 0x00, 0x00, 0x00, 0x0b, 0x00, 0x00, 0x00, 0x01, 0x00, 0x00, 0x00,
  0x0a, 0x00, 0x00, 0x00, 0x46, 0xff, 0xff, 0xff, 0x00, 0x00, 0x00, 0x11,
  0x01, 0x00, 0x00, 0x00, 0x1e, 0xd5, 0xff, 0xff, 0x10, 0x00, 0x00, 0x00,
  0x0c, 0x00, 0x00, 0x00, 0x1c, 0x00, 0x00, 0x00, 0x40, 0x00, 0x00, 0x00,
  0x04, 0x00, 0x00, 0x00, 0x01, 0x00, 0x00, 0x00, 0x15, 0x00, 0x00, 0x00,
  0x01, 0x00, 0x00, 0x00, 0x08, 0x00, 0x00, 0x00, 0x20, 0x00, 0x00, 0x00,
  0x73, 0x65, 0x71, 0x75, 0x65, 0x6e, 0x74, 0x69, 0x61, 0x6c, 0x2f, 0x6d,
  0x61, 0x78, 0x5f, 0x70, 0x6f, 0x6f, 0x6c, 0x69, 0x6e, 0x67, 0x32, 0x64,
  0x2f, 0x4d, 0x61, 0x78, 0x50, 0x6f, 0x6f, 0x6c, 0x00, 0x00, 0x00, 0x00,
  0x78, 0xd5, 0xff, 0xff, 0x00, 0x00, 0x0e, 0x00, 0x14, 0x00, 0x00, 0x00,
  0x08, 0x00, 0x0c, 0x00, 0x07, 0x00, 0x10, 0x00, 0x0e, 0x00, 0x00, 0x00,
  0x00, 0x00, 0x00, 0x01, 0x30, 0x00, 0x00, 0x00, 0x24, 0x00, 0x00, 0x00,
  0x10, 0x00, 0x00, 0x00, 0x0c, 0x00, 0x10, 0x00, 0x00, 0x00, 0x04, 0x00,
  0x08, 0x00, 0x0f, 0x00, 0x0c, 0x00, 0x00, 0x00, 0x01, 0x00, 0x00, 0x00,
  0x01, 0x00, 0x00, 0x00, 0x00, 0x00, 0x00, 0x01, 0x01, 0x00, 0x00, 0x00,
  0x0a, 0x00, 0x00, 0x00, 0x03, 0x00, 0x00, 0x00, 0x00, 0x00, 0x00, 0x00,
  0x06, 0x00, 0x00, 0x00, 0x08, 0x00, 0x00, 0x00, 0x00, 0x00, 0x0a, 0x00,
  0x0c, 0x00, 0x07, 0x00, 0x00, 0x00, 0x08, 0x00, 0x0a, 0x00, 0x00, 0x00,
  0x00, 0x00, 0x00, 0x03, 0x01, 0x00, 0x00, 0x00, 0xe2, 0xd5, 0xff, 0xff,
  0x10, 0x00, 0x00, 0x00, 0x0b, 0x00, 0x00, 0x00, 0x1c, 0x00, 0x00, 0x00,
  0x28, 0x00, 0x00, 0x00, 0x04, 0x00, 0x00, 0x00, 0x01, 0x00, 0x00, 0x00,
  0x40, 0x00, 0x00, 0x00, 0x03, 0x00, 0x00, 0x00, 0x08, 0x00, 0x00, 0x00,
  0x0b, 0x00, 0x00, 0x00, 0x74, 0x66, 0x6c, 0x2e, 0x63, 0x6f, 0x6e, 0x76,
  0x5f, 0x32, 0x64, 0x00, 0xcc, 0xd5, 0xff, 0xff, 0xc2, 0xd6, 0xff, 0xff,
  0x04, 0x00, 0x00, 0x00, 0x40, 0x00, 0x00, 0x00, 0xb5, 0x7a, 0x94, 0x3e,
  0x42, 0x0b, 0x51, 0xbf, 0x0e, 0xce, 0x82, 0xbf, 0xfc, 0x18, 0x53, 0xbe,
  0x34, 0x94, 0xeb, 0x3d, 0xb9, 0xe5, 0x03, 0x3f, 0xba, 0x72, 0xdc, 0xbf,
  0xe0, 0xd0, 0x25, 0xbf, 0xb7, 0x37, 0xb9, 0xbf, 0x8e, 0x85, 0x24, 0xbd,
  0x05, 0xd9, 0xf8, 0x3e, 0x71, 0x80, 0xc8, 0x3f, 0x2a, 0xb8, 0x91, 0x3f,
  0x0e, 0x36, 0x82, 0xbf, 0x4d, 0xe3, 0xbc, 0x3d, 0x37, 0x5c, 0xbf, 0xbf,
  0x6a, 0xd6, 0xff, 0xff, 0x10, 0x00, 0x00, 0x00, 0x0a, 0x00, 0x00, 0x00,
  0x10, 0x00, 0x00, 0x00, 0x20, 0x00, 0x00, 0x00, 0x01, 0x00, 0x00, 0x00,
  0x10, 0x00, 0x00, 0x00, 0x0d, 0x00, 0x00, 0x00, 0x73, 0x74, 0x64, 0x2e,
  0x63, 0x6f, 0x6e, 0x73, 0x74, 0x61, 0x6e, 0x74, 0x31, 0x00, 0x00, 0x00,
  0x4c, 0xd6, 0xff, 0xff, 0x42, 0xd7, 0xff, 0xff, 0x04, 0x00, 0x00, 0x00,
  0x20, 0x00, 0x00, 0x00, 0x70, 0x2a, 0xac, 0x3f, 0x76, 0xed, 0xda, 0x3f,
  0xa2, 0x54, 0x1a, 0xbf, 0x34, 0xb9, 0x4e, 0x3e, 0x6e, 0x78, 0xfb, 0xbf,
  0x3f, 0x30, 0x9c, 0xbf, 0x97, 0x2e, 0xb8, 0xbf, 0x83, 0x65, 0xfd, 0xbf,
  0xca, 0xd6, 0xff, 0xff, 0x10, 0x00, 0x00, 0x00, 0x09, 0x00, 0x00, 0x00,
  0x10, 0x00, 0x00, 0x00, 0x20, 0x00, 0x00, 0x00, 0x01, 0x00, 0x00, 0x00,
  0x08, 0x00, 0x00, 0x00, 0x0c, 0x00, 0x00, 0x00, 0x73, 0x74, 0x64, 0x2e,
  0x63, 0x6f, 0x6e, 0x73, 0x74, 0x61, 0x6e, 0x74, 0x00, 0x00, 0x00, 0x00,
  0xac, 0xd6, 0xff, 0xff, 0xa2, 0xd7, 0xff, 0xff, 0x04, 0x00, 0x00, 0x00,
  0x00, 0x08, 0x00, 0x00, 0x3a, 0xb8, 0xc4, 0xbe, 0x15, 0x5d, 0x79, 0xbe,
  0x8a, 0xb9, 0x09, 0xbc, 0x09, 0xb2, 0xd2, 0xbd, 0x79, 0x62, 0x71, 0xbe,
  0x0b, 0xef, 0x95, 0x3e, 0xec, 0x22, 0x02, 0xbe, 0xe3, 0x7c, 0x2a, 0xbd,
  0x3b, 0x9a, 0x7a, 0xbd, 0x0b, 0x76, 0xbd, 0x3c, 0x14, 0x39, 0x68, 0x3d,
  0x6e, 0x18, 0x12, 0x3e, 0xec, 0xdf, 0x98, 0xbe, 0xeb, 0x28, 0xc7, 0xbd,
  0x60, 0xca, 0x8b, 0x3e, 0x96, 0xba, 0x83, 0xbd, 0xa1, 0xdb, 0x8c, 0x3d,
  0xbb, 0xeb, 0x62, 0xbe, 0xda, 0x41, 0x0b, 0xbe, 0x08, 0x1b, 0x62, 0xbe,
  0x15, 0xa9, 0x89, 0x3d, 0x02, 0xee, 0x6b, 0xbe, 0xd6, 0x75, 0x10, 0x3e,
  0xd0, 0xb0, 0xf5, 0xbd, 0x93, 0xc0, 0xdc, 0xbd, 0x91, 0xe1, 0x49, 0xbe,
  0xc2, 0xaa, 0x30, 0xbe, 0x42, 0x73, 0x2e, 0xbd, 0x5f, 0xcb, 0x3a, 0xbd,
  0xe4, 0xfc, 0x3a, 0xbe, 0x8b, 0xc5, 0x81, 0xbc, 0xd4, 0x44, 0xd4, 0x3c,
  0x92, 0x45, 0xa9, 0xbe, 0x6d, 0x8b, 0x71, 0xbe, 0x6c, 0xa3, 0x6f, 0xbc,
  0x70, 0x79, 0x69, 0xbd, 0xb0, 0x21, 0x9a, 0xbc, 0x0c, 0x1b, 0xf2, 0xbe,
  0xf2, 0x4e, 0x7a, 0xbe, 0x5b, 0xe4, 0xe6, 0xbd, 0x2e, 0xbb, 0x2e, 0xbf,
  0x7c, 0x7e, 0x75, 0xbe, 0xcd, 0xab, 0xa2, 0xbd, 0x12, 0xfc, 0x9d, 0xbd,
  0xa5, 0xb3, 0x64, 0xbe, 0x67, 0xfa, 0x99, 0xbe, 0x42, 0x9a, 0x94, 0xbe,
  0x8e, 0xb4, 0xb7, 0xbd, 0xa0, 0x2c, 0x8a, 0x3d, 0x7e, 0xfd, 0xe0, 0xbd,
  0x91, 0xc3, 0x2a, 0xbd, 0x3a, 0xda, 0x2f, 0xbd, 0x8b, 0xd3, 0x49, 0x3d,
  0x48, 0x4d, 0x3b, 0xbe, 0xf4, 0xe3, 0x9e, 0x3c, 0xf8, 0x22, 0xa9, 0xbd,
  0x5d, 0xa2, 0x6e, 0x3e, 0x99, 0x71, 0xb3, 0x3d, 0x09, 0x66, 0xf4, 0x3c,
  0x6a, 0x38, 0x86, 0xbc, 0xd1, 0x48, 0x29, 0x3d, 0xd1, 0x53, 0x1a, 0x3f,
  0x15, 0x79, 0x8a, 0x3c, 0x4f, 0x49, 0x76, 0x3e, 0x5c, 0xac, 0x3e, 0xbe,
  0xd3, 0x75, 0x50, 0xbd, 0xd3, 0x55, 0xad, 0xbd, 0x13, 0xa0, 0xfd, 0xbc,
  0x19, 0x7b, 0xcb, 0x3e, 0x46, 0xa2, 0xaa, 0xbd, 0xf2, 0xc5, 0x1f, 0x3d,
  0x40, 0xde, 0x24, 0x3d, 0xda, 0x74, 0x17, 0xbe, 0xef, 0xd2, 0x10, 0x3d,
  0x90, 0x51, 0x99, 0xbe, 0x5d, 0x3b, 0x27, 0x3d, 0xc4, 0x4d, 0xb0, 0xbd,
  0x57, 0x90, 0x16, 0x3d, 0x10, 0x17, 0x97, 0x3d, 0x31, 0x70, 0x10, 0xbe,
  0x0e, 0xf2, 0xc8, 0xbd, 0x56, 0x23, 0x8a, 0xbe, 0xb9, 0xbe, 0xe5, 0xbe,
  0xae, 0x64, 0x0c, 0xbe, 0x92, 0x0a, 0x4a, 0xbe, 0xf6, 0xf0, 0xe0, 0x3e,
  0x90, 0xad, 0xce, 0xbb, 0xe6, 0x80, 0x8a, 0xbe, 0xe0, 0xbd, 0x05, 0x3e,
  0xcb, 0x00, 0x8d, 0xbe, 0x33, 0x07, 0x24, 0x3b, 0xda, 0xf3, 0xa8, 0xbe,
  0x53, 0x37, 0xfa, 0xbd, 0x88, 0x70, 0xa7, 0xbc, 0xe0, 0x75, 0xf6, 0xba,
  0x21, 0x43, 0x03, 0xbe, 0x19, 0x0c, 0xf0, 0xbd, 0xe0, 0x20, 0x10, 0xbe,
  0x1c, 0xc2, 0x0f, 0xbf, 0x78, 0x24, 0x0f, 0xbe, 0x0e, 0x26, 0x9a, 0xbe,
  0xc0, 0xd9, 0x84, 0xbd, 0xb2, 0x41, 0x35, 0xbc, 0x62, 0x22, 0x28, 0xbe,
  0xc9, 0x5a, 0xd4, 0xbe, 0x5f, 0x8c, 0x65, 0xbe, 0xc7, 0x2a, 0x13, 0xbf,
  0xeb, 0xaa, 0xee, 0xbd, 0x84, 0x44, 0x37, 0xbf, 0x50, 0xde, 0x24, 0xbe,
  0xbd, 0xf3, 0x8a, 0x3d, 0x8d, 0x77, 0xae, 0xbd, 0x7c, 0xfe, 0xd8, 0x3e,
  0x03, 0x78, 0x76, 0xbd, 0x13, 0x48, 0xd9, 0x3b, 0xeb, 0xbd, 0xd6, 0xbc,
  0x89, 0x03, 0x44, 0xbd, 0x31, 0x6d, 0x25, 0x3e, 0x21, 0x9e, 0xf1, 0x3c,
  0x7f, 0x8d, 0x4e, 0xbd, 0x8b, 0xbd, 0xd0, 0x3d, 0x8e, 0xd3, 0x1a, 0x3c,
  0xe0, 0x29, 0x2d, 0x3e, 0xd1, 0x4f, 0x73, 0x3e, 0x16, 0x2c, 0xd7, 0xbc,
  0x01, 0x15, 0x38, 0x3e, 0x5e, 0x49, 0xba, 0xbc, 0xb2, 0xa4, 0xd7, 0x3d,
  0x54, 0xb9, 0x9b, 0xbd, 0xef, 0x45, 0xf9, 0xbd, 0xec, 0x25, 0xec, 0xbe,
  0x0b, 0x71, 0x33, 0x3e, 0x16, 0x7a, 0xc6, 0xbe, 0xe7, 0x70, 0x3c, 0xbd,
  0xa0, 0xe0, 0x05, 0xbe, 0x98, 0x17, 0xc9, 0xbe, 0xe9, 0xc4, 0xc3, 0x3d,
  0xad, 0x26, 0x40, 0x3e, 0x3b, 0x01, 0x9f, 0xbe, 0xed, 0x24, 0x29, 0x3d,
  0xf0, 0x77, 0xd7, 0xbe, 0xa7, 0x3b, 0x3e, 0xbe, 0x62, 0x8a, 0xac, 0x3c,
  0x16, 0xe8, 0xa9, 0xbe, 0xae, 0x57, 0xf7, 0x3d, 0xfc, 0xe4, 0xeb, 0x3d,
  0xda, 0x34, 0x3f, 0xbe, 0x26, 0xb3, 0x0f, 0x3d, 0x09, 0x5f, 0x88, 0xbe,
  0x10, 0x59, 0x90, 0xbe, 0xbf, 0x32, 0xb3, 0xbe, 0x22, 0x2a, 0xab, 0xbe,
  0xe9, 0x08, 0xc1, 0x3c, 0xf4, 0xd1, 0xe2, 0xbd, 0x83, 0xac, 0xb6, 0xbd,
  0x82, 0xe5, 0x03, 0xbe, 0xb8, 0x90, 0x41, 0xbf, 0x79, 0xda, 0x1f, 0xbf,
  0x6f, 0xfb, 0x42, 0x3e, 0xb2, 0x05, 0xb1, 0xbe, 0x81, 0x6d, 0x1b, 0xbd,
  0x30, 0x41, 0x56, 0x3d, 0xdb, 0x10, 0x98, 0xbc, 0xb8, 0x11, 0x8e, 0xbd,
  0x32, 0x69, 0x36, 0x3d, 0xec, 0x42, 0x51, 0xbe, 0x3a, 0xc5, 0x4e, 0xbc,
  0x4e, 0xfb, 0x75, 0xbd, 0x3e, 0x69, 0x50, 0x3b, 0x6e, 0x63, 0x65, 0xbd,
  0xf8, 0xf5, 0x7a, 0xbd, 0xaa, 0xea, 0x44, 0xbd, 0x4a, 0x2d, 0x14, 0xbe,
  0xb3, 0xaa, 0x89, 0xbd, 0xe1, 0xf4, 0xbe, 0x3d, 0x26, 0x32, 0x4e, 0x3c,
  0x9c, 0x2e, 0xdc, 0x3d, 0x23, 0xf7, 0x7d, 0xbd, 0xc6, 0xe9, 0x10, 0x3c,
  0xaf, 0x1a, 0x5c, 0xbc, 0x58, 0x62, 0xd7, 0xbd, 0x89, 0xfb, 0x38, 0x3f,
  0xfb, 0xa2, 0x90, 0x3e, 0xfa, 0xdb, 0x20, 0x3d, 0xd6, 0xde, 0x1f, 0xbe,
  0xd4, 0x5d, 0x29, 0xbd, 0x1c, 0xa9, 0x11, 0xbd, 0xef, 0xbb, 0xe0, 0xbc,
  0x15, 0xfa, 0x23, 0xbd, 0x5e, 0x20, 0xc9, 0xbe, 0xcb, 0x26, 0x70, 0xbc,
  0xc2, 0x29, 0x33, 0xbc, 0x19, 0x36, 0x80, 0xbe, 0xe0, 0x36, 0xb1, 0xbe,
  0xdd, 0x81, 0x20, 0xbd, 0x2f, 0x8d, 0xb8, 0xbe, 0xc7, 0xa6, 0x1f, 0x3e,
  0xd8, 0x55, 0xe1, 0x3d, 0x6c, 0xa6, 0x18, 0x3f, 0xe0, 0x91, 0x80, 0xbd,
  0xa6, 0x98, 0x07, 0xbe, 0x2e, 0xe6, 0xd8, 0xbd, 0x57, 0x4a, 0xac, 0xbd,
  0x08, 0x49, 0x1a, 0xbe, 0x4a, 0xef, 0x8f, 0x3e, 0xde, 0x5f, 0x3c, 0x3e,
  0x42, 0x7e, 0x48, 0x3e, 0xb6, 0xe8, 0xd2, 0xbc, 0x7e, 0xd5, 0xee, 0xbd,
  0xe8, 0x4a, 0x0f, 0xbe, 0xb6, 0xb4, 0xf6, 0x3b, 0x40, 0x94, 0xe1, 0x3c,
  0xf4, 0xc0, 0x35, 0x3b, 0xac, 0xd3, 0xd3, 0xbe, 0xd3, 0x31, 0xbe, 0xbe,
  0x61, 0x8a, 0x64, 0xbb, 0x02, 0x8a, 0x95, 0xbe, 0x7c, 0x54, 0x1b, 0xbe,
  0x6d, 0xe3, 0xac, 0xbd, 0x25, 0x3c, 0xca, 0xbc, 0xbf, 0xec, 0x92, 0xbd,
  0x0d, 0xed, 0x7d, 0x3d, 0xe4, 0xef, 0x32, 0x3e, 0x64, 0xe9, 0x0f, 0xbe,
  0xed, 0x04, 0xdf, 0x3e, 0x4a, 0x6b, 0xbc, 0x3e, 0xd5, 0x42, 0x76, 0xbd,
  0xea, 0x43, 0x25, 0xbc, 0xa0, 0x1c, 0x9d, 0xbd, 0x29, 0x17, 0x89, 0x3a,
  0x45, 0x82, 0xb0, 0x3d, 0xd6, 0xeb, 0xad, 0xbd, 0x54, 0xb0, 0x5d, 0x3e,
  0x45, 0xaf, 0x97, 0x3a, 0x4c, 0xc2, 0x61, 0x3d, 0x5e, 0xaa, 0xd6, 0xbb,
  0x47, 0x2b, 0x7a, 0xbe, 0x93, 0xcf, 0x01, 0x3e, 0x2f, 0xe4, 0x65, 0x3d,
  0xb1, 0x67, 0xf5, 0xbd, 0x61, 0x66, 0x16, 0xbe, 0x96, 0x15, 0x41, 0xbd,
  0x15, 0x20, 0x47, 0xbe, 0x18, 0x90, 0xa1, 0x3c, 0x02, 0x6e, 0x20, 0xbe,
  0xf1, 0x9c, 0x71, 0x3c, 0x70, 0xe3, 0x45, 0xbe, 0xbc, 0x79, 0xfa, 0xbd,
  0xad, 0xeb, 0xe1, 0xbe, 0xa7, 0xc7, 0xb7, 0xbd, 0x9f, 0x79, 0x9c, 0xbe,
  0x5d, 0xdc, 0xc6, 0xbd, 0x93, 0xf3, 0x8d, 0xbe, 0xca, 0xa0, 0xba, 0xbe,
  0x8d, 0x99, 0x18, 0xbf, 0x8a, 0x8c, 0x4f, 0xbe, 0x7e, 0xf2, 0xa8, 0x3c,
  0x50, 0x55, 0x30, 0xbe, 0x36, 0x9b, 0xb2, 0x3e, 0x5c, 0x3c, 0xa4, 0xbe,
  0xe6, 0x31, 0x00, 0x3e, 0xef, 0x52, 0x66, 0xbe, 0x6f, 0x48, 0xe1, 0xbe,
  0x5e, 0x30, 0xd3, 0xbd, 0x77, 0xb3, 0x86, 0x3d, 0x97, 0x01, 0xd5, 0xbe,
  0x04, 0x91, 0x96, 0x3c, 0x04, 0x6b, 0x9f, 0xbe, 0x06, 0x96, 0x90, 0x3e,
  0x89, 0x88, 0x83, 0x3a, 0x0a, 0x29, 0xdb, 0x3e, 0x6c, 0x77, 0xd6, 0xbd,
  0x38, 0x46, 0x64, 0xbd, 0x6a, 0xfc, 0x3f, 0xbd, 0x90, 0x9f, 0xa0, 0x3d,
  0xcd, 0x37, 0x92, 0xbd, 0x98, 0x8c, 0x72, 0x3b, 0xc8, 0xc4, 0x2e, 0x3d,
  0x2c, 0x57, 0xb0, 0x3e, 0x9d, 0xa3, 0xdf, 0xbd, 0xf6, 0x7d, 0xc5, 0xbd,
  0x93, 0x07, 0xc5, 0xbc, 0x72, 0x1c, 0x9f, 0xbd, 0x86, 0x7a, 0x16, 0x3c,
  0xa7, 0x4e, 0xea, 0xbd, 0xef, 0xf9, 0x5b, 0x3d, 0xc8, 0x27, 0xaf, 0x3c,
  0x02, 0xfd, 0x68, 0xbd, 0x27, 0xd9, 0x2d, 0x3e, 0x59, 0x40, 0x20, 0xbd,
  0x8b, 0x2e, 0x60, 0xbd, 0x37, 0x3d, 0x90, 0xbd, 0xaf, 0xdf, 0x6c, 0x3d,
  0x04, 0x4b, 0x79, 0x3d, 0x3b, 0x0f, 0xb2, 0x3d, 0x25, 0xe4, 0xb3, 0xbe,
  0x36, 0x93, 0x97, 0x3d, 0x0d, 0xd0, 0xdb, 0xbd, 0x9a, 0xd0, 0xeb, 0xbb,
  0xf5, 0x42, 0xb1, 0xbd, 0x57, 0xe8, 0xac, 0xbd, 0x8a, 0x64, 0xa3, 0x3a,
  0x4a, 0x4f, 0x2e, 0xbd, 0xed, 0xf8, 0x8f, 0xbe, 0x30, 0xc2, 0x97, 0x3e,
  0x8b, 0x96, 0x8d, 0x3d, 0xa2, 0xac, 0xf4, 0xbc, 0x77, 0xd5, 0x2f, 0xbe,
  0xfc, 0xe0, 0x76, 0xbe, 0x0a, 0xc5, 0xe2, 0x3d, 0x83, 0x21, 0x00, 0x3c,
  0x8e, 0xf3, 0x9a, 0xbe, 0x53, 0x49, 0x3e, 0x3e, 0x2d, 0xfd, 0xae, 0x3d,
  0xa4, 0xad, 0x10, 0xbd, 0xb3, 0xc9, 0xa3, 0xbd, 0xfe, 0x69, 0xf7, 0xbd,
  0x2d, 0xc3, 0x36, 0x3e, 0x41, 0x43, 0xc7, 0x3d, 0xd4, 0xa8, 0x88, 0xbe,
  0x90, 0xf0, 0xd3, 0xbd, 0x1f, 0x5f, 0xa2, 0x3e, 0xe7, 0x73, 0x2e, 0xbe,
  0x5f, 0xe5, 0x46, 0xbd, 0x62, 0xdd, 0x82, 0xbc, 0xc9, 0xc4, 0x0e, 0xbe,
  0xf8, 0x20, 0x1b, 0xbe, 0x11, 0xc4, 0xed, 0xbc, 0xeb, 0x80, 0x35, 0x3e,
  0x53, 0x28, 0xb6, 0xbc, 0x40, 0xfa, 0xa2, 0x3e, 0x1d, 0xd2, 0x18, 0xbc,
  0x4a, 0x35, 0x9b, 0xbd, 0xa2, 0xe0, 0x63, 0x3e, 0x54, 0xf0, 0x20, 0x3e,
  0x9a, 0xed, 0xc6, 0x3d, 0xff, 0x40, 0x3f, 0xbd, 0x3f, 0x07, 0x98, 0x3d,
  0x55, 0x65, 0x09, 0x3e, 0x5e, 0xc0, 0x9b, 0xbc, 0xd6, 0xda, 0x2b, 0xbd,
  0xe8, 0xef, 0x83, 0xbe, 0xf6, 0x05, 0xa7, 0xbe, 0x17, 0xa6, 0xcd, 0xbd,
  0x66, 0x52, 0x16, 0x3e, 0x68, 0x92, 0x08, 0x3d, 0x88, 0x82, 0x47, 0x3d,
  0x18, 0x35, 0xdb, 0x3b, 0xdd, 0xa2, 0x84, 0xbd, 0xcc, 0x74, 0x74, 0x3e,
  0xc1, 0xb8, 0x92, 0x3c, 0x21, 0xa0, 0x43, 0xbd, 0x8e, 0x4b, 0x85, 0x3e,
  0xc5, 0x6f, 0xa8, 0xbc, 0x88, 0xb0, 0xd7, 0xbd, 0x4f, 0xc9, 0x6b, 0xbe,
  0x1c, 0xa5, 0x04, 0xbf, 0x90, 0xc5, 0xb3, 0xbc, 0xef, 0xc4, 0x0b, 0xbf,
  0x2b, 0xe4, 0x4b, 0xbe, 0xa8, 0xbf, 0x2f, 0xbe, 0x67, 0x44, 0xef, 0x3d,
  0x29, 0xdd, 0xce, 0xbd, 0x8c, 0xb6, 0xc3, 0x3d, 0xd9, 0x94, 0x97, 0xbe,
  0x2d, 0xe8, 0x8b, 0xbd, 0x7a, 0x3c, 0x2d, 0xbf, 0xd4, 0xe0, 0xb7, 0xbb,
  0x53, 0xaf, 0x17, 0x3e, 0xee, 0x87, 0x80, 0x3e, 0x39, 0x54, 0x6e, 0xbe,
  0x56, 0xcc, 0x48, 0xbd, 0xb9, 0x02, 0xf4, 0xbe, 0x87, 0x43, 0xbc, 0x3d,
  0xa6, 0x57, 0xe8, 0xbe, 0x0b, 0xb1, 0x5c, 0xbc, 0xd9, 0x46, 0x8f, 0xbc,
  0xfd, 0x47, 0x84, 0x3e, 0x9b, 0x3b, 0x5a, 0xbe, 0x87, 0x21, 0x4e, 0xbe,
  0x03, 0x0c, 0x7e, 0xbf, 0x22, 0xdd, 0xdf, 0xbe, 0x2c, 0xab, 0x21, 0x3e,
  0x5e, 0x86, 0xe3, 0x3d, 0xc2, 0x18, 0x4b, 0xbc, 0x85, 0xad, 0x57, 0x3c,
  0x74, 0xa9, 0x85, 0xbe, 0x0c, 0x15, 0x87, 0xbc, 0xe7, 0x96, 0x91, 0xbe,
  0x93, 0x47, 0x30, 0x3e, 0xc7, 0xc4, 0x84, 0x3e, 0x19, 0x8b, 0x3c, 0xbe,
  0x0f, 0x54, 0x46, 0x3d, 0xef, 0x2d, 0x96, 0xbd, 0x39, 0x25, 0xfe, 0xbe,
  0x93, 0xd8, 0x98, 0xbc, 0x7f, 0xab, 0xb7, 0xbe, 0xf6, 0x64, 0xe7, 0xbc,
  0x1d, 0xf7, 0xb9, 0xbd, 0x07, 0x9c, 0x88, 0xbe, 0x4f, 0x33, 0x9a, 0x3e,
  0xa4, 0x3f, 0xa2, 0xbd, 0x9f, 0x94, 0x52, 0xbe, 0xc7, 0xd3, 0x5c, 0xbd,
  0x9b, 0x0f, 0x0f, 0xbe, 0x97, 0x2f, 0x54, 0x3c, 0x36, 0x13, 0xa9, 0xbd,
  0x48, 0x71, 0xff, 0xbd, 0xc5, 0xef, 0x1c, 0x3f, 0x50, 0xa8, 0x77, 0x3e,
  0xb8, 0x66, 0x5a, 0x3d, 0xb7, 0x02, 0x20, 0x3e, 0x3f, 0xa8, 0x85, 0xbd,
  0xce, 0x8b, 0x91, 0x3e, 0xf2, 0x2c, 0xc6, 0x3d, 0x01, 0xbe, 0x93, 0xbd,
  0x44, 0x9f, 0xb0, 0xba, 0xf5, 0xaf, 0x58, 0xbe, 0xa5, 0x18, 0xf0, 0xbd,
  0xa7, 0x8b, 0x54, 0x3a, 0x5d, 0xee, 0xfd, 0x3d, 0x0a, 0x1e, 0x69, 0x3e,
  0x11, 0x01, 0x1a, 0x3f, 0x98, 0x47, 0x35, 0x3c, 0xac, 0xa8, 0xe9, 0xbd,
  0x36, 0x1d, 0x94, 0xbe, 0x93, 0x29, 0x89, 0xbd, 0x1d, 0xcf, 0xc7, 0xbe,
  0x0b, 0xbc, 0x16, 0xbe, 0x50, 0x10, 0x1b, 0xbe, 0x0a, 0x91, 0x8f, 0xbb,
  0x52, 0x9d, 0x0e, 0xbe, 0xc8, 0x3b, 0x6a, 0xbe, 0x31, 0x55, 0xc8, 0xbe,
  0x02, 0xda, 0xf4, 0x3c, 0x5e, 0x94, 0xa2, 0xbe, 0x9c, 0x66, 0x0d, 0xbd,
  0x56, 0xf4, 0x83, 0x3e, 0xfc, 0xc6, 0xcd, 0x3b, 0x74, 0x57, 0xbb, 0xbd,
  0xf0, 0x12, 0x06, 0xbe, 0x09, 0xbd, 0x79, 0xbd, 0x89, 0xf6, 0xd3, 0x3c,
  0xba, 0x13, 0x29, 0x3d, 0xd5, 0x08, 0x31, 0x3e, 0x47, 0x02, 0x20, 0x3d,
  0xfa, 0x51, 0xbe, 0xbe, 0xa7, 0x87, 0x08, 0xbd, 0xf7, 0xc7, 0x8d, 0x3e,
  0x9c, 0xe5, 0xe4, 0xbd, 0xa0, 0x31, 0x7f, 0x3c, 0x0a, 0xfd, 0xa3, 0xbe,
  0xd6, 0x56, 0xc9, 0x3d, 0x5d, 0x6c, 0x78, 0xbe, 0x39, 0x46, 0x2d, 0xbd,
  0xa3, 0x0b, 0x0e, 0xbe, 0xcc, 0x20, 0xa1, 0x3e, 0x4a, 0x52, 0x2e, 0xbe,
  0x30, 0xa2, 0x6e, 0x3e, 0x91, 0x7a, 0x8e, 0xbe, 0x70, 0x64, 0x9e, 0x3e,
  0x2d, 0xa5, 0x51, 0xbc, 0xd9, 0x8a, 0x0b, 0x3b, 0xe2, 0x25, 0x76, 0xbc,
  0x9b, 0xe8, 0x03, 0xbe, 0x34, 0x25, 0xa4, 0xbc, 0x37, 0x52, 0x03, 0x3d,
  0xca, 0x95, 0x38, 0xbe, 0x04, 0xe1, 0xbe, 0x3d, 0x79, 0x51, 0xfb, 0x3d,
  0x21, 0x85, 0x98, 0x3e, 0x3f, 0x07, 0x69, 0xbd, 0xc9, 0x4b, 0x21, 0x3e,
  0xd7, 0x03, 0x11, 0xbe, 0x69, 0xff, 0xf8, 0xbd, 0x5b, 0x65, 0x01, 0xbd,
  0xc7, 0xe2, 0xcd, 0x3d, 0xbf, 0x27, 0xac, 0x3d, 0x14, 0x3f, 0x22, 0x3d,
  0xb4, 0xc3, 0x07, 0xbd, 0xc0, 0x93, 0x01, 0xbe, 0xc2, 0x95, 0x9b, 0x3b,
  0x8c, 0x7f, 0x1b, 0x39, 0xcf, 0x7c, 0x69, 0xbd, 0x28, 0x92, 0xc4, 0x3e,
  0x17, 0xff, 0x0c, 0xbe, 0x45, 0x88, 0x81, 0x3e, 0xee, 0xee, 0xd7, 0xbb,
  0x9b, 0x21, 0xa2, 0xbd, 0x6f, 0x5d, 0xf1, 0xbd, 0x53, 0xe1, 0x99, 0x3c,
  0x7d, 0x9e, 0x04, 0xbe, 0x10, 0xf8, 0x73, 0xbc, 0x9f, 0xd2, 0x47, 0xbe,
  0x7b, 0x2f, 0x9c, 0xbd, 0x6f, 0x89, 0xef, 0xbd, 0xc8, 0x65, 0x10, 0xbf,
  0xab, 0xfa, 0xcf, 0xbe, 0xf5, 0xf3, 0xeb, 0x3b, 0x2f, 0x6c, 0x23, 0xbe,
  0x24, 0x86, 0xd7, 0xbc, 0x53, 0x9b, 0x3c, 0x3e, 0xb2, 0x2d, 0xd1, 0x3e,
  0xf5, 0x24, 0x65, 0xbe, 0xa0, 0x22, 0x1d, 0xbe, 0x3f, 0xb8, 0x91, 0xbe,
  0x11, 0x39, 0x3a, 0xbe, 0x5c, 0x86, 0x2f, 0xbe, 0xc0, 0x44, 0x9d, 0xbd,
  0xf4, 0x57, 0xd7, 0x3e, 0x91, 0x88, 0x10, 0x3e, 0x7f, 0xb8, 0x60, 0xbe,
  0x0a, 0xdf, 0xff, 0xff, 0x10, 0x00, 0x00, 0x00, 0x08, 0x00, 0x00, 0x00,
  0x1c, 0x00, 0x00, 0x00, 0x38, 0x00, 0x00, 0x00, 0x04, 0x00, 0x00, 0x00,
  0x10, 0x00, 0x00, 0x00, 0x04, 0x00, 0x00, 0x00, 0x01, 0x00, 0x00, 0x00,
  0x08, 0x00, 0x00, 0x00, 0x1a, 0x00, 0x00, 0x00, 0x73, 0x65, 0x71, 0x75,
  0x65, 0x6e, 0x74, 0x69, 0x61, 0x6c, 0x2f, 0x63, 0x6f, 0x6e, 0x76, 0x32,
  0x64, 0x5f, 0x31, 0x2f, 0x43, 0x6f, 0x6e, 0x76, 0x32, 0x44, 0x00, 0x00,
  0x04, 0xdf, 0xff, 0xff, 0xfa, 0xdf, 0xff, 0xff, 0x04, 0x00, 0x00, 0x00,
  0x80, 0x01, 0x00, 0x00, 0x52, 0xb0, 0x17, 0xbf, 0x1b, 0x40, 0x8f, 0xbd,
  0x3d, 0x2c, 0x9c, 0x3d, 0xe7, 0x44, 0x0c, 0x3f, 0xfe, 0xfa, 0xf1, 0xbd,
  0x8a, 0x5d, 0xae, 0xbd, 0x08, 0xb5, 0x1a, 0x3d, 0x3d, 0x28, 0x9b, 0x3d,
  0x74, 0xe9, 0xa0, 0xbc, 0x41, 0xb0, 0x39, 0x3d, 0x33, 0xe1, 0x1d, 0xbe,
  0x3c, 0x9b, 0x84, 0xbc, 0xa2, 0x48, 0xea, 0xbe, 0x9c, 0x4e, 0x1f, 0xbe,
  0xd4, 0xcf, 0x52, 0xbd, 0x39, 0x7e, 0x57, 0xbe, 0x04, 0xe7, 0x2c, 0xbd,
  0x92, 0x44, 0x41, 0xbd, 0x40, 0x8a, 0x05, 0xbe, 0x8b, 0xf8, 0xd9, 0x3b,
  0x6a, 0xcf, 0x66, 0x3d, 0x85, 0x89, 0xcb, 0xbd, 0x02, 0x27, 0x58, 0xbe,
  0x32, 0xac, 0x07, 0xbe, 0x20, 0x13, 0xda, 0x3e, 0xfe, 0x69, 0x0d, 0x3d,
  0x8c, 0x06, 0x5f, 0xbe, 0x20, 0xf5, 0xb2, 0x3d, 0xda, 0xc0, 0x99, 0xbd,
  0x8d, 0xf7, 0xfb, 0xbc, 0xfa, 0xc0, 0x6d, 0xbe, 0x2d, 0xfb, 0x29, 0xbd,
  0x18, 0xb5, 0x28, 0xbd, 0xa9, 0xa2, 0x8b, 0x3d, 0xe1, 0x57, 0xb2, 0xbd,
  0x08, 0xb4, 0x48, 0xbd, 0x24, 0x42, 0x89, 0xbe, 0x91, 0x1d, 0x19, 0x3d,
  0xad, 0x61, 0x24, 0xbc, 0x45, 0x83, 0x22, 0xbe, 0x8c, 0xb4, 0x16, 0xbd,
  0x84, 0xeb, 0x36, 0x3d, 0x3c, 0x7d, 0xb9, 0xbe, 0xe2, 0xa8, 0x17, 0xbd,
  0x5a, 0x58, 0x6a, 0x3d, 0xb2, 0xe2, 0x4c, 0xbe, 0xc5, 0xc5, 0x86, 0xbd,
  0x4d, 0xa0, 0x02, 0x3c, 0xa5, 0x03, 0x59, 0x3e, 0x06, 0x46, 0xa9, 0x3c,
  0x5c, 0x1d, 0x64, 0xbe, 0x66, 0x89, 0x93, 0x3d, 0xf6, 0xd3, 0x93, 0xbc,
  0x02, 0x0c, 0xb9, 0xbe, 0x0f, 0xa2, 0x0c, 0xbd, 0xbd, 0xd3, 0xb0, 0xbd,
  0x61, 0xbf, 0x2a, 0x3c, 0x8b, 0x4b, 0x06, 0xbe, 0x9c, 0x0d, 0x01, 0xbe,
  0x68, 0x4e, 0xaf, 0x3e, 0xaf, 0x44, 0x2d, 0xbe, 0xb1, 0x07, 0xfb, 0x3e,
  0xb2, 0x3e, 0x99, 0x3c, 0xd5, 0x92, 0x3d, 0x3e, 0x62, 0x69, 0x32, 0xbe,
  0x1b, 0xaa, 0x9d, 0x3d, 0x79, 0x59, 0x97, 0x3c, 0x31, 0xf4, 0xc0, 0xbe,
  0x46, 0x4d, 0x95, 0xbd, 0x56, 0x92, 0x1e, 0xbb, 0x57, 0x9c, 0x66, 0x3c,
  0x78, 0x45, 0xe0, 0x3b, 0x8b, 0x98, 0xc4, 0xbd, 0xd4, 0x31, 0xf4, 0x3d,
  0x79, 0x8f, 0xa8, 0x3e, 0x71, 0xac, 0x35, 0xbd, 0x2d, 0x87, 0xe9, 0xbd,
  0x76, 0xd5, 0x6a, 0x3e, 0x8d, 0xdc, 0x2e, 0x3e, 0xe0, 0x27, 0x67, 0xbd,
  0x5c, 0x35, 0xb1, 0xbe, 0xdd, 0x66, 0xc7, 0x3c, 0x26, 0x68, 0x14, 0x3c,
  0x50, 0x60, 0x6d, 0xbe, 0x4b, 0x39, 0x9d, 0xbd, 0x2b, 0xd1, 0x78, 0xbd,
  0x60, 0x4d, 0x55, 0x3d, 0x9f, 0x0c, 0x23, 0x3e, 0x5d, 0x22, 0xc7, 0x3c,
  0xaa, 0x9d, 0x4b, 0xbd, 0xc1, 0x02, 0x07, 0x3c, 0x17, 0xf2, 0x9e, 0xbd,
  0xec, 0x2a, 0x38, 0xbd, 0x86, 0x0c, 0xbb, 0x3d, 0xfa, 0x9d, 0x81, 0xbe,
  0xb6, 0x48, 0xa1, 0x3c, 0xe2, 0xe0, 0xff, 0xff, 0x10, 0x00, 0x00, 0x00,
  0x07, 0x00, 0x00, 0x00, 0x1c, 0x00, 0x00, 0x00, 0x38, 0x00, 0x00, 0x00,
  0x04, 0x00, 0x00, 0x00, 0x08, 0x00, 0x00, 0x00, 0x04, 0x00, 0x00, 0x00,
  0x03, 0x00, 0x00, 0x00, 0x01, 0x00, 0x00, 0x00, 0x18, 0x00, 0x00, 0x00,
  0x73, 0x65, 0x71, 0x75, 0x65, 0x6e, 0x74, 0x69, 0x61, 0x6c, 0x2f, 0x63,
  0x6f, 0x6e, 0x76, 0x32, 0x64, 0x2f, 0x43, 0x6f, 0x6e, 0x76, 0x32, 0x44,
  0x00, 0x00, 0x00, 0x00, 0xdc, 0xe0, 0xff, 0xff, 0xd2, 0xe1, 0xff, 0xff,
  0x04, 0x00, 0x00, 0x00, 0xc0, 0x00, 0x00, 0x00, 0xf4, 0x34, 0x3c, 0x3d,
  0x51, 0x7a, 0x71, 0x3e, 0xef, 0x15, 0x3e, 0xbe, 0x45, 0xbc, 0x18, 0x3d,
  0xe7, 0x36, 0xe9, 0xbe, 0x45, 0x2e, 0x34, 0xbe, 0xc1, 0x7d, 0x13, 0x3e,
  0xb0, 0x48, 0xe1, 0x3e, 0xbd, 0x4e, 0x5c, 0x3e, 0xcd, 0x70, 0x93, 0x3e,
  0xad, 0xd8, 0xfe, 0x3c, 0xd9, 0xa5, 0x58, 0x3e, 0xc3, 0x34, 0x85, 0xbd,
  0x91, 0x7a, 0xc1, 0x3e, 0xc7, 0x9a, 0xb8, 0xbe, 0x40, 0x5b, 0xfd, 0xbd,
  0xb1, 0x5e, 0x8d, 0xbc, 0x8d, 0xd8, 0x41, 0xbe, 0xb6, 0x12, 0xad, 0xbd,
  0x01, 0x91, 0x03, 0xbd, 0x0f, 0xa4, 0x02, 0xbe, 0x21, 0x4f, 0x88, 0xbd,
  0x65, 0xa3, 0x56, 0x3c, 0x50, 0x07, 0xc4, 0x3e, 0x09, 0xe4, 0xe3, 0xbd,
  0xb1, 0xbe, 0xa7, 0x3e, 0x51, 0x44, 0x1b, 0x3c, 0xef, 0xc3, 0x1f, 0x3e,
  0x51, 0x4a, 0x18, 0x3d, 0xe5, 0xd1, 0xd3, 0x3e, 0x02, 0x05, 0x81, 0xbd,
  0xc8, 0x59, 0x87, 0xbc, 0xaf, 0x94, 0xc0, 0xbd, 0xf1, 0xa7, 0x97, 0xbc,
  0x19, 0x46, 0x13, 0xbe, 0x15, 0xca, 0x39, 0xbc, 0xf5, 0xb6, 0xcb, 0xbe,
  0xd4, 0x79, 0x8f, 0xbd, 0xa8, 0xe0, 0x5e, 0x3d, 0x7d, 0x04, 0xb2, 0x3e,
  0x32, 0xb4, 0x58, 0x3e, 0x9c, 0x11, 0x2b, 0x3e, 0xc0, 0xde, 0xd3, 0x3d,
  0xeb, 0xe5, 0x29, 0x3e, 0x86, 0x39, 0x12, 0xbd, 0xaa, 0x2b, 0xa9, 0x3e,
  0x28, 0x24, 0xbe, 0x3d, 0x1a, 0x45, 0x12, 0xbd, 0xfa, 0xe1, 0xff, 0xff,
  0x10, 0x00, 0x00, 0x00, 0x06, 0x00, 0x00, 0x00, 0x14, 0x00, 0x00, 0x00,
  0x30, 0x00, 0x00, 0x00, 0x02, 0x00, 0x00, 0x00, 0x03, 0x00, 0x00, 0x00,
  0x10, 0x00, 0x00, 0x00, 0x19, 0x00, 0x00, 0x00, 0x73, 0x65, 0x71, 0x75,
  0x65, 0x6e, 0x74, 0x69, 0x61, 0x6c, 0x2f, 0x64, 0x65, 0x6e, 0x73, 0x65,
  0x5f, 0x31, 0x2f, 0x4d, 0x61, 0x74, 0x4d, 0x75, 0x6c, 0x00, 0x00, 0x00,
  0xec, 0xe1, 0xff, 0xff, 0xe2, 0xe2, 0xff, 0xff, 0x04, 0x00, 0x00, 0x00,
  0x00, 0x1c, 0x00, 0x00, 0x90, 0xde, 0x01, 0x3f, 0xe8, 0xa7, 0x0e, 0xbe,
  0xf3, 0x28, 0x64, 0x3e, 0x50, 0x07, 0x31, 0xbd, 0x36, 0x46, 0x14, 0xbf,
  0x59, 0x1b, 0xb5, 0x3e, 0x9a, 0xe0, 0x4e, 0x3e, 0xdf, 0xa5, 0x62, 0x3d,
  0x74, 0x0c, 0x80, 0x3d, 0xda, 0x77, 0xa5, 0xbd, 0xc4, 0x23, 0x56, 0xbc,
  0x97, 0x80, 0x91, 0xbe, 0x6c, 0x17, 0xce, 0xbc, 0xa5, 0x02, 0x79, 0xbc,
  0xe9, 0xf4, 0x21, 0xbc, 0xca, 0x4b, 0xec, 0xbd, 0x97, 0x55, 0xdf, 0xbd,
  0x3f, 0xaa, 0x95, 0xbc, 0xd9, 0xdb, 0x04, 0x3e, 0xa6, 0x65, 0x31, 0xbe,
  0x86, 0x96, 0xef, 0xbe, 0x3b, 0xc5, 0x1d, 0xbe, 0x5a, 0x2c, 0x34, 0x3d,
  0x3a, 0xdf, 0x04, 0x3e, 0x5f, 0x01, 0xea, 0xbc, 0x0d, 0x2d, 0x12, 0xbe,
  0x9d, 0x35, 0x66, 0xbd, 0xbb, 0x84, 0x42, 0x3b, 0x6d, 0x7b, 0x9c, 0xbe,
  0x16, 0x62, 0x69, 0x3d, 0x6c, 0xeb, 0xae, 0xbb, 0x5c, 0x61, 0x6a, 0x3d,
  0x22, 0x72, 0x46, 0xbc, 0x61, 0xfd, 0x05, 0xbe, 0x82, 0x17, 0x05, 0xbf,
  0x87, 0xe1, 0x58, 0xbd, 0x35, 0xca, 0x98, 0xbe, 0xf2, 0xb0, 0xbb, 0xbe,
  0x92, 0x20, 0x1c, 0xbd, 0x7a, 0xb8, 0x88, 0x3d, 0xc5, 0x63, 0xf7, 0xbc,
  0x54, 0x11, 0x0b, 0xbe, 0x65, 0xf3, 0xed, 0xbc, 0xf8, 0x24, 0x9b, 0x3d,
  0x58, 0x91, 0x3d, 0xbf, 0x84, 0x6b, 0xae, 0x3d, 0x2e, 0x04, 0x15, 0xbc,
  0xc5, 0x64, 0xc8, 0xbe, 0xe3, 0x8e, 0x10, 0xbe, 0xaa, 0x4f, 0x0e, 0x3e,
  0x83, 0xdc, 0x9f, 0xbe, 0xa6, 0xa5, 0x88, 0xbe, 0x98, 0xa6, 0x18, 0xbf,
  0x07, 0xf1, 0x5f, 0xbe, 0x8f, 0x54, 0x8d, 0xbe, 0x94, 0x46, 0x2d, 0xbf,
  0xdc, 0x2f, 0xdd, 0xbb, 0xdd, 0x88, 0x63, 0xbe, 0x8c, 0xad, 0x62, 0x3a,
  0xb4, 0xfc, 0x2b, 0x3d, 0x2d, 0x8c, 0x1e, 0xbf, 0x0b, 0xc2, 0xad, 0xbd,
  0x08, 0xa3, 0x79, 0xbd, 0x4f, 0x24, 0x17, 0xbe, 0x20, 0x41, 0x5f, 0x3d,
  0x0f, 0x64, 0x38, 0x3e, 0xfe, 0x40, 0xd3, 0x3d, 0xb6, 0xe2, 0xd6, 0xbd,
  0x79, 0x38, 0xbe, 0xbe, 0xa5, 0xf9, 0x5e, 0xbe, 0xb3, 0x93, 0x83, 0x3e,
  0xb2, 0x2b, 0x13, 0xbf, 0x02, 0xc7, 0xfd, 0x3c, 0x10, 0xcc, 0x6f, 0xbe,
  0x03, 0xc7, 0xb1, 0xbc, 0x61, 0xd9, 0x87, 0x3c, 0x0b, 0x29, 0x82, 0xbe,
  0xab, 0x65, 0xe1, 0xbd, 0xef, 0xa5, 0x20, 0xbd, 0x4b, 0x7b, 0xfc, 0x3d,
  0x4f, 0xa5, 0x7e, 0xbd, 0x30, 0xd7, 0x31, 0x3e, 0x67, 0x13, 0x0d, 0x3e,
  0x07, 0xcb, 0x73, 0xbb, 0x5c, 0x9e, 0x4f, 0xbe, 0x07, 0x8c, 0x98, 0x3d,
  0x93, 0x64, 0xd0, 0x3d, 0xa5, 0x41, 0x92, 0x3d, 0xe6, 0x77, 0xa0, 0x3b,
  0x59, 0x1a, 0x73, 0xbc, 0xa4, 0xcb, 0xae, 0xbc, 0x40, 0x5c, 0x86, 0x3c,
  0x85, 0x47, 0x42, 0xbd, 0xab, 0x4a, 0xb7, 0x3d, 0xf1, 0xa2, 0xa3, 0xbc,
  0x36, 0xdd, 0xc4, 0x3d, 0x89, 0xc5, 0x23, 0x3d, 0x0a, 0xc8, 0xf3, 0x3e,
  0x5e, 0x82, 0x8a, 0x3d, 0x2c, 0x7c, 0x9b, 0x3d, 0xe2, 0xc0, 0xbd, 0xbe,
  0x73, 0xc7, 0xec, 0x3d, 0x09, 0x21, 0x02, 0x3e, 0x4f, 0xa5, 0xd0, 0xbc,
  0x0e, 0x75, 0xdf, 0x3c, 0xe2, 0x2e, 0xe6, 0x3b, 0x84, 0x3a, 0x49, 0x3d,
  0xd9, 0x8c, 0xef, 0xbe, 0x94, 0xfb, 0xb7, 0x3b, 0x1d, 0xbe, 0x37, 0x3e,
  0xf2, 0xe1, 0x0f, 0xbd, 0x42, 0x73, 0xb5, 0xbb, 0x08, 0x66, 0x93, 0x3d,
  0x21, 0x9c, 0x15, 0xbe, 0x62, 0xb2, 0xec, 0xbd, 0x44, 0x2a, 0x53, 0xbe,
  0x51, 0x45, 0x13, 0xbe, 0x6c, 0x0f, 0x64, 0xbe, 0x0a, 0xcf, 0x09, 0x3e,
  0xd3, 0x79, 0xd3, 0x3c, 0xa5, 0x05, 0x08, 0x3e, 0x90, 0x35, 0x50, 0xbe,
  0x0e, 0x60, 0x18, 0xbe, 0x5f, 0xf5, 0x9d, 0xbe, 0x86, 0xd1, 0x8c, 0x3c,
  0xdb, 0x16, 0x1a, 0xbe, 0x3c, 0x59, 0xf2, 0x3d, 0xed, 0xdf, 0x29, 0x3e,
  0xe7, 0x98, 0x40, 0xbd, 0x99, 0xff, 0x7b, 0x3d, 0xeb, 0x9e, 0x83, 0x3c,
  0x05, 0xe1, 0x10, 0xbe, 0x98, 0xb9, 0x3e, 0x3e, 0x29, 0xeb, 0x00, 0xbd,
  0x06, 0xda, 0xca, 0x3c, 0xf1, 0xc2, 0x53, 0x3d, 0x36, 0x1f, 0x15, 0xbe,
  0xa2, 0x9c, 0x88, 0x3d, 0x01, 0x17, 0x80, 0xbe, 0x6a, 0x71, 0x8a, 0xbd,
  0xe5, 0xc0, 0x3e, 0xbe, 0xe8, 0x1d, 0x3e, 0x3b, 0x7a, 0x8f, 0x9b, 0xbd,
  0x87, 0x2e, 0x8b, 0x3d, 0x67, 0x26, 0x9f, 0x3d, 0xa3, 0x28, 0x02, 0xbe,
  0x53, 0x33, 0x0d, 0xbe, 0x93, 0xdc, 0xb6, 0x3d, 0x90, 0xb8, 0x06, 0x3c,
  0x26, 0x2e, 0x82, 0xbe, 0xa4, 0xae, 0xdc, 0x3d, 0x57, 0x5c, 0xbd, 0xbd,
  0xa2, 0x08, 0x82, 0xbe, 0xa8, 0x8c, 0xb5, 0xbd, 0x8b, 0x6e, 0xe1, 0xbd,
  0x94, 0x5e, 0x90, 0xbe, 0xed, 0x5d, 0x8d, 0xbd, 0x0d, 0xbb, 0xce, 0x3c,
  0x76, 0x66, 0x71, 0xbd, 0xf7, 0x8f, 0x67, 0xbe, 0x59, 0x70, 0x52, 0xbe,
  0x65, 0x43, 0xab, 0xbd, 0x32, 0xcb, 0x12, 0xbe, 0xcb, 0x77, 0xcb, 0x3c,
  0xd1, 0xf5, 0x64, 0xbe, 0x84, 0xc2, 0x46, 0x3d, 0xc3, 0x2a, 0x6e, 0xbe,
  0x34, 0x18, 0x8c, 0x3d, 0xd5, 0x36, 0xfe, 0x3d, 0xe5, 0xed, 0x22, 0xbe,
  0x74, 0x4a, 0x06, 0xbd, 0x31, 0x93, 0xee, 0xbc, 0xa7, 0x1f, 0x1b, 0xbe,
  0xb6, 0x07, 0x42, 0xbe, 0x0e, 0x0f, 0x8b, 0xbe, 0x34, 0x7d, 0xb9, 0xbd,
  0xdf, 0xe4, 0xea, 0xbd, 0xb4, 0x1d, 0xaa, 0xbd, 0xea, 0x84, 0xfb, 0x3d,
  0xa1, 0xb9, 0xf0, 0xbc, 0x9f, 0xae, 0x66, 0xbe, 0x72, 0xf5, 0x0a, 0xbd,
  0x69, 0xdd, 0xca, 0x3d, 0xc0, 0x05, 0x51, 0xbe, 0x2c, 0x00, 0x32, 0xbe,
  0xc3, 0xca, 0xe4, 0xbd, 0xbc, 0x12, 0x97, 0xbd, 0x06, 0xdf, 0xfc, 0x3d,
  0x4f, 0x29, 0x42, 0xbe, 0x69, 0x9d, 0xf0, 0xbd, 0x8b, 0x3d, 0x6a, 0xbd,
  0x5f, 0xc4, 0x26, 0xbe, 0x19, 0x8b, 0xa8, 0xbd, 0xa8, 0xe6, 0x08, 0xbe,
  0x2c, 0x91, 0x02, 0x3e, 0x7b, 0xed, 0x12, 0xbc, 0x3a, 0x90, 0x5a, 0x3d,
  0xe9, 0x3b, 0x5c, 0xbd, 0x71, 0xa4, 0x5b, 0xbe, 0x7a, 0x57, 0xc8, 0x3d,
  0x81, 0x62, 0xbf, 0xbd, 0xed, 0xcf, 0xb3, 0x3d, 0x1b, 0x65, 0xfc, 0xbd,
  0x54, 0x01, 0xef, 0xbd, 0x1a, 0xf3, 0x02, 0x3d, 0x84, 0x02, 0xab, 0x3d,
  0x01, 0xd6, 0x04, 0xbe, 0x0c, 0xd6, 0xad, 0x3d, 0xb5, 0xf7, 0x0d, 0xbe,
  0x65, 0x6d, 0x0a, 0x3c, 0xf5, 0xf0, 0x9f, 0xbd, 0x88, 0xdc, 0x20, 0x3d,
  0x32, 0xd6, 0x6b, 0x3e, 0xd9, 0xb0, 0x59, 0xbe, 0x50, 0xfe, 0xa7, 0xbd,
  0x27, 0x0a, 0x09, 0xbe, 0x76, 0x93, 0x5a, 0xbd, 0xa8, 0x5e, 0x81, 0xbe,
  0x2b, 0x6a, 0x94, 0xbe, 0xcf, 0xb5, 0x86, 0xbe, 0x1d, 0x82, 0xd2, 0xbd,
  0xf0, 0x9f, 0x40, 0x3c, 0x7a, 0xf2, 0x16, 0xbd, 0xf6, 0x1a, 0x75, 0x3d,
  0xbb, 0x9d, 0x07, 0xbe, 0x00, 0x46, 0x31, 0x3e, 0x97, 0x25, 0x3b, 0xbe,
  0x34, 0xbc, 0x9c, 0x3e, 0x35, 0x91, 0xb3, 0xbc, 0x63, 0x6e, 0x2b, 0x3e,
  0x7c, 0x5b, 0xcc, 0xbe, 0xf4, 0x9a, 0xb2, 0xbc, 0x4c, 0xe6, 0x8c, 0xbe,
  0xac, 0x80, 0xca, 0xbd, 0x4d, 0x26, 0xc4, 0xbc, 0x55, 0x81, 0xcd, 0xbc,
  0xce, 0x31, 0xfa, 0x3d, 0xee, 0x51, 0x70, 0x3d, 0xed, 0x04, 0x57, 0xbe,
  0xe9, 0x7a, 0x9b, 0xbe, 0x45, 0x98, 0x83, 0x3d, 0x6b, 0xe9, 0x7b, 0x3e,
  0x3a, 0xa5, 0x62, 0xbe, 0xbd, 0x81, 0x4c, 0x3e, 0x19, 0x7a, 0x21, 0xbf,
  0xba, 0x6e, 0xf4, 0x3d, 0x2c, 0xea, 0xd9, 0xbd, 0xfe, 0x4d, 0x5e, 0x3e,
  0x13, 0x6d, 0xaa, 0xbe, 0xdc, 0x1e, 0xf1, 0xbd, 0x4e, 0x54, 0x32, 0x3d,
  0xd0, 0x31, 0x3e, 0x3b, 0xf6, 0x3b, 0xc3, 0xbc, 0xc5, 0x28, 0x70, 0xbe,
  0x23, 0xa3, 0x05, 0xbe, 0x60, 0xcf, 0xc1, 0xbe, 0x0b, 0xf2, 0xbb, 0x3e,
  0x14, 0x24, 0x0c, 0x3c, 0xad, 0xe2, 0xd0, 0x3e, 0xab, 0x62, 0x83, 0xbc,
  0x93, 0x93, 0x2c, 0xbf, 0xa9, 0x5b, 0x15, 0xbe, 0x90, 0x07, 0x57, 0x3e,
  0xcc, 0xcf, 0x83, 0x3e, 0xa5, 0x08, 0x32, 0xbf, 0x01, 0xe2, 0xd0, 0xbd,
  0xb1, 0x34, 0x53, 0xbd, 0x54, 0x02, 0x8e, 0x3d, 0x1a, 0x06, 0x52, 0xbe,
  0xe7, 0x32, 0x10, 0xbd, 0x3a, 0xc5, 0x76, 0xbe, 0xf0, 0x8f, 0x6e, 0x3d,
  0xe7, 0x0c, 0x0b, 0x3e, 0xa0, 0x24, 0x1e, 0x3e, 0xdd, 0x6a, 0xaa, 0x3e,
  0x45, 0xd9, 0x95, 0x3e, 0xf8, 0x65, 0xef, 0xbe, 0xf8, 0xc0, 0x21, 0xbe,
  0x45, 0x41, 0x5d, 0xbe, 0x55, 0xac, 0x1c, 0x3e, 0xc2, 0x05, 0x21, 0xbf,
  0x62, 0x5b, 0x8b, 0xbe, 0x20, 0x49, 0x5a, 0xbc, 0xa3, 0x20, 0xdb, 0x3c,
  0xd0, 0x26, 0xb1, 0xbd, 0x8d, 0xdb, 0x80, 0xbe, 0x31, 0x8a, 0x21, 0xbe,
  0x72, 0xa2, 0xcd, 0x3d, 0xaa, 0xf5, 0xd6, 0x3d, 0x18, 0xaa, 0x36, 0x3e,
  0x9b, 0xcc, 0xb2, 0x3d, 0x29, 0xcb, 0xc1, 0x3e, 0x3a, 0x6d, 0x48, 0xbe,
  0x9f, 0x43, 0xe7, 0x3d, 0x26, 0x6d, 0xb0, 0x3d, 0x27, 0xa1, 0x90, 0xbc,
  0x14, 0x09, 0x0b, 0xbf, 0x3f, 0x9f, 0x20, 0xbe, 0x4e, 0xe1, 0x8b, 0xbd,
  0xf0, 0x55, 0xe2, 0x3b, 0x1c, 0x63, 0x62, 0xbc, 0x11, 0xfb, 0x3b, 0x3c,
  0x44, 0xe0, 0x6d, 0xbd, 0x9c, 0x32, 0x1e, 0xbe, 0xe9, 0x6d, 0x06, 0xbe,
  0xd8, 0x06, 0x01, 0x3e, 0x8c, 0xbe, 0xca, 0xbd, 0x70, 0x50, 0x87, 0x3e,
  0x9a, 0x6e, 0x95, 0xbe, 0xff, 0xc3, 0x00, 0xbc, 0x07, 0xe3, 0xab, 0xbe,
  0x28, 0x56, 0xf6, 0x3d, 0x8d, 0x0f, 0xc4, 0xbe, 0x70, 0x18, 0xac, 0xbb,
  0x8d, 0x87, 0xad, 0xbb, 0xc2, 0xf6, 0xcf, 0x3d, 0x7a, 0xb8, 0x98, 0x3d,
  0xdd, 0xe7, 0xa5, 0xbd, 0xfc, 0x40, 0x25, 0xbe, 0xa8, 0x28, 0xb4, 0xbd,
  0xdd, 0x4f, 0x10, 0xbe, 0xe6, 0xe8, 0x33, 0x3e, 0x5f, 0xcb, 0xaf, 0xbd,
  0x18, 0x6d, 0x10, 0x3e, 0xc1, 0x69, 0xf6, 0xbd, 0xc0, 0xfb, 0x5f, 0x3e,
  0x50, 0x2d, 0x5f, 0xbe, 0x99, 0x15, 0x6f, 0x3c, 0xbc, 0xbd, 0xc5, 0xbe,
  0xfb, 0xc5, 0x46, 0xbc, 0xbc, 0x84, 0x08, 0x3d, 0xad, 0x9c, 0x7b, 0xbd,
  0x54, 0xc4, 0x5a, 0x3d, 0x60, 0xb0, 0x04, 0xbe, 0xb6, 0x16, 0x93, 0xbe,
  0xc5, 0x02, 0x10, 0xbe, 0x3e, 0x0a, 0xb9, 0x3c, 0x3c, 0x0e, 0x9a, 0x3d,
  0xf5, 0x77, 0x04, 0x3f, 0xb2, 0x3d, 0x8d, 0xbd, 0x06, 0xab, 0xaa, 0xbe,
  0x4a, 0x78, 0x0f, 0xbd, 0xe0, 0xed, 0x92, 0x3e, 0x9d, 0x34, 0xec, 0xbc,
  0x86, 0x99, 0xd6, 0x3d, 0xdf, 0x4b, 0xcf, 0xbd, 0x7b, 0xb8, 0x97, 0xbd,
  0xf4, 0x81, 0x0f, 0xbe, 0x0d, 0x3c, 0xc8, 0xbd, 0x48, 0x77, 0xba, 0x3d,
  0xaa, 0x38, 0x34, 0xbd, 0xe0, 0x1d, 0x51, 0x3e, 0x67, 0x5a, 0x6c, 0xbe,
  0x82, 0x6a, 0x26, 0x3e, 0xfb, 0x12, 0x94, 0x3e, 0xb9, 0x65, 0x6a, 0x3c,
  0xac, 0x14, 0x13, 0xbc, 0x0f, 0xfc, 0x8a, 0x3d, 0x95, 0x19, 0xa5, 0x3e,
  0x1d, 0x56, 0x78, 0xbd, 0x97, 0x16, 0xd5, 0xbd, 0xf5, 0xba, 0x9a, 0x3c,
  0x90, 0xc7, 0x5b, 0xbe, 0xaa, 0x1c, 0x03, 0x3e, 0x54, 0xba, 0x9b, 0xbe,
  0xaf, 0x95, 0x76, 0x3e, 0xb6, 0xc7, 0x9d, 0xbd, 0xdf, 0x99, 0x5b, 0x3e,
  0x37, 0x34, 0xf8, 0x3c, 0xa6, 0xd3, 0x20, 0x3e, 0x3f, 0x25, 0x0a, 0xbd,
  0x94, 0x83, 0xc1, 0xbe, 0xff, 0xe6, 0x82, 0xbe, 0xb4, 0xd0, 0x94, 0x3d,
  0x60, 0x0a, 0xb7, 0x3e, 0x19, 0x12, 0x2a, 0xbd, 0x65, 0x74, 0xf6, 0xbc,
  0xe7, 0x76, 0x95, 0xbe, 0x9d, 0x5c, 0x1f, 0xbd, 0x65, 0x94, 0x88, 0xbc,
  0x23, 0x6d, 0x9c, 0xbe, 0xa6, 0x70, 0x9a, 0x3d, 0xe6, 0x1b, 0xb7, 0xbd,
  0xe7, 0x7e, 0x74, 0x3c, 0xa5, 0x65, 0x0a, 0xbe, 0x48, 0xef, 0x8b, 0x3d,
  0x23, 0xe6, 0x94, 0x3e, 0x04, 0x48, 0xb1, 0xbd, 0x59, 0xc1, 0xba, 0xbe,
  0x5c, 0x6d, 0x4d, 0xbe, 0x83, 0xd9, 0x68, 0x3a, 0xf0, 0x0f, 0x15, 0xbd,
  0x5d, 0x38, 0xd4, 0xbc, 0x2a, 0x0a, 0x52, 0x3d, 0xfd, 0xba, 0xf8, 0xbc,
  0xef, 0x0c, 0x07, 0xbe, 0x72, 0x4a, 0x7a, 0xbd, 0xde, 0x60, 0x9d, 0xbd,
  0x1c, 0xef, 0xcc, 0xbd, 0x05, 0x9d, 0x81, 0x3e, 0xe6, 0xd3, 0x36, 0x3d,
  0x66, 0xce, 0x78, 0x3e, 0x4e, 0x5a, 0x1c, 0xbe, 0xee, 0x06, 0xf5, 0xbd,
  0x07, 0x26, 0xc8, 0xbd, 0x40, 0x4c, 0x72, 0x3c, 0xd4, 0xc0, 0xab, 0x3e,
  0xea, 0xb3, 0x42, 0xbe, 0x18, 0x0d, 0xcd, 0x3c, 0x47, 0x58, 0x3b, 0xbd,
  0x45, 0xc1, 0xdc, 0xbb, 0xa3, 0x24, 0x18, 0xbe, 0x9b, 0x92, 0x86, 0xbe,
  0x8a, 0x1c, 0x87, 0x3d, 0x07, 0x51, 0xd7, 0xbd, 0xf7, 0xbd, 0x96, 0x3d,
  0x5c, 0x3e, 0xb0, 0xbc, 0xe7, 0x2f, 0x76, 0x3d, 0xec, 0x2e, 0xe4, 0x3e,
  0x3c, 0xbd, 0x04, 0x3e, 0x78, 0x23, 0x2f, 0xbe, 0x5f, 0x06, 0xd7, 0xbd,
  0x65, 0x74, 0xeb, 0x3d, 0x0f, 0x65, 0x13, 0xbe, 0x5e, 0x8a, 0xd0, 0x3d,
  0x47, 0xfa, 0x37, 0x3e, 0x8d, 0xa8, 0x31, 0xbd, 0x1d, 0x19, 0xa6, 0xbe,
  0xc9, 0xc1, 0x39, 0xbe, 0xec, 0xc6, 0x89, 0x3e, 0xcf, 0x31, 0xd6, 0x3c,
  0x02, 0x1c, 0xe9, 0x3e, 0x56, 0x5f, 0x15, 0xbe, 0x3c, 0x9e, 0x8a, 0xbe,
  0xd5, 0x2f, 0x03, 0xbf, 0x8d, 0x51, 0x9c, 0xbd, 0xc7, 0x71, 0x0c, 0xbf,
  0x4e, 0xdf, 0x88, 0xbe, 0x03, 0x57, 0x01, 0x3c, 0xd1, 0x30, 0x08, 0xbf,
  0xd6, 0x88, 0x23, 0xb9, 0x0a, 0x67, 0xf7, 0xbd, 0x77, 0x9c, 0xf7, 0xbd,
  0xac, 0x05, 0xb3, 0xbe, 0xe1, 0xe0, 0xef, 0xbe, 0x5d, 0x48, 0x3b, 0xbd,
  0xf3, 0xf2, 0xda, 0xbc, 0xb1, 0x79, 0x28, 0xbe, 0xf1, 0xab, 0x55, 0xbd,
  0xd0, 0xc6, 0x9c, 0xbd, 0xa8, 0x9d, 0xa9, 0x3d, 0x19, 0xa1, 0xc5, 0xbe,
  0xd5, 0xc4, 0x5b, 0xbc, 0xae, 0x17, 0xc6, 0xbe, 0x57, 0x79, 0x7c, 0x3d,
  0xb2, 0x98, 0x09, 0xbe, 0x3e, 0xf9, 0x79, 0xbd, 0xfe, 0x16, 0xf1, 0xbd,
  0x14, 0x13, 0x38, 0xbe, 0x41, 0xc3, 0xba, 0xbd, 0xbd, 0x51, 0x2a, 0xbe,
  0xbc, 0xaa, 0x2b, 0xbd, 0xeb, 0xd8, 0x8d, 0xbe, 0x00, 0x85, 0x63, 0xbd,
  0x9f, 0xbc, 0x44, 0x3c, 0x02, 0xcf, 0x47, 0xbd, 0x8a, 0xbe, 0x00, 0x3e,
  0x93, 0x07, 0xb0, 0xbb, 0x0a, 0x5c, 0x6d, 0xbd, 0xdc, 0xba, 0xe1, 0xbd,
  0x68, 0x48, 0xd5, 0x3d, 0x23, 0xea, 0xa2, 0x3d, 0xd5, 0x20, 0xbb, 0xbe,
  0x44, 0x26, 0xb7, 0xbd, 0x57, 0xb6, 0xc2, 0xbe, 0x14, 0xe0, 0x6b, 0xbe,
  0x87, 0x8d, 0x03, 0xbe, 0x1b, 0xee, 0xea, 0x3c, 0x48, 0x27, 0xa3, 0xbe,
  0x58, 0xba, 0x87, 0x3c, 0x37, 0xb4, 0xa6, 0xbd, 0x1c, 0x03, 0x7e, 0xbd,
  0xfc, 0x1c, 0x83, 0xbc, 0xb8, 0x9d, 0xb3, 0x3d, 0x61, 0x84, 0x7d, 0x3d,
  0xb7, 0x7b, 0xf7, 0xbd, 0x7d, 0x22, 0xb3, 0xbd, 0xe1, 0x18, 0x26, 0xbe,
  0x1c, 0xfc, 0xcc, 0xbe, 0x61, 0x18, 0x84, 0xbe, 0xe6, 0x8c, 0x6a, 0xbd,
  0xa1, 0xc9, 0xc6, 0xbd, 0x03, 0x36, 0xaf, 0xbe, 0xae, 0x8f, 0xa1, 0x3c,
  0x14, 0x76, 0xb4, 0xbe, 0xac, 0xc1, 0xbe, 0xbd, 0xec, 0x3a, 0x75, 0xbe,
  0x49, 0xb8, 0x8f, 0xbc, 0x37, 0x39, 0x73, 0xbe, 0xe1, 0x2f, 0x90, 0x3e,
  0x0f, 0xb4, 0x64, 0x3e, 0xbc, 0x9c, 0x7d, 0x3d, 0x78, 0xbb, 0x9b, 0xbd,
  0x37, 0x09, 0x9c, 0xbe, 0xed, 0x93, 0xc3, 0xbd, 0x01, 0xb1, 0x40, 0xbe,
  0x28, 0xbd, 0xb8, 0xbd, 0xa1, 0x0d, 0xd0, 0xbb, 0x35, 0xe3, 0x41, 0x3e,
  0x62, 0x62, 0x15, 0x3c, 0x96, 0xd4, 0xba, 0xbd, 0x67, 0x7c, 0x77, 0xbd,
  0xd5, 0xd2, 0x2f, 0x3d, 0xf8, 0x8a, 0x6f, 0xbd, 0x88, 0xdd, 0xab, 0x3d,
  0x75, 0x3e, 0xdf, 0xbd, 0xad, 0xed, 0xaf, 0x3b, 0x8f, 0x73, 0x2d, 0x3d,
  0x1f, 0x20, 0xf5, 0xbd, 0x65, 0xdd, 0x4a, 0x3e, 0x11, 0x44, 0x70, 0xbe,
  0x63, 0x16, 0x34, 0xbe, 0x5e, 0x97, 0x9c, 0xbd, 0xcb, 0xda, 0x60, 0xbe,
  0x0a, 0x80, 0xd7, 0xbd, 0xc6, 0xb1, 0xc4, 0xbe, 0xcf, 0x23, 0x19, 0x3e,
  0xb5, 0x03, 0x30, 0xbe, 0xd4, 0x91, 0x93, 0xbd, 0x0d, 0x51, 0x98, 0xbd,
  0x33, 0xf9, 0x0c, 0xbe, 0x0d, 0x94, 0xad, 0xbe, 0xb8, 0x23, 0x8d, 0xbe,
  0x4c, 0x15, 0x05, 0xbe, 0xa7, 0xac, 0x80, 0xbe, 0x53, 0xd4, 0xcf, 0x3e,
  0xf6, 0xda, 0x27, 0xbc, 0xd7, 0x95, 0x7d, 0xbe, 0x14, 0xbc, 0xc7, 0x3c,
  0x9b, 0xc7, 0xe4, 0x3d, 0xf7, 0x09, 0xad, 0xbe, 0x79, 0xf3, 0x4f, 0xbd,
  0x81, 0x0e, 0x20, 0xbd, 0xee, 0x68, 0x01, 0x3e, 0xbf, 0x3a, 0x0a, 0xbe,
  0x47, 0x41, 0x65, 0xbe, 0x27, 0xa4, 0x13, 0xbc, 0x80, 0x7c, 0x9d, 0x3b,
  0x1b, 0x92, 0x97, 0xbe, 0x4a, 0xf0, 0x49, 0xbe, 0x8e, 0x74, 0x26, 0xbe,
  0xde, 0xfa, 0x41, 0xbe, 0x84, 0x58, 0x0e, 0xbe, 0x27, 0x10, 0xeb, 0xbd,
  0xa0, 0x62, 0x4d, 0xbe, 0x31, 0x4f, 0x27, 0xbe, 0x55, 0xc5, 0xae, 0xbe,
  0x09, 0xcd, 0x5a, 0xbe, 0xb2, 0x81, 0x46, 0xbe, 0xb3, 0x67, 0xe1, 0xbd,
  0xb4, 0xc6, 0x56, 0xbd, 0x00, 0x49, 0xbe, 0x3c, 0xd4, 0x0c, 0xa2, 0xbd,
  0x3b, 0xf5, 0x5f, 0x3e, 0xb2, 0xd5, 0x98, 0x3e, 0xa1, 0xc0, 0x79, 0xbd,
  0x9c, 0x8f, 0xc1, 0xbd, 0xa0, 0x15, 0x93, 0x3e, 0xef, 0x29, 0x1d, 0xbe,
  0xe0, 0x57, 0x6d, 0x3d, 0x5b, 0x57, 0x0b, 0x3e, 0x0b, 0x2e, 0x5a, 0xb8,
  0x30, 0x5d, 0x6a, 0x3e, 0x1e, 0xf5, 0xe6, 0xb8, 0x34, 0xc6, 0x76, 0xbe,
  0xf3, 0x64, 0x28, 0x3d, 0x8e, 0xc6, 0x05, 0xbe, 0x6e, 0x8c, 0x2e, 0x3e,
  0x6a, 0xdb, 0xab, 0x3e, 0x5f, 0x3e, 0x7b, 0x3e, 0x41, 0x57, 0x28, 0x3d,
  0x60, 0x9a, 0x99, 0x3c, 0x06, 0x2b, 0x4c, 0xbd, 0xd6, 0x73, 0x56, 0x3e,
  0x07, 0x13, 0x71, 0xbe, 0xe5, 0x92, 0xee, 0xbd, 0x0b, 0xfb, 0x14, 0xbe,
  0x4d, 0x9d, 0x9f, 0xbe, 0x9f, 0x22, 0x80, 0x3d, 0xd4, 0x2f, 0x65, 0x3b,
  0x5d, 0xbc, 0x21, 0xbe, 0xdc, 0x13, 0x39, 0x3e, 0x3a, 0x5d, 0xb2, 0x3d,
  0x5e, 0x0b, 0xac, 0x3d, 0xf2, 0x38, 0x87, 0x3e, 0xce, 0x6a, 0xab, 0x3e,
  0x8f, 0xc7, 0x58, 0x3e, 0x5b, 0x7c, 0xc9, 0xbd, 0xa3, 0xd5, 0xef, 0x3d,
  0xbe, 0xea, 0x08, 0xbe, 0x21, 0x2c, 0x72, 0xbe, 0x34, 0x5b, 0x44, 0xbe,
  0x3c, 0xb6, 0x3d, 0xbd, 0xa6, 0x5e, 0x7f, 0xbd, 0x5c, 0x70, 0x05, 0x3e,
  0x38, 0xf2, 0xa4, 0xbd, 0x7c, 0xd8, 0xf5, 0xbe, 0x15, 0x60, 0x41, 0x3e,
  0xd6, 0x15, 0xef, 0x3c, 0x3d, 0xbe, 0xe8, 0xbd, 0x3b, 0x8f, 0x80, 0x3d,
  0x26, 0xc1, 0xe6, 0x3d, 0x53, 0x2f, 0x56, 0xbd, 0xc2, 0x4a, 0xcd, 0x3d,
  0x21, 0x59, 0xeb, 0xbc, 0xde, 0x51, 0xef, 0x3e, 0xd4, 0xed, 0x81, 0xbe,
  0x00, 0x97, 0x25, 0x3c, 0x03, 0x52, 0xdd, 0xbd, 0x8e, 0xe6, 0x8f, 0xbe,
  0x02, 0x5a, 0x14, 0x3e, 0x3c, 0x6e, 0x10, 0xbe, 0x70, 0x42, 0xc4, 0xbe,
  0x4f, 0x6a, 0xd4, 0x3d, 0x0d, 0x02, 0x98, 0xbe, 0x66, 0xa2, 0x9d, 0x3b,
  0x0d, 0x94, 0xae, 0x3c, 0xc2, 0x88, 0x31, 0xbd, 0xca, 0x91, 0x01, 0xbe,
  0xb9, 0x77, 0xf2, 0xbc, 0xd7, 0x60, 0x37, 0x3e, 0x14, 0x4d, 0x81, 0x3e,
  0x4f, 0xdd, 0xc4, 0xbe, 0x7b, 0x0f, 0xf3, 0xbd, 0x72, 0xcf, 0x8b, 0xbe,
  0x80, 0x41, 0xb8, 0xbd, 0x46, 0xfc, 0x34, 0xbd, 0x3b, 0x09, 0x93, 0x3e,
  0x0d, 0xd5, 0xc7, 0xbe, 0x9d, 0xfe, 0xc4, 0xbd, 0xe5, 0x0d, 0x34, 0x3e,
  0x2e, 0xd4, 0x8c, 0xbe, 0x5e, 0x1a, 0xf3, 0xbd, 0xf5, 0x0f, 0x22, 0x3e,
  0xb4, 0x89, 0x26, 0x3e, 0x34, 0xb5, 0x6a, 0xbe, 0xbf, 0x11, 0xfc, 0xbc,
  0x50, 0xe6, 0x4a, 0xbe, 0xb9, 0x57, 0xf5, 0xbd, 0x4a, 0xc3, 0x32, 0xbc,
  0x02, 0xc4, 0x12, 0xbe, 0xfe, 0xea, 0x75, 0xbd, 0x91, 0x6e, 0x30, 0xbe,
  0x51, 0xce, 0x7b, 0xbd, 0x0a, 0xfc, 0xc7, 0xbe, 0x3c, 0x04, 0x54, 0xbe,
  0xf2, 0x61, 0x3e, 0xbe, 0x45, 0x90, 0x2f, 0x3e, 0x45, 0x09, 0x88, 0x3e,
  0x4e, 0xca, 0x99, 0xbc, 0x00, 0xd6, 0xa6, 0x3e, 0xcf, 0xe8, 0x07, 0x3d,
  0x60, 0xfd, 0x39, 0xbe, 0x56, 0x9c, 0x4b, 0xbe, 0x28, 0x72, 0x9b, 0xbd,
  0x05, 0xd7, 0x67, 0xbd, 0x1d, 0x09, 0x6d, 0xbe, 0x42, 0x7b, 0x01, 0x3e,
  0x84, 0x7c, 0xb0, 0x3e, 0xb1, 0x2b, 0x09, 0xbe, 0xa4, 0x71, 0xe4, 0xbd,
  0x1d, 0x5e, 0x01, 0xbe, 0xe4, 0x1d, 0x05, 0xbd, 0x66, 0x23, 0x85, 0x3b,
  0x87, 0x83, 0x0f, 0x3e, 0xbd, 0xaa, 0x38, 0xbd, 0xe0, 0xcc, 0x96, 0xbd,
  0xc7, 0x56, 0x81, 0xbd, 0x2e, 0x22, 0x90, 0x3e, 0x4c, 0x94, 0xbb, 0xbc,
  0x5a, 0xdd, 0x33, 0x3d, 0x34, 0xf7, 0x70, 0xbe, 0x55, 0x4b, 0x85, 0xbd,
  0x77, 0x34, 0x6f, 0xbe, 0x1b, 0x1b, 0x47, 0xbe, 0x36, 0xd8, 0xbe, 0x3d,
  0x1c, 0x27, 0x6d, 0x3d, 0x1b, 0x24, 0x6e, 0x3e, 0xe3, 0x88, 0x06, 0x3d,
  0xa3, 0x1c, 0x8e, 0x3d, 0x4b, 0x8a, 0x63, 0x3e, 0x80, 0x3c, 0x28, 0xbe,
  0x7a, 0xac, 0x1f, 0xbe, 0x18, 0x71, 0x61, 0x3c, 0x79, 0xba, 0x7f, 0x3e,
  0xac, 0x7d, 0xaf, 0xbd, 0x7a, 0xdf, 0xae, 0xbd, 0xe2, 0x00, 0xb4, 0xbd,
  0x73, 0x41, 0xb0, 0x3b, 0x81, 0xb7, 0xab, 0x3d, 0xad, 0x91, 0xe9, 0xbd,
  0x2f, 0xa8, 0x8a, 0x3e, 0xc6, 0xee, 0x11, 0x3c, 0x8a, 0xa8, 0x53, 0x3e,
  0x81, 0xc4, 0xf1, 0xbc, 0x0f, 0x5d, 0x74, 0xbe, 0x15, 0x9e, 0xa0, 0x3e,
  0x06, 0xc0, 0x6f, 0xbe, 0x18, 0x2c, 0x05, 0x3e, 0x7b, 0x9e, 0xda, 0x3d,
  0x1e, 0x3d, 0x28, 0x3e, 0x8d, 0xf8, 0x6e, 0xbe, 0x03, 0xe3, 0xad, 0x3d,
  0x5e, 0x43, 0x09, 0x3e, 0xea, 0xa9, 0xc4, 0xbc, 0x76, 0xd7, 0x28, 0xbe,
  0x72, 0x29, 0x30, 0xbe, 0x81, 0x1c, 0x77, 0x3e, 0xa8, 0xcc, 0x7f, 0xbc,
  0x21, 0x20, 0x3a, 0x3e, 0x73, 0xc8, 0x33, 0xbd, 0x32, 0x8b, 0x7b, 0xbe,
  0x0a, 0x30, 0xca, 0xbe, 0x2e, 0x0c, 0x51, 0xbe, 0x33, 0x00, 0x87, 0xbe,
  0x35, 0x1a, 0x5d, 0xbe, 0x5a, 0x82, 0x4d, 0xbe, 0x55, 0xfd, 0x91, 0xbd,
  0x1b, 0x2c, 0xa2, 0xbd, 0xd6, 0x4c, 0xcb, 0xbb, 0xaf, 0x24, 0x84, 0xbd,
  0xc7, 0x3d, 0x93, 0xbe, 0x59, 0xc6, 0x02, 0xbf, 0xe5, 0xf0, 0xbf, 0x3d,
  0x1f, 0x97, 0xb1, 0xbd, 0x56, 0x6e, 0x88, 0xbe, 0xa7, 0x43, 0x60, 0xbe,
  0xdc, 0x77, 0xd5, 0xbd, 0x95, 0x69, 0x67, 0xbe, 0xbe, 0x3e, 0x83, 0xbd,
  0x8f, 0x43, 0xf6, 0xbc, 0x00, 0x97, 0x15, 0xbe, 0xe2, 0x5a, 0x8e, 0x3c,
  0xdb, 0x22, 0x24, 0xbe, 0xd3, 0xe1, 0x08, 0x3e, 0x8b, 0x1e, 0xbc, 0x3c,
  0x53, 0x5c, 0x0b, 0x3d, 0x6e, 0xfc, 0x9d, 0xbe, 0xac, 0x79, 0x67, 0xbe,
  0xd5, 0x5a, 0x02, 0x3e, 0x93, 0xa3, 0x9a, 0x3c, 0x2b, 0xba, 0x8d, 0x3d,
  0xd6, 0xd7, 0x29, 0xbe, 0xd9, 0x48, 0x0d, 0xbe, 0xe1, 0x73, 0xa5, 0xbe,
  0x38, 0xa5, 0x1a, 0xbd, 0xf2, 0x18, 0x20, 0xbe, 0x14, 0x94, 0x42, 0xbe,
  0x41, 0x5f, 0x08, 0xbe, 0xd2, 0xf8, 0x07, 0xbe, 0xad, 0xdd, 0x84, 0xbc,
  0xad, 0xc2, 0x25, 0xbd, 0x86, 0x8e, 0xb0, 0x3d, 0x1f, 0x69, 0x8d, 0xbe,
  0x92, 0x4e, 0xaf, 0xbe, 0x62, 0x31, 0x1e, 0xbe, 0xb9, 0x32, 0x7f, 0xbc,
  0x99, 0x98, 0x2f, 0xbe, 0x1e, 0xc0, 0xcc, 0xbd, 0x0b, 0xb3, 0xa2, 0x3b,
  0xab, 0x7e, 0x79, 0xbd, 0x5a, 0x4b, 0x54, 0xbe, 0x66, 0x99, 0x73, 0x3c,
  0xf4, 0xc0, 0xe2, 0xbd, 0x9d, 0xb4, 0xaa, 0xbd, 0x5f, 0xd2, 0xbd, 0xbe,
  0xee, 0x98, 0x4d, 0xbc, 0x3e, 0x42, 0x21, 0xbe, 0x4b, 0x93, 0xa2, 0xbd,
  0xcc, 0x79, 0x56, 0xbe, 0x6a, 0xd7, 0xb9, 0xbe, 0xb0, 0xef, 0x69, 0xbe,
  0x7d, 0xf3, 0x78, 0xbd, 0xfe, 0x10, 0x9d, 0x3b, 0x7b, 0xa1, 0xb0, 0xbc,
  0x0d, 0xa4, 0x89, 0xbd, 0xaf, 0x18, 0x95, 0x3e, 0x3d, 0x8d, 0x91, 0xbe,
  0xfe, 0x7c, 0x56, 0xbf, 0xd3, 0xc6, 0x1e, 0x3e, 0xd6, 0xc5, 0xe2, 0x3d,
  0x61, 0x72, 0x4b, 0xbe, 0x58, 0xdb, 0x42, 0x3e, 0xf7, 0xf6, 0x49, 0xbe,
  0xe3, 0xf5, 0x39, 0xbd, 0xc3, 0xb4, 0x09, 0xbf, 0x3a, 0xd3, 0x64, 0xbe,
  0x8c, 0xb1, 0x65, 0xbe, 0x73, 0xcc, 0x91, 0x3d, 0x2e, 0xe5, 0x45, 0x3e,
  0x37, 0x3e, 0x9e, 0xbd, 0xfb, 0xd8, 0x46, 0x3c, 0xba, 0x4c, 0xae, 0x3e,
  0x98, 0x4d, 0xa2, 0xbe, 0xb6, 0xe2, 0xf0, 0xbe, 0xd2, 0xd8, 0x79, 0xbd,
  0x31, 0xea, 0xc4, 0x3d, 0xfc, 0x15, 0xcb, 0xbd, 0x5a, 0x3f, 0x76, 0xbd,
  0x17, 0x0e, 0x44, 0xbe, 0x42, 0xde, 0xf3, 0xbc, 0x93, 0x0a, 0x20, 0xbf,
  0xb4, 0xe7, 0xa9, 0xbe, 0x5a, 0xfc, 0x3b, 0x3e, 0x4a, 0x64, 0x29, 0xbd,
  0x38, 0xf6, 0xa3, 0x3e, 0x2d, 0x27, 0xe9, 0x3d, 0x5e, 0xa9, 0xe5, 0x3d,
  0x02, 0x8e, 0xe3, 0xbe, 0xe0, 0xd1, 0x94, 0xbb, 0x21, 0x13, 0xe4, 0xbe,
  0x73, 0x12, 0xc5, 0xbe, 0x99, 0x3f, 0x20, 0x3e, 0xc6, 0x78, 0x60, 0x3d,
  0x3d, 0xeb, 0xa9, 0xbd, 0x43, 0x53, 0x5b, 0xbe, 0x81, 0x7c, 0x11, 0xbd,
  0x2f, 0x0e, 0x33, 0xbf, 0x23, 0xe1, 0x06, 0xbf, 0xfc, 0x75, 0xdc, 0x3d,
  0xa3, 0x74, 0x0f, 0xbc, 0xb3, 0x2d, 0xbf, 0xbe, 0xd8, 0x3a, 0x12, 0xbe,
  0x18, 0x43, 0xc7, 0x3d, 0x7f, 0x1c, 0x8d, 0xbe, 0x7f, 0xc7, 0x9c, 0xbe,
  0x8a, 0x88, 0x67, 0xbf, 0x14, 0x17, 0x9a, 0xbe, 0xb3, 0x3e, 0xb7, 0x3d,
  0x00, 0xd2, 0x8e, 0xbe, 0x17, 0xae, 0xf3, 0xbc, 0x15, 0xc6, 0xd5, 0xbd,
  0x2c, 0x5f, 0xb2, 0xbb, 0x19, 0x4a, 0x4d, 0xbf, 0x9b, 0x47, 0x8b, 0xbf,
  0x8d, 0x3f, 0xec, 0xbe, 0x3a, 0x1f, 0xf4, 0xbc, 0x7f, 0xfa, 0xbe, 0x3c,
  0xe9, 0x64, 0x55, 0xbe, 0x2d, 0x72, 0xdb, 0x3c, 0xd3, 0xf1, 0x92, 0x3e,
  0xc2, 0x4b, 0x0b, 0xbe, 0xc2, 0x70, 0xa5, 0xbe, 0x74, 0x27, 0xfc, 0xbc,
  0x71, 0x17, 0xef, 0x3e, 0x2e, 0xcf, 0x76, 0xbe, 0x0b, 0xa9, 0x42, 0xbd,
  0x2f, 0xdb, 0x77, 0xbd, 0x20, 0xc1, 0xc0, 0xbc, 0x34, 0x4c, 0x52, 0xbf,
  0xd5, 0x18, 0x8a, 0xbe, 0xc5, 0x2a, 0xee, 0xbd, 0x13, 0x87, 0x8f, 0xbc,
  0x53, 0x6d, 0xc6, 0x3e, 0x90, 0x73, 0x4a, 0xbe, 0xaa, 0xda, 0x0d, 0x3e,
  0xac, 0x4f, 0xfb, 0x3e, 0x41, 0xa9, 0xb1, 0xbd, 0xa2, 0x1f, 0xd7, 0xbd,
  0xf6, 0x1a, 0xa7, 0xbd, 0xff, 0x47, 0xbe, 0x3e, 0x64, 0xe9, 0x75, 0x3e,
  0x7c, 0x71, 0xa0, 0xbb, 0xb1, 0xa9, 0xdd, 0xbd, 0x03, 0x0b, 0xe6, 0xbc,
  0xe7, 0x53, 0x48, 0xbf, 0x2a, 0xc1, 0xc0, 0xbe, 0xbc, 0xd2, 0x64, 0x3c,
  0x6c, 0x0b, 0x1d, 0xbd, 0x19, 0x3c, 0x18, 0x3e, 0x4f, 0x24, 0x6f, 0xbe,
  0x79, 0x7d, 0x96, 0x3e, 0x45, 0x06, 0x90, 0x3d, 0x19, 0x47, 0xc6, 0xbe,
  0x13, 0x6c, 0xac, 0xbe, 0xad, 0xfc, 0x58, 0x3e, 0x1f, 0x69, 0xf6, 0x3d,
  0x2e, 0x61, 0xf5, 0xbc, 0xef, 0x9c, 0x1b, 0x3d, 0xcd, 0xf6, 0x5a, 0xbe,
  0x86, 0x30, 0x8d, 0xbc, 0xbd, 0x22, 0x41, 0xbf, 0x64, 0xc1, 0xd8, 0xbe,
  0xc5, 0xec, 0xe5, 0x3e, 0xd8, 0x40, 0xcf, 0x3c, 0x8f, 0xef, 0xba, 0xbc,
  0xf6, 0x84, 0xa5, 0xbc, 0x0f, 0xd3, 0x43, 0xbd, 0x17, 0x86, 0xa3, 0xbd,
  0xd8, 0x1d, 0xfe, 0xbc, 0xf6, 0xe7, 0x7e, 0xbd, 0xdb, 0x08, 0x81, 0xbe,
  0x13, 0xd7, 0x0c, 0xbd, 0x42, 0x28, 0xb2, 0xbc, 0x4b, 0x5a, 0xd2, 0xbd,
  0x9b, 0x0f, 0x51, 0xbe, 0x3a, 0xc9, 0xe1, 0xbe, 0x7e, 0xec, 0x1a, 0xbe,
  0xb4, 0x04, 0x91, 0xbe, 0xf7, 0xf6, 0x07, 0x3e, 0x60, 0x22, 0x07, 0xbe,
  0x60, 0xd5, 0xe4, 0xbc, 0xec, 0x4a, 0x69, 0xbe, 0x92, 0x2e, 0xbe, 0xbc,
  0xf2, 0x29, 0x65, 0x3d, 0x3d, 0x42, 0x4e, 0x3d, 0xa1, 0x40, 0x62, 0x3e,
  0xc3, 0x09, 0xa4, 0xbe, 0x62, 0x23, 0x30, 0xbe, 0xf4, 0x61, 0x9b, 0x3c,
  0x5a, 0x03, 0x10, 0x3e, 0x97, 0x9d, 0x65, 0xbd, 0xa0, 0xb2, 0x9b, 0xbe,
  0x13, 0xe1, 0x0e, 0xbe, 0x1a, 0x7e, 0xae, 0xbd, 0x04, 0xba, 0x78, 0xbd,
  0x8c, 0xea, 0x30, 0xbe, 0x3c, 0x41, 0xe9, 0x3d, 0xb0, 0x8d, 0xf6, 0x3c,
  0x67, 0x2d, 0xc3, 0x3d, 0x4e, 0x86, 0x2e, 0x3d, 0x80, 0xc1, 0x13, 0xbe,
  0x9c, 0x61, 0xf3, 0xbc, 0x3c, 0xd6, 0x1a, 0xbe, 0x12, 0xb6, 0xd7, 0x3c,
  0x62, 0xaf, 0x2d, 0xbe, 0x6a, 0xa9, 0x47, 0xbe, 0x17, 0xb5, 0x73, 0x3d,
  0x65, 0x10, 0x54, 0xbe, 0x35, 0x86, 0x85, 0x3e, 0xb9, 0xa3, 0x86, 0xbe,
  0xa8, 0xe0, 0x39, 0xbe, 0x8d, 0x96, 0x4a, 0xbd, 0x74, 0x75, 0xbc, 0x3d,
  0xd9, 0xfe, 0x60, 0xbe, 0x66, 0x1d, 0xfb, 0xbd, 0x03, 0x34, 0x7e, 0xbc,
  0xd7, 0xf2, 0x9c, 0x3d, 0xf1, 0xf7, 0x4a, 0xbe, 0x27, 0xb6, 0x4e, 0xbe,
  0xb6, 0xfa, 0x5a, 0xbe, 0x1b, 0xa2, 0x4b, 0x3d, 0x19, 0xef, 0xa6, 0xbe,
  0xfe, 0xe8, 0x23, 0xbd, 0x8a, 0x9c, 0xbc, 0xbc, 0x8b, 0x23, 0xc4, 0x3d,
  0xc2, 0xe4, 0xff, 0xbd, 0xca, 0xee, 0x04, 0x3e, 0x04, 0x72, 0x4a, 0xbe,
  0xed, 0xb3, 0x77, 0x3d, 0x0e, 0x6b, 0x63, 0xbe, 0xae, 0x3e, 0xeb, 0x3c,
  0x66, 0x28, 0x71, 0x3e, 0x76, 0x5b, 0x0d, 0x3d, 0x0a, 0x0d, 0xe0, 0x3d,
  0x55, 0xa4, 0x92, 0x3d, 0x59, 0x6c, 0x84, 0xbd, 0x57, 0x0c, 0x14, 0x3d,
  0xd7, 0xd6, 0x20, 0x3d, 0xf1, 0xdb, 0x1f, 0xbd, 0xc4, 0x6c, 0x9a, 0xbe,
  0x07, 0xf9, 0x63, 0xbc, 0x58, 0x8b, 0x06, 0xbe, 0x86, 0x50, 0x0d, 0xbe,
  0x22, 0x3a, 0x3e, 0xbe, 0xff, 0x6c, 0xad, 0xbd, 0x58, 0x16, 0x39, 0xbe,
  0x90, 0x2b, 0x06, 0xbe, 0x6d, 0x91, 0x11, 0xbd, 0x6f, 0x02, 0xee, 0xbd,
  0xac, 0x5b, 0x31, 0xbe, 0x72, 0x7a, 0xc5, 0xbd, 0x0d, 0x01, 0x9c, 0x3d,
  0x2b, 0x7e, 0x7a, 0xbe, 0x45, 0x59, 0x78, 0xbe, 0x4e, 0x19, 0xb4, 0x3d,
  0x03, 0xce, 0x6c, 0xbe, 0x06, 0x2e, 0x46, 0xbd, 0x1c, 0xdc, 0x38, 0x3c,
  0xa0, 0xd5, 0x01, 0xbe, 0x99, 0x66, 0xdf, 0x3c, 0xc9, 0x41, 0xe4, 0xbd,
  0x93, 0xc7, 0xa9, 0xbe, 0x3d, 0xd0, 0xaa, 0xbc, 0x76, 0xf7, 0x97, 0xbd,
  0xae, 0x76, 0x75, 0x3c, 0xd0, 0x50, 0x7f, 0xbd, 0x88, 0x99, 0x89, 0xbd,
  0xb8, 0xd4, 0x5a, 0xbe, 0xef, 0x63, 0xa3, 0xbe, 0xb7, 0x67, 0x86, 0xbd,
  0xd0, 0x75, 0x0a, 0xbe, 0xa3, 0x95, 0xb6, 0xbb, 0xd0, 0xcf, 0xa8, 0x3d,
  0x99, 0x1f, 0xab, 0xbd, 0x00, 0xf5, 0x8d, 0xbc, 0xc8, 0x74, 0xe2, 0x3c,
  0xbd, 0x6c, 0x2a, 0x3d, 0xb4, 0x9e, 0x02, 0x3e, 0x52, 0x70, 0x29, 0x3e,
  0xdb, 0xba, 0xdb, 0x3d, 0xba, 0x74, 0x33, 0x3e, 0x02, 0x68, 0x23, 0x3d,
  0x81, 0xb0, 0xb6, 0x3e, 0xca, 0x8a, 0x0e, 0xbe, 0x06, 0x28, 0xad, 0xbe,
  0xe9, 0x15, 0x9c, 0xbe, 0xf4, 0xdc, 0x1b, 0xbe, 0x9b, 0x00, 0xf2, 0xbd,
  0xab, 0x49, 0x8f, 0xbe, 0x68, 0x2c, 0x1a, 0x3d, 0x67, 0xd7, 0xd1, 0x3d,
  0x6b, 0x55, 0x01, 0xbf, 0x36, 0x63, 0xa9, 0xbd, 0x84, 0xa4, 0x8d, 0xbd,
  0xbf, 0xfc, 0x42, 0x3c, 0xd1, 0x39, 0x11, 0xbe, 0x26, 0x98, 0x25, 0xbd,
  0x97, 0xb8, 0x86, 0xbe, 0x51, 0x9c, 0x5c, 0xbd, 0x8c, 0x88, 0x72, 0xbe,
  0xa3, 0xc7, 0x80, 0xbc, 0x59, 0xd1, 0x12, 0xbf, 0x29, 0x8c, 0x34, 0xbe,
  0x90, 0x0b, 0xd0, 0xbc, 0xf1, 0x81, 0xe9, 0x3d, 0xbc, 0x34, 0xfd, 0xbd,
  0xf6, 0x1a, 0xb6, 0xbe, 0x93, 0x13, 0xe0, 0x3c, 0x02, 0x73, 0xb4, 0xbd,
  0x32, 0x0a, 0xbc, 0x3d, 0x36, 0x8b, 0x57, 0xbd, 0xab, 0x3a, 0xe9, 0x3e,
  0x79, 0x50, 0x80, 0xbe, 0x85, 0x8b, 0x62, 0xbe, 0xec, 0x19, 0x16, 0xbe,
  0x46, 0x05, 0x92, 0x3d, 0xf4, 0xb3, 0xad, 0x3e, 0x12, 0xec, 0x38, 0xbf,
  0x5a, 0xb7, 0x95, 0xbd, 0x0f, 0x33, 0x99, 0xbd, 0x21, 0x04, 0x90, 0x3d,
  0x9b, 0xfc, 0xa8, 0xbe, 0x51, 0x05, 0x2c, 0xbe, 0x7d, 0x22, 0xf8, 0xbe,
  0xf6, 0x04, 0xf2, 0x3e, 0xd5, 0x5e, 0xb8, 0x3d, 0x29, 0x24, 0xbd, 0xbd,
  0x88, 0xcc, 0x84, 0x3e, 0x01, 0xe0, 0x78, 0x3d, 0xf1, 0xfb, 0x8b, 0xbd,
  0x5a, 0x74, 0x46, 0xbe, 0xe1, 0x70, 0x90, 0xbd, 0x24, 0x94, 0x36, 0xbe,
  0x90, 0x3e, 0x14, 0xbf, 0x71, 0xdc, 0x8a, 0xbe, 0x93, 0xf2, 0xef, 0xbd,
  0x01, 0x42, 0x7c, 0x3a, 0xa6, 0x9b, 0x75, 0xbe, 0xbe, 0x07, 0x89, 0x3e,
  0x47, 0xee, 0xf1, 0xbe, 0xae, 0xc6, 0xf2, 0x3e, 0xfd, 0xdd, 0x02, 0xbe,
  0x09, 0x27, 0xbb, 0x3d, 0x29, 0x16, 0xb7, 0xbc, 0xf3, 0x58, 0x61, 0x3e,
  0xa0, 0x37, 0xd6, 0xbd, 0x65, 0x62, 0xf6, 0xbd, 0x96, 0xc8, 0x41, 0xbe,
  0xd3, 0xea, 0x85, 0xbe, 0x20, 0x0a, 0xfe, 0xbe, 0xc6, 0x75, 0x8a, 0xbe,
  0x57, 0xe8, 0xdd, 0xbd, 0xb7, 0xd3, 0x10, 0xbd, 0x5e, 0x30, 0xf5, 0x3d,
  0x04, 0x8e, 0xf6, 0xbd, 0x4f, 0x60, 0x84, 0xbe, 0xc2, 0x72, 0x92, 0xbe,
  0x8a, 0x3a, 0xc6, 0xbd, 0xef, 0x94, 0x22, 0x3e, 0xa8, 0x67, 0x4d, 0xbe,
  0xcf, 0xab, 0x51, 0x3e, 0xf1, 0x8c, 0x40, 0xbe, 0xec, 0xc9, 0x1b, 0x3d,
  0xea, 0xe0, 0x1b, 0xbe, 0x36, 0x55, 0x44, 0x3e, 0xf0, 0x63, 0x2d, 0xbe,
  0xbe, 0x05, 0xd3, 0xbd, 0xc4, 0x93, 0xab, 0xbd, 0xb1, 0x6e, 0x8e, 0xbd,
  0xa0, 0xf8, 0x2f, 0x3d, 0x0a, 0xdf, 0xfb, 0xbd, 0xf4, 0x78, 0xbe, 0xbd,
  0xc9, 0x2e, 0x0f, 0xbe, 0xd0, 0x5f, 0x15, 0xbd, 0xdf, 0x9b, 0x35, 0x3e,
  0xf6, 0x00, 0xe6, 0xbd, 0xbf, 0x21, 0xd6, 0x3e, 0xbe, 0xa9, 0x05, 0xbf,
  0x94, 0xb2, 0x30, 0x3e, 0x74, 0x8b, 0x38, 0xbe, 0x52, 0x29, 0x07, 0xbc,
  0xd6, 0x5d, 0xb4, 0xbd, 0x8a, 0x78, 0x58, 0xbc, 0x08, 0x62, 0xc8, 0x3d,
  0x7c, 0x9f, 0x3e, 0xbe, 0x7b, 0x10, 0xe0, 0x3d, 0xf7, 0x0e, 0xf0, 0xbc,
  0xe1, 0x95, 0x4e, 0xbe, 0x66, 0x08, 0x1c, 0xbe, 0xfc, 0xcc, 0x6a, 0xbe,
  0xc9, 0x3f, 0x7d, 0xbe, 0x22, 0x8f, 0x11, 0x3e, 0x03, 0xca, 0x17, 0xbd,
  0xf0, 0x68, 0x05, 0x3f, 0x9f, 0x9b, 0xed, 0xbe, 0x07, 0x62, 0xca, 0xbd,
  0x3e, 0xc4, 0x1c, 0xbe, 0x47, 0x3a, 0x72, 0xbd, 0x16, 0x70, 0xf4, 0xbc,
  0x74, 0x7c, 0xa5, 0xbe, 0x1a, 0xdb, 0x08, 0xbe, 0xe9, 0xdb, 0x39, 0xbd,
  0xb8, 0xa0, 0x21, 0xbe, 0xae, 0x93, 0x3b, 0xbd, 0x85, 0x99, 0x57, 0xbe,
  0x7c, 0x69, 0x16, 0x3e, 0x9e, 0x41, 0x33, 0xbd, 0x5f, 0xec, 0x27, 0xbd,
  0xaa, 0x2d, 0x28, 0xbc, 0x7d, 0x6a, 0x37, 0x3e, 0xfb, 0x5f, 0xdc, 0xbd,
  0x7f, 0x88, 0x21, 0xbd, 0xf0, 0x86, 0x4a, 0x3d, 0x83, 0x1a, 0x20, 0xbe,
  0xac, 0x82, 0x46, 0xbe, 0x7d, 0x1e, 0x98, 0xbe, 0xcf, 0x6c, 0x05, 0xbe,
  0x4f, 0x23, 0x91, 0xbd, 0xdb, 0x60, 0x7d, 0xbe, 0x94, 0x9d, 0xad, 0xbe,
  0xc4, 0x6d, 0x29, 0x3e, 0x7f, 0x2b, 0x0d, 0x3d, 0xaa, 0x00, 0xa3, 0x3a,
  0x22, 0xc0, 0xba, 0x3e, 0x72, 0xf0, 0x9a, 0x3e, 0x54, 0xad, 0x2a, 0x3e,
  0x72, 0xa2, 0x24, 0xbe, 0x7c, 0x21, 0x63, 0x3d, 0x2a, 0x07, 0xdc, 0x3c,
  0x90, 0xa5, 0x70, 0xbc, 0x33, 0xd7, 0x4f, 0xbe, 0xfa, 0xd3, 0xb9, 0xbe,
  0x0e, 0xee, 0xb3, 0xbe, 0x1d, 0xe2, 0x1a, 0xbd, 0x37, 0xf4, 0xab, 0xbd,
  0x28, 0x42, 0x0d, 0xbe, 0x1e, 0x3e, 0xcb, 0x3d, 0x9c, 0xa2, 0xba, 0x3e,
  0x02, 0x4c, 0x86, 0x3c, 0xad, 0x12, 0x6e, 0x3e, 0xa9, 0xa0, 0x42, 0x3c,
  0x90, 0x10, 0x14, 0x3f, 0xdf, 0xc8, 0xa1, 0xbe, 0x60, 0xdd, 0x61, 0x3e,
  0x25, 0x88, 0xf0, 0x3c, 0x80, 0x7a, 0x26, 0xbe, 0xbc, 0xf2, 0x47, 0xbe,
  0xc2, 0x07, 0xa1, 0xbd, 0xe8, 0x89, 0xbf, 0xbb, 0x01, 0xee, 0xd3, 0xbd,
  0xe6, 0xf2, 0xc1, 0xbc, 0xd2, 0x0b, 0x8c, 0xbe, 0x3d, 0x09, 0x24, 0xbe,
  0x8b, 0xb7, 0x95, 0x3e, 0x1b, 0xf9, 0xcc, 0xbd, 0x92, 0x60, 0x69, 0x3d,
  0x3c, 0x05, 0x90, 0x3d, 0xdc, 0xad, 0x61, 0x3e, 0x2e, 0x56, 0xc6, 0xbe,
  0x3c, 0x2a, 0x5d, 0x3e, 0x8f, 0x66, 0xff, 0x3d, 0x8a, 0xfd, 0x18, 0xbe,
  0x2b, 0x2c, 0x54, 0xbe, 0xf3, 0x54, 0xfd, 0xbd, 0x5d, 0x23, 0x8d, 0xbe,
  0xe2, 0x7b, 0x6e, 0xbd, 0xfb, 0x88, 0xad, 0xbd, 0x2c, 0x18, 0xc4, 0xbc,
  0x94, 0xc6, 0x98, 0x3d, 0x3f, 0xd6, 0xa6, 0x3e, 0xbb, 0x74, 0x0f, 0xbe,
  0x15, 0x6a, 0xa7, 0x3e, 0xcc, 0x86, 0x7b, 0x3e, 0xc2, 0x0b, 0xbd, 0x3e,
  0x21, 0x3c, 0xfa, 0xbd, 0xca, 0x13, 0xa2, 0x3c, 0x5c, 0xb3, 0x1b, 0x3e,
  0xa5, 0x98, 0x3f, 0xbe, 0x6e, 0x84, 0x12, 0xbd, 0xc3, 0x8b, 0xe1, 0xbe,
  0x4e, 0xe8, 0x2f, 0xbe, 0x47, 0x19, 0xdc, 0xbd, 0xf0, 0x07, 0xd3, 0xbd,
  0x37, 0xca, 0x3a, 0xbe, 0x86, 0x8c, 0x69, 0xbe, 0x38, 0xb5, 0x85, 0xbe,
  0x87, 0xd6, 0x42, 0xbe, 0xda, 0xeb, 0x4a, 0xbd, 0xfa, 0xcb, 0x45, 0xbd,
  0x63, 0xe0, 0x71, 0x3e, 0x09, 0xbc, 0xa8, 0xbe, 0x02, 0x6b, 0x52, 0xbc,
  0x44, 0x3d, 0x9d, 0xbe, 0xa9, 0xc6, 0x97, 0xbe, 0xe6, 0x9a, 0x38, 0xbd,
  0x1e, 0x36, 0x4d, 0xbe, 0x5b, 0x9a, 0x14, 0x3e, 0x5f, 0x86, 0x80, 0xbe,
  0xa5, 0xbb, 0xbe, 0xbe, 0xc2, 0xfe, 0x6c, 0xbe, 0xe2, 0x0c, 0x92, 0xbd,
  0xbd, 0xfe, 0xb0, 0x3d, 0x68, 0x74, 0xb6, 0xbd, 0xda, 0xb6, 0x03, 0xbf,
  0xfd, 0x96, 0xe2, 0xbd, 0xea, 0x3d, 0x08, 0xbf, 0xbb, 0x37, 0xae, 0xbe,
  0x59, 0xe7, 0x0f, 0xbf, 0x1a, 0xd6, 0xb8, 0x3d, 0x9a, 0x99, 0x15, 0xbe,
  0xec, 0x96, 0x3a, 0x3b, 0x9d, 0xc9, 0x49, 0xbc, 0x20, 0x0b, 0x97, 0xbe,
  0x48, 0x71, 0x26, 0xbf, 0x4b, 0x34, 0x73, 0xbe, 0x0a, 0x66, 0xb8, 0xbc,
  0x13, 0x3b, 0xad, 0xbe, 0xad, 0xaf, 0x80, 0xbe, 0xc5, 0x7d, 0xab, 0x3d,
  0xaf, 0xcc, 0x2e, 0xbf, 0x0f, 0x21, 0x84, 0xbe, 0xb4, 0x04, 0x1f, 0xbf,
  0x16, 0xbd, 0xb4, 0xbe, 0xbd, 0x1c, 0xe6, 0xbd, 0x34, 0x9d, 0xa2, 0xbd,
  0x04, 0xae, 0xff, 0xbb, 0xd9, 0x69, 0xea, 0x3d, 0x21, 0xb3, 0xb7, 0xbb,
  0x55, 0xe5, 0x0c, 0xbb, 0x6f, 0xdc, 0x62, 0xbf, 0x11, 0xdf, 0x59, 0xbd,
  0x58, 0xea, 0xb8, 0xbb, 0x28, 0xed, 0x0f, 0xbf, 0xbb, 0x2e, 0x83, 0x3d,
  0x06, 0xf6, 0x0a, 0x3e, 0x69, 0xde, 0x04, 0xbf, 0x86, 0x53, 0x26, 0xbe,
  0xe7, 0x77, 0x1c, 0xbf, 0xc6, 0x96, 0xdf, 0xbc, 0xe6, 0x02, 0xcb, 0xbd,
  0x69, 0x9a, 0xc2, 0xbe, 0x4b, 0xed, 0x76, 0x3d, 0xb6, 0x14, 0x5a, 0x3d,
  0xe6, 0x59, 0x13, 0xbd, 0xf8, 0xcd, 0xba, 0xbe, 0xcd, 0x98, 0x2d, 0xbf,
  0x66, 0xf1, 0x8a, 0xbe, 0xa0, 0xe9, 0xaa, 0xbd, 0x1b, 0xc0, 0x52, 0xbe,
  0xa4, 0xc5, 0x40, 0x3d, 0xfe, 0xa1, 0x03, 0x3e, 0xe6, 0xd7, 0x27, 0xbd,
  0x0f, 0x62, 0xef, 0xbb, 0x23, 0x11, 0x11, 0xbf, 0x36, 0xe8, 0x51, 0xbd,
  0x4e, 0xce, 0x8a, 0x3e, 0x58, 0x39, 0xa2, 0xbe, 0x58, 0xc0, 0x4b, 0x3c,
  0x2e, 0x74, 0x3d, 0xbd, 0x56, 0xf3, 0x8e, 0x3d, 0x03, 0x37, 0xd5, 0xbe,
  0xbe, 0x06, 0x1b, 0xbf, 0x58, 0xea, 0xdc, 0xbd, 0x64, 0xc1, 0x25, 0xbd,
  0x5b, 0x43, 0x0d, 0xbe, 0xc3, 0x86, 0x32, 0xbd, 0x14, 0x50, 0x1f, 0x3c,
  0xa4, 0x80, 0x01, 0x3f, 0x57, 0xd8, 0x71, 0xbd, 0xc8, 0xad, 0x15, 0xbe,
  0xaa, 0x30, 0x0e, 0x3e, 0xb6, 0xc0, 0x23, 0x3e, 0x53, 0xf1, 0x52, 0xbd,
  0xac, 0x0b, 0x8a, 0x3d, 0xad, 0xef, 0x2c, 0xbe, 0x5c, 0xea, 0x10, 0xbb,
  0x61, 0x79, 0xf6, 0x3c, 0xc1, 0x52, 0x60, 0xbe, 0x56, 0x12, 0x9a, 0x3d,
  0xe0, 0x19, 0xb1, 0xbd, 0xc3, 0x43, 0x8b, 0x3e, 0xb0, 0x8e, 0xc4, 0x3d,
  0x04, 0xe2, 0x7c, 0x3d, 0x9d, 0x8e, 0xb2, 0x3e, 0x12, 0x27, 0x15, 0xbd,
  0x5d, 0x73, 0x4e, 0xbe, 0xda, 0xc9, 0x00, 0x3d, 0x95, 0x09, 0xaa, 0x3e,
  0x3a, 0x3c, 0xa4, 0xbd, 0x56, 0xcc, 0xab, 0x3d, 0xe3, 0x5a, 0x21, 0xbe,
  0x38, 0xde, 0x60, 0xbe, 0xb5, 0x5c, 0xc2, 0xbe, 0x60, 0x83, 0x44, 0xbe,
  0x43, 0x7b, 0x97, 0x3e, 0x9b, 0x6d, 0x0a, 0xbe, 0x24, 0x44, 0xb3, 0x3e,
  0x98, 0x0d, 0xfc, 0xbe, 0x73, 0xcd, 0x07, 0x3e, 0x4e, 0x2d, 0xc3, 0x3e,
  0xc9, 0x81, 0xec, 0x3c, 0x01, 0xce, 0x19, 0xbf, 0x36, 0xaf, 0x6f, 0xbc,
  0x9e, 0xf3, 0x91, 0x3e, 0x4a, 0xf7, 0x87, 0xbe, 0x05, 0x89, 0xf7, 0x3d,
  0xe1, 0xef, 0x4d, 0xbe, 0x00, 0x02, 0x64, 0xbe, 0x32, 0x5d, 0x37, 0xbf,
  0xdd, 0xef, 0xde, 0xbd, 0x91, 0x3d, 0x95, 0x3e, 0x43, 0xe3, 0xe7, 0xbb,
  0x9b, 0xc2, 0x11, 0x3e, 0x2e, 0x3b, 0x87, 0x3e, 0x76, 0xc5, 0x94, 0xbe,
  0x33, 0xb0, 0x84, 0x3e, 0xdf, 0x93, 0x9b, 0x3c, 0xc1, 0x2b, 0xab, 0x3d,
  0xff, 0xe4, 0xd9, 0xbd, 0xa0, 0x56, 0x90, 0x3d, 0x1f, 0xf8, 0xdf, 0xbe,
  0x22, 0xac, 0xc2, 0xbe, 0xba, 0x74, 0xf4, 0xbb, 0xca, 0xe5, 0xa6, 0xbe,
  0x63, 0xc0, 0x21, 0x3d, 0xc8, 0x35, 0x15, 0xbe, 0x44, 0x2c, 0xfd, 0xbd,
  0x93, 0xa9, 0xdd, 0xbe, 0x92, 0xd9, 0x29, 0x3e, 0x9c, 0x82, 0x28, 0xbe,
  0x58, 0x86, 0x38, 0xbe, 0xad, 0x8e, 0x1b, 0x3e, 0xe1, 0xf2, 0x16, 0xbc,
  0x18, 0xfa, 0x86, 0xbd, 0xbe, 0x16, 0xdc, 0x3d, 0x2b, 0xcb, 0x66, 0xbb,
  0x68, 0xac, 0x04, 0x3e, 0x01, 0x1e, 0xe6, 0xbe, 0xf9, 0xab, 0x8a, 0xbe,
  0xa2, 0x35, 0xd4, 0xbe, 0x35, 0xa9, 0xd6, 0xbc, 0xd7, 0x2e, 0xfd, 0xbc,
  0xee, 0x41, 0x91, 0x3d, 0xda, 0xe1, 0xa5, 0xbe, 0xfb, 0x05, 0xcc, 0x3e,
  0xf6, 0x9d, 0x1e, 0x3d, 0xd6, 0x82, 0x31, 0xbe, 0x2b, 0xf9, 0x72, 0x3e,
  0xc7, 0x58, 0x8d, 0xbe, 0xe6, 0xda, 0x4c, 0xbe, 0x80, 0xbe, 0x07, 0x3e,
  0x44, 0xba, 0x64, 0x3e, 0x0d, 0xfc, 0x67, 0xbe, 0xd2, 0x49, 0xbb, 0xbe,
  0xdb, 0x8f, 0x90, 0xbe, 0xd2, 0x4f, 0x95, 0xbe, 0x0c, 0x64, 0xe7, 0x3c,
  0x96, 0x2e, 0xcc, 0xbc, 0x63, 0xc3, 0xbc, 0x3d, 0x82, 0xe2, 0xa5, 0xbe,
  0xae, 0xed, 0xcb, 0x3e, 0xa1, 0x48, 0x1a, 0xbc, 0xc1, 0xee, 0xb3, 0x3d,
  0x11, 0x2f, 0xab, 0x3e, 0xad, 0xa2, 0x18, 0x3d, 0x66, 0xbe, 0xa3, 0x3e,
  0x5c, 0xde, 0x87, 0xbd, 0xed, 0x5e, 0xe1, 0x3e, 0xa9, 0xae, 0xc9, 0xbd,
  0xa0, 0xf5, 0xaa, 0xbe, 0xbb, 0xab, 0x49, 0xbe, 0x85, 0x0a, 0xba, 0xbe,
  0x92, 0x59, 0x0e, 0xbd, 0xbc, 0xbf, 0x2c, 0xbe, 0x91, 0x8a, 0x85, 0x3e,
  0x86, 0xe6, 0xa1, 0xbe, 0x9f, 0x0c, 0xb1, 0x3d, 0x20, 0x2e, 0x58, 0x3e,
  0xb6, 0xce, 0xbd, 0x3d, 0x44, 0xa5, 0x85, 0xbe, 0x20, 0x00, 0xe9, 0x3d,
  0x07, 0x5e, 0x66, 0x3e, 0x2d, 0x56, 0x4b, 0x3e, 0x57, 0x42, 0xa2, 0xbd,
  0x7b, 0xfe, 0x93, 0x3d, 0x1a, 0x77, 0x80, 0xbe, 0xd3, 0xb5, 0xb1, 0xbc,
  0xb0, 0x66, 0xa7, 0xbe, 0x8c, 0x9f, 0x57, 0xbd, 0x0b, 0xb4, 0xa7, 0x3d,
  0x90, 0x87, 0x9d, 0xbe, 0x9a, 0x31, 0x03, 0xbe, 0x8d, 0x55, 0x74, 0xbd,
  0x86, 0x12, 0xec, 0x3d, 0x68, 0x22, 0x2d, 0x3e, 0x05, 0x20, 0x7e, 0xbd,
  0xe3, 0xce, 0xe0, 0x3d, 0xb8, 0xba, 0x11, 0xbd, 0x34, 0x9c, 0x19, 0x3d,
  0xa7, 0x0c, 0xbd, 0xbc, 0x4e, 0x97, 0x86, 0x3e, 0xfc, 0xaa, 0xd1, 0xbd,
  0x4d, 0xbe, 0xa1, 0xba, 0x3c, 0x36, 0x0b, 0x3d, 0xb0, 0x5a, 0xb8, 0xbd,
  0xeb, 0xcc, 0xe6, 0x3d, 0xa0, 0x3f, 0x0c, 0xbe, 0x2b, 0x76, 0x06, 0x3d,
  0x92, 0x72, 0x13, 0xbe, 0x19, 0xf2, 0xdc, 0x3d, 0xcb, 0x8e, 0x85, 0x3e,
  0xaf, 0x2d, 0xc8, 0xbc, 0x23, 0xaa, 0x6a, 0x3e, 0x2d, 0x3b, 0xac, 0xbe,
  0x53, 0xba, 0xd2, 0xbc, 0x6f, 0xa3, 0x73, 0xbd, 0xe0, 0x7b, 0x9d, 0x3d,
  0xaa, 0xf6, 0x29, 0xbe, 0xc3, 0x3f, 0xae, 0x3d, 0xd7, 0x18, 0x56, 0x3d,
  0xfd, 0x28, 0x11, 0xbe, 0x75, 0x96, 0x35, 0xbd, 0x35, 0x68, 0x1d, 0x3b,
  0xdf, 0xe3, 0x6c, 0xbd, 0x59, 0x60, 0xd0, 0xbd, 0x4c, 0x6c, 0x8b, 0x3d,
  0x16, 0xa6, 0x26, 0x3e, 0x92, 0xf5, 0xf9, 0xba, 0x4f, 0x46, 0x53, 0x3e,
  0x14, 0x2b, 0xbe, 0xbe, 0xda, 0x5f, 0xdb, 0x3d, 0x9a, 0x6f, 0x35, 0xbe,
  0x4c, 0x8d, 0x21, 0x3e, 0x69, 0x8c, 0x39, 0xbe, 0xcf, 0xf9, 0xb2, 0x3d,
  0x94, 0x06, 0xaf, 0xbd, 0x36, 0x6b, 0xb9, 0xbe, 0xb9, 0x5a, 0xb5, 0x3d,
  0x63, 0x3a, 0x5e, 0xbe, 0x83, 0x5a, 0x47, 0xbe, 0x8b, 0xfc, 0xc9, 0xbd,
  0x10, 0x5d, 0xb1, 0x3d, 0xa5, 0xb0, 0x30, 0x3e, 0x6c, 0x57, 0x48, 0xbe,
  0x58, 0xc6, 0x2e, 0x3e, 0x0e, 0xe5, 0xce, 0xbe, 0xac, 0x82, 0x02, 0x3d,
  0x8e, 0x80, 0x9f, 0xbd, 0xa2, 0x34, 0x66, 0x3e, 0xf2, 0xbb, 0x96, 0xba,
  0x7c, 0x20, 0x12, 0xbe, 0xb4, 0x6c, 0x4b, 0x3e, 0x27, 0xfd, 0xa6, 0xbd,
  0xb9, 0x40, 0x6e, 0x3c, 0x7d, 0xbd, 0x54, 0xbe, 0xd7, 0x53, 0x34, 0x3d,
  0x5d, 0xb6, 0xa7, 0x3b, 0x95, 0xba, 0xce, 0xbd, 0x94, 0xb4, 0x69, 0xbe,
  0x24, 0x7e, 0xaf, 0x3e, 0x3a, 0x6c, 0x51, 0xbe, 0x55, 0x41, 0xa8, 0xbe,
  0x7d, 0x6c, 0xae, 0xbe, 0x11, 0xfe, 0x94, 0x3d, 0x6b, 0x27, 0x81, 0x3e,
  0x75, 0x78, 0xaf, 0xbe, 0x68, 0x5c, 0x68, 0xbe, 0x3c, 0x42, 0x16, 0xbc,
  0xa1, 0x53, 0x6d, 0x3d, 0xb2, 0x1e, 0xa3, 0xbe, 0xcf, 0x94, 0xdf, 0xbd,
  0x02, 0x97, 0x4a, 0xbe, 0x8b, 0x03, 0x59, 0x3d, 0xc0, 0x78, 0x58, 0xbc,
  0xf6, 0x05, 0xa6, 0xbd, 0xc2, 0x85, 0x3f, 0x3b, 0xb9, 0x2b, 0x80, 0xbe,
  0xfa, 0xa1, 0xbd, 0xbe, 0x86, 0x3d, 0x55, 0xbe, 0xff, 0x48, 0xc2, 0xbd,
  0x10, 0xd4, 0x0b, 0xbe, 0x2e, 0x10, 0x17, 0xbf, 0x2e, 0xb4, 0x9c, 0xbe,
  0x71, 0x37, 0x12, 0xbe, 0x57, 0x6b, 0x9f, 0xbe, 0x03, 0x17, 0xa8, 0xbd,
  0x75, 0x32, 0x2d, 0x3c, 0x60, 0x69, 0xc0, 0xbd, 0x6c, 0x88, 0x42, 0x3d,
  0x2f, 0x28, 0x4d, 0xbd, 0xab, 0x66, 0xac, 0x3d, 0xc0, 0xa6, 0x2f, 0x3e,
  0x79, 0xf3, 0xdb, 0xbc, 0x4d, 0x92, 0x95, 0xbe, 0x31, 0x7b, 0x03, 0xbe,
  0xe2, 0xda, 0xb7, 0x3d, 0xd7, 0x4d, 0xf4, 0xbd, 0x45, 0x82, 0xdc, 0xbe,
  0x80, 0xdc, 0x95, 0xbd, 0xcb, 0x2a, 0x62, 0xbd, 0x1c, 0x45, 0xf4, 0x3d,
  0xb8, 0x74, 0xb3, 0xbd, 0xe3, 0xa7, 0x6c, 0xbe, 0x55, 0x0a, 0x10, 0xbe,
  0x73, 0x96, 0x16, 0x3e, 0x1d, 0x21, 0xfd, 0xbc, 0xc8, 0xc9, 0x7e, 0x3c,
  0xb7, 0xf9, 0xe6, 0x3d, 0xe7, 0x3a, 0x44, 0xbe, 0x82, 0x90, 0xac, 0xbe,
  0x8e, 0x16, 0x85, 0xbd, 0x1a, 0xb3, 0x16, 0xbe, 0x1a, 0x97, 0xaa, 0xbe,
  0x4a, 0xb4, 0x23, 0xbf, 0x12, 0xe8, 0xcf, 0xbe, 0x7a, 0xca, 0xb3, 0xbd,
  0x29, 0xe8, 0xe1, 0x3c, 0x0a, 0x1d, 0x78, 0xbe, 0xfa, 0xe0, 0xb1, 0xbd,
  0x65, 0x18, 0x63, 0xbe, 0xda, 0x10, 0x1a, 0xbe, 0xb6, 0xab, 0x41, 0xbd,
  0x2b, 0xab, 0x35, 0x3e, 0x2c, 0xa0, 0xd5, 0x3d, 0x4b, 0x92, 0x02, 0xbf,
  0x24, 0xbe, 0x88, 0xbc, 0xc3, 0x07, 0xf5, 0xbd, 0xc8, 0x6d, 0xbd, 0x3d,
  0x95, 0x8f, 0x02, 0xbe, 0xfd, 0x6c, 0x5d, 0xbe, 0x56, 0x66, 0x1d, 0xbe,
  0x36, 0x93, 0x43, 0xbd, 0x1a, 0xcd, 0x9a, 0x3c, 0x3d, 0x29, 0x18, 0x3c,
  0x8c, 0x3e, 0x99, 0xbd, 0xa8, 0x63, 0x90, 0xbe, 0x99, 0x95, 0x8f, 0x3e,
  0x16, 0x94, 0x9f, 0xbd, 0x4d, 0x81, 0x3a, 0xbe, 0x53, 0xa7, 0x3c, 0xbe,
  0x48, 0xf2, 0x15, 0x3d, 0x8c, 0x10, 0xcd, 0x3d, 0xba, 0x9c, 0xb3, 0xbe,
  0xfd, 0x98, 0xf1, 0x3d, 0x34, 0xbf, 0xa4, 0x3e, 0x2b, 0xea, 0x4a, 0xbe,
  0x90, 0x9c, 0x3f, 0x3e, 0xb8, 0x9c, 0x2e, 0xbe, 0xed, 0xcf, 0x8d, 0x3d,
  0x98, 0x25, 0x00, 0x3d, 0x75, 0xc7, 0x86, 0x3d, 0x6d, 0x55, 0x82, 0xbe,
  0xfa, 0x5b, 0x2b, 0xbd, 0xad, 0xe9, 0x62, 0xbe, 0x63, 0x3d, 0xaf, 0xbc,
  0x88, 0xb2, 0x61, 0xbd, 0xb2, 0xba, 0x38, 0x3e, 0x2b, 0x96, 0x9b, 0x3d,
  0x76, 0xe3, 0x28, 0x3c, 0x6b, 0x4e, 0xd1, 0x3d, 0x0a, 0x21, 0xab, 0xbc,
  0x4f, 0x0d, 0xc5, 0xbd, 0xee, 0x03, 0x19, 0xbe, 0xed, 0x11, 0x1c, 0xbe,
  0xff, 0x45, 0x0c, 0x3e, 0xfb, 0x6f, 0x0a, 0xbe, 0x0b, 0x45, 0x23, 0x3e,
  0x7b, 0x02, 0x02, 0x3e, 0x51, 0xad, 0xd2, 0x3d, 0x60, 0x92, 0x18, 0x3d,
  0x86, 0xda, 0x8d, 0xbc, 0x9b, 0x24, 0x9a, 0xbc, 0xd1, 0x72, 0xa3, 0x3e,
  0x02, 0x3d, 0x00, 0x3f, 0x4f, 0xa9, 0x6e, 0xbe, 0xc1, 0x72, 0xc5, 0x3d,
  0x30, 0x92, 0xeb, 0x3c, 0x6b, 0x4f, 0xf9, 0x3c, 0x56, 0x83, 0x12, 0xbe,
  0x7f, 0x45, 0x39, 0xbe, 0x59, 0xa4, 0xb7, 0xbd, 0xa3, 0x37, 0x78, 0xbd,
  0x81, 0x6e, 0x38, 0xbe, 0x37, 0x7c, 0x14, 0xbe, 0x6f, 0x99, 0x12, 0xbe,
  0xfa, 0x0c, 0xa2, 0xbd, 0x45, 0xc4, 0x27, 0xbe, 0xa4, 0xdd, 0x9c, 0xbd,
  0x99, 0xe4, 0xc8, 0x3d, 0x54, 0xc6, 0x86, 0x3d, 0x47, 0x9d, 0x66, 0x3e,
  0x82, 0x44, 0x76, 0x3d, 0xf2, 0xc1, 0x0c, 0x3e, 0x41, 0xc4, 0x29, 0xbd,
  0x34, 0xf5, 0x7b, 0xbe, 0xf1, 0x43, 0x3c, 0xbe, 0x97, 0xf5, 0x3b, 0xbb,
  0x58, 0x60, 0x97, 0xbd, 0xf0, 0x35, 0x24, 0x3e, 0x20, 0xcb, 0x8c, 0xbd,
  0x9d, 0xdc, 0x0f, 0xbe, 0xa9, 0x6b, 0x48, 0x3e, 0xd5, 0x79, 0xb9, 0xbd,
  0x85, 0xc6, 0x0f, 0x3e, 0xa2, 0xea, 0x36, 0x3d, 0x2b, 0xd1, 0x8e, 0x3e,
  0x68, 0xf8, 0xa2, 0x3d, 0xe4, 0xb2, 0x52, 0x3d, 0xbd, 0xe5, 0xa9, 0x3d,
  0xc2, 0x83, 0x3b, 0xbd, 0xa7, 0x33, 0x2f, 0xbe, 0x6c, 0x0e, 0x08, 0xbd,
  0x26, 0x1e, 0xd2, 0xbd, 0x5d, 0x47, 0x48, 0xbd, 0x68, 0x19, 0xc6, 0x3c,
  0x62, 0x81, 0x91, 0xbe, 0x87, 0x05, 0x8a, 0xbd, 0x66, 0x60, 0x1c, 0xbe,
  0x2e, 0xa3, 0xaf, 0x3b, 0x1b, 0x57, 0x55, 0xbe, 0xfe, 0x61, 0x86, 0xbe,
  0x6f, 0xd4, 0x6c, 0x3d, 0x7b, 0xeb, 0x2f, 0xbd, 0xe4, 0x50, 0x78, 0x3d,
  0x2d, 0xcd, 0x8c, 0xbc, 0x5c, 0x97, 0xaa, 0xbd, 0x8b, 0x29, 0x58, 0x3d,
  0xc1, 0xbc, 0x96, 0xbe, 0xd7, 0x39, 0xa5, 0x3d, 0x5d, 0x28, 0x62, 0xbc,
  0xd8, 0x50, 0x8b, 0xbc, 0xd4, 0x4c, 0x6a, 0xbd, 0x39, 0x1c, 0xee, 0x3d,
  0xa5, 0x35, 0xb9, 0xbd, 0xb9, 0x7c, 0xa1, 0xbd, 0xb7, 0xff, 0xab, 0xbd,
  0x2c, 0xfa, 0x49, 0x3e, 0xc0, 0x2f, 0x0c, 0xbd, 0xe8, 0xb8, 0x4c, 0xbe,
  0xf3, 0xc8, 0x43, 0xbe, 0xf6, 0xbb, 0x06, 0xbe, 0x02, 0x7f, 0x90, 0xbd,
  0xa8, 0x0e, 0x88, 0xbd, 0x7f, 0xa0, 0x84, 0xbe, 0x7e, 0x81, 0x28, 0x3e,
  0xbe, 0x79, 0xab, 0x3d, 0x95, 0x77, 0x38, 0x3d, 0xdd, 0x50, 0x82, 0xbe,
  0xe2, 0x2c, 0x7f, 0x3e, 0xa0, 0x37, 0x09, 0x3e, 0x4c, 0x0f, 0xa3, 0xbd,
  0xc7, 0x6c, 0xd7, 0x3c, 0xcc, 0xf9, 0x38, 0xbd, 0x5a, 0x15, 0x31, 0x3e,
  0xf1, 0x60, 0x75, 0xbe, 0x85, 0x0b, 0x9b, 0xbd, 0x35, 0x2e, 0xd4, 0xbe,
  0x5a, 0x3c, 0xc3, 0xba, 0xcc, 0xbe, 0x33, 0xbd, 0xa3, 0xae, 0x92, 0xbe,
  0xd6, 0x3f, 0x11, 0x3e, 0x57, 0xdc, 0x92, 0x3d, 0x27, 0x1d, 0x5f, 0xbe,
  0x9e, 0xab, 0x88, 0xbe, 0xf1, 0x4d, 0xa6, 0x3d, 0x97, 0xcc, 0x74, 0x3d,
  0x26, 0x36, 0xb8, 0xbd, 0xc1, 0x0a, 0x22, 0x3e, 0x2e, 0x97, 0x8d, 0xbd,
  0x5e, 0xaf, 0xd9, 0x3e, 0x75, 0xe7, 0xcf, 0xbd, 0x3d, 0x33, 0x81, 0x3d,
  0x28, 0xa3, 0x72, 0x3d, 0xe0, 0x5c, 0x36, 0xbe, 0x1d, 0x30, 0x71, 0xbe,
  0x9f, 0x88, 0x87, 0xbe, 0xdd, 0xdb, 0xe3, 0xbd, 0x32, 0x64, 0x1d, 0x3d,
  0xa4, 0x37, 0xbf, 0x3d, 0xc5, 0x01, 0xb2, 0xbe, 0x84, 0x05, 0x43, 0x3e,
  0xf1, 0xeb, 0x75, 0x3e, 0xe2, 0x0b, 0xd2, 0xbd, 0xa0, 0xbd, 0x0b, 0x3e,
  0xcf, 0x5e, 0xef, 0xbd, 0xd5, 0x1b, 0xc7, 0x3e, 0x88, 0xdf, 0x00, 0x3e,
  0xff, 0xaf, 0xfd, 0xbd, 0x4a, 0x6a, 0xe1, 0x3e, 0x1f, 0x2d, 0xec, 0xbd,
  0x61, 0x93, 0x52, 0x3b, 0x0f, 0x1c, 0x2c, 0xbe, 0xff, 0x69, 0xed, 0xbd,
  0x5e, 0xa2, 0x99, 0x3d, 0xf8, 0x41, 0xc7, 0x3c, 0x8c, 0x25, 0xc0, 0xbe,
  0x21, 0x99, 0x95, 0x3d, 0x3b, 0x29, 0x0a, 0x3e, 0xb5, 0x5b, 0xa0, 0x3d,
  0x1c, 0x6b, 0x5a, 0xbd, 0xa5, 0x64, 0x5b, 0xbe, 0xea, 0xfb, 0xce, 0x3e,
  0x90, 0xcb, 0xf7, 0xbd, 0xa2, 0x01, 0xcb, 0x3d, 0x36, 0x6c, 0x3d, 0x3d,
  0xaf, 0xf2, 0xce, 0xbe, 0x2b, 0x7a, 0x0a, 0xbe, 0xe0, 0x9c, 0xb7, 0xbe,
  0xbe, 0x49, 0x5f, 0x3e, 0x59, 0x30, 0x6f, 0x3e, 0x5e, 0x4f, 0x5d, 0x3e,
  0x91, 0xa2, 0xd1, 0xbe, 0xe0, 0x86, 0x58, 0x3e, 0xbf, 0x22, 0xe3, 0x3e,
  0xd1, 0x4f, 0x93, 0xbd, 0xf6, 0xa3, 0x96, 0xbc, 0x29, 0x12, 0x41, 0x3e,
  0x4c, 0x5f, 0x3f, 0x3e, 0xa9, 0xde, 0x77, 0x3d, 0x03, 0x57, 0x32, 0xbe,
  0x89, 0x44, 0x71, 0x3e, 0x7a, 0xc1, 0xc2, 0xbe, 0x4f, 0xc2, 0x0e, 0xbe,
  0x8f, 0xe2, 0x0e, 0xbf, 0x5c, 0xd6, 0xbf, 0xbd, 0x5e, 0xc6, 0xe9, 0xbc,
  0x02, 0x70, 0x32, 0xbe, 0x1b, 0xd6, 0xbf, 0xbd, 0x80, 0x9b, 0x28, 0x3d,
  0x37, 0x68, 0x5e, 0x3f, 0x29, 0xb0, 0x46, 0xbe, 0x5b, 0x8d, 0xb2, 0xbc,
  0x18, 0x32, 0x1a, 0x3e, 0x5e, 0xed, 0x8f, 0x3e, 0xf8, 0x5d, 0x98, 0xbe,
  0x97, 0xd1, 0x61, 0xbe, 0xb8, 0xe1, 0xf0, 0x3d, 0xec, 0xad, 0x02, 0xbe,
  0x2d, 0x63, 0xc2, 0xbe, 0xeb, 0x37, 0x74, 0xbe, 0x9d, 0xbd, 0xbb, 0xbd,
  0xae, 0x7e, 0xf1, 0x3c, 0x20, 0x96, 0x87, 0x3e, 0x51, 0x9e, 0xa1, 0xbe,
  0x9e, 0xce, 0xbd, 0x3d, 0xd3, 0xad, 0xf1, 0x3c, 0xbc, 0x35, 0x7c, 0xbe,
  0x59, 0x84, 0x2b, 0xbe, 0x9a, 0x6c, 0x8f, 0xbd, 0x86, 0x75, 0xf1, 0x3e,
  0x1a, 0x06, 0x6f, 0x3d, 0x76, 0xfd, 0xfa, 0x3d, 0xae, 0x8a, 0x84, 0xbe,
  0xa8, 0x25, 0x1c, 0xbe, 0x8c, 0xf3, 0x0a, 0x3e, 0x01, 0x98, 0x5e, 0xbe,
  0xb1, 0xe4, 0xec, 0x3d, 0xae, 0x2c, 0xb3, 0xbd, 0x89, 0xab, 0x0a, 0xbe,
  0x6b, 0x61, 0xa7, 0xbd, 0xd1, 0x7c, 0xd6, 0xbd, 0x4a, 0xfe, 0xff, 0xff,
  0x10, 0x00, 0x00, 0x00, 0x05, 0x00, 0x00, 0x00, 0x14, 0x00, 0x00, 0x00,
  0x2c, 0x00, 0x00, 0x00, 0x02, 0x00, 0x00, 0x00, 0x10, 0x00, 0x00, 0x00,
  0x70, 0x00, 0x00, 0x00, 0x17, 0x00, 0x00, 0x00, 0x73, 0x65, 0x71, 0x75,
  0x65, 0x6e, 0x74, 0x69, 0x61, 0x6c, 0x2f, 0x64, 0x65, 0x6e, 0x73, 0x65,
  0x2f, 0x4d, 0x61, 0x74, 0x4d, 0x75, 0x6c, 0x00, 0x38, 0xfe, 0xff, 0xff,
  0x2e, 0xff, 0xff, 0xff, 0x04, 0x00, 0x00, 0x00, 0x08, 0x00, 0x00, 0x00,
  0xff, 0xff, 0xff, 0xff, 0x70, 0x00, 0x00, 0x00, 0x00, 0x00, 0x0e, 0x00,
  0x18, 0x00, 0x08, 0x00, 0x07, 0x00, 0x0c, 0x00, 0x10, 0x00, 0x14, 0x00,
  0x0e, 0x00, 0x00, 0x00, 0x00, 0x00, 0x00, 0x02, 0x10, 0x00, 0x00, 0x00,
  0x04, 0x00, 0x00, 0x00, 0x10, 0x00, 0x00, 0x00, 0x2c, 0x00, 0x00, 0x00,
  0x01, 0x00, 0x00, 0x00, 0x02, 0x00, 0x00, 0x00, 0x18, 0x00, 0x00, 0x00,
  0x73, 0x65, 0x71, 0x75, 0x65, 0x6e, 0x74, 0x69, 0x61, 0x6c, 0x2f, 0x66,
  0x6c, 0x61, 0x74, 0x74, 0x65, 0x6e, 0x2f, 0x43, 0x6f, 0x6e, 0x73, 0x74,
  0x00, 0x00, 0x00, 0x00, 0xa0, 0xfe, 0xff, 0xff, 0x96, 0xff, 0xff, 0xff,
  0x04, 0x00, 0x00, 0x00, 0x0c, 0x00, 0x00, 0x00, 0x69, 0x5b, 0x05, 0xc0,
  0x02, 0x3c, 0x31, 0xc0, 0x31, 0x5d, 0x56, 0x40, 0x0a, 0xff, 0xff, 0xff,
  0x10, 0x00, 0x00, 0x00, 0x03, 0x00, 0x00, 0x00, 0x10, 0x00, 0x00, 0x00,
  0x3c, 0x00, 0x00, 0x00, 0x01, 0x00, 0x00, 0x00, 0x03, 0x00, 0x00, 0x00,
  0x29, 0x00, 0x00, 0x00, 0x73, 0x65, 0x71, 0x75, 0x65, 0x6e, 0x74, 0x69,
  0x61, 0x6c, 0x2f, 0x64, 0x65, 0x6e, 0x73, 0x65, 0x5f, 0x31, 0x2f, 0x42,
  0x69, 0x61, 0x73, 0x41, 0x64, 0x64, 0x2f, 0x52, 0x65, 0x61, 0x64, 0x56,
  0x61, 0x72, 0x69, 0x61, 0x62, 0x6c, 0x65, 0x4f, 0x70, 0x00, 0x00, 0x00,
  0x60, 0xff, 0xff, 0xff, 0x00, 0x00, 0x06, 0x00, 0x08, 0x00, 0x04, 0x00,
  0x06, 0x00, 0x00, 0x00, 0x04, 0x00, 0x00, 0x00, 0x40, 0x00, 0x00, 0x00,
  0x2b, 0x1d, 0x65, 0xbf, 0x8c, 0xb9, 0xa4, 0xbe, 0xf0, 0x01, 0xa2, 0x3f,
  0x8b, 0x8e, 0x24, 0xbf, 0xd1, 0xbd, 0x59, 0xbe, 0x62, 0x1b, 0x05, 0xbe,
  0xcd, 0xbd, 0x0c, 0xbf, 0xa9, 0xbd, 0x5d, 0xbf, 0x25, 0x41, 0xdb, 0xbe,
  0x27, 0xee, 0xa2, 0x3f, 0xe8, 0xd3, 0xe5, 0xbe, 0x60, 0x17, 0x86, 0xbf,
  0x5a, 0x29, 0xa2, 0xbd, 0x72, 0x2e, 0xaf, 0xbe, 0x10, 0x49, 0xbe, 0xbe,
  0x15, 0x15, 0x70, 0xbe, 0xae, 0xff, 0xff, 0xff, 0x10, 0x00, 0x00, 0x00,
  0x02, 0x00, 0x00, 0x00, 0x10, 0x00, 0x00, 0x00, 0x3c, 0x00, 0x00, 0x00,
  0x01, 0x00, 0x00, 0x00, 0x10, 0x00, 0x00, 0x00, 0x27, 0x00, 0x00, 0x00,
  0x73, 0x65, 0x71, 0x75, 0x65, 0x6e, 0x74, 0x69, 0x61, 0x6c, 0x2f, 0x64,
  0x65, 0x6e, 0x73, 0x65, 0x2f, 0x42, 0x69, 0x61, 0x73, 0x41, 0x64, 0x64,
  0x2f, 0x52, 0x65, 0x61, 0x64, 0x56, 0x61, 0x72, 0x69, 0x61, 0x62, 0x6c,
  0x65, 0x4f, 0x70, 0x00, 0x04, 0x00, 0x06, 0x00, 0x04, 0x00, 0x00, 0x00,
  0x00, 0x00, 0x0e, 0x00, 0x14, 0x00, 0x04, 0x00, 0x00, 0x00, 0x08, 0x00,
  0x0c, 0x00, 0x10, 0x00, 0x0e, 0x00, 0x00, 0x00, 0x10, 0x00, 0x00, 0x00,
  0x01, 0x00, 0x00, 0x00, 0x1c, 0x00, 0x00, 0x00, 0x2c, 0x00, 0x00, 0x00,
  0x04, 0x00, 0x00, 0x00, 0x01, 0x00, 0x00, 0x00, 0x40, 0x00, 0x00, 0x00,
  0x03, 0x00, 0x00, 0x00, 0x01, 0x00, 0x00, 0x00, 0x0c, 0x00, 0x00, 0x00,
  0x63, 0x6f, 0x6e, 0x76, 0x32, 0x64, 0x5f, 0x69, 0x6e, 0x70, 0x75, 0x74,
  0x00, 0x00, 0x00, 0x00, 0xfc, 0xff, 0xff, 0xff, 0x04, 0x00, 0x04, 0x00,
  0x04, 0x00, 0x00, 0x00
};
unsigned int _content_ee2405_midterm_model_model_tflite_len = 12316;
